3E
07
3E
3F
3E
39
3E
3C
08
3A
00
06
08
39
3D
05
03
01
3D
3F
09
3F
04
00
00
3E
01
3A
3A
38
3C
34
3B
3E
06
01
01
0A
35
39
08
02
04
06
3D
37
3A
00
3F
00
39
04
3E
34
3C
3B
09
02
3A
00
3C
05
38
01
00
01
37
3C
3A
3F
3C
00
35
37
04
3E
3C
3F
3A
01
3B
39
03
3A
01
38
05
07
3F
03
10
03
39
01
03
35
3F
39
0B
01
3E
3D
36
39
3F
3E
0B
3E
3E
3E
38
3B
07
3A
3F
3F
07
3E
07
07
3A
36
03
3F
06
3C
07
07
3F
08
03
07
3C
06
09
05
08
3B
03
05
00
02
3B
03
0E
36
3A
3E
03
39
3D
3A
04
39
3A
39
3A
3C
05
39
08
02
05
07
02
37
3C
3A
07
04
06
0C
39
08
09
3B
07
03
09
02
3E
37
02
3D
3D
3B
03
02
04
3B
39
3A
01
3B
32
04
00
3E
37
08
05
38
03
35
03
01
0B
00
3E
3C
3B
08
02
05
3A
06
38
36
03
3C
04
36
3E
07
09
37
04
37
38
3C
39
02
01
3E
04
08
3B
0A
09
00
3B
34
00
3A
3E
3F
3E
06
06
38
02
01
3E
04
00
36

