0FE
103
101
0F8
103
102
10A
0FE
100
102
0FE
0FF
0FF
101
0FE
0FD
0FF
0FF
0FE
0FF
101
0FD
0FF
100
100
0FE
0FF
100
102
0F9
102
103
0FF
101
102
102
104
0FF
101
100
100
0FF
101
0FF
102
101
100
0FC
101
102
0FF
102
100
0FF
102
101
101
0F8
0FE
0FF
0FE
102
0FD
102

