fc
c
fb
7
0
fd
fe
fd
fe
5
7
fd
9
3
f4
4
f5
fa
5
f9
1
0
fb
5
0
fc
5
1
5
f8
fa
f9
fa
fa
5
5
f9
0
5
fb
7
b
fe
f9
2
f5
b
5
fd
5
ff
1
3
8
b
fb
b
f7
f7
a
3
ff
fc
8
f5
f6
fb
9
4
6
f8
fd
3
5
2
f9
f6
f5
8
fe
ff
2
1
fd
8
f9
ff
1
f8
2
1
5
fd
7
fa
8
5
ff
5
9
a
7
8
fe
1
4
2
8
6
fa
3
a
8
4
f6
2
ff
9
5
2
fd
9
5
7
a
1
a
fe
f9
a
fa
fa
3
fa
9
f8
6
fe
fe
2
fa
ff
fa
1
f7
f5
fc
7
1
fb
0
0
0
a
7
8
fa
4
4
fe
0
1
7
0
c
f6
9
f5
f4
5
9
fb
6
f9
fb
f5
f5
fb
1
ff
f7
fa
f8
1
9
5
fc
fa
0
9
f7
0
5
f6
9
3
7
2
fc
9
fc
fa
3
f8
f7
fc
f6
4
9
7
4
f7
8
fd
fa
7
4
5
f6
fb
3
ff
2
fb
3
5
9
1
5
f7
b
1
9
ff
3
fd
5
fe
9
a
fa
f7
0
fd
f7
f5
8
fb
fb
c
8
9
7
fd
a
fa
ff
fc
f8
fa
a
0
fd
fa
f8
6
fe
f8
8
6
6
f8
fd
fe
4
0
2
ff
2
f3
6
4
0
9
fb
5
f8
f7
0
fe
4
fb
2
9
9
f8
4
7
ff
f8
f7
6
f7
f7
4
fa
b
1
0
8
8
8
f7
8
f9
f8
b
fe
f9
fd
f9
4
f8
d
0
3
5
2
3
f6
8
fe
3
f6
f5
fe
2
f5
2
fa
f5
7
1
9
f8
6
9
5
5
5
6
fe
fa
f8
f7
8
8
f6
4
9
fb
fa
f6
6
c
8
4
ff
f9
6
f5
a
f5
ff
f6
0
1
2
6
fe
fa
fa
b
f9
1
3
1
fc
f4
2
5
1
fa
7
7
f8
ff
fc
c
5
ff
b
f5
6
5
3
8
9
f6
fe
fc
9
f8
1
3
1
f8
fb
f9
9
fc
fd
fc
fe
fa
f9
f6
fe
f9
fc
fc
1
f9
fe
3
4
fb
3
7
fc
7
fe
f7
3
ff
8
f7
fb
0
fb
5
f9
5
b
fd
a
d
4
3
fd
f7
f9
fb
fa
f7
7
fa
fe
2
0
ff
9
ff
f7
6
0
8
c
7
f7
f8
3
fd
a
7
8
f8
fd
0
6
6
2
3
fc
fe
6
f7
b
0
4
f7
2
5
fd
f6
fd
f6
fc
f7
f9
5
4
8
8
b
f7
5
fc
f6
4
b
a
8
f6
f7
7
ff
1
0
fd
9
5
fc
f5
3
0
6
2
1
3
fb
3
f7
f9
fd
2
fc
f7
1
7
f5
f8
1
0
fe
9
9
fd
2
fc
4
fb
f9
a
f7
8
fc
7
1
2
fd
fe
f9
f6
f7
f6
c
fb
fd
f9
f9
3
fd
fb
a
6
7
a
fb
5
b
fe
8
7
3
7
8
2
ff
4
f6
fd
2
2
f9
f9
4
f9
a
ff
fc
fe
2
8
f9
3
9
a
f5
fc
a
a
f7
0
1
fd
fb
ff
f6
f4
7
f6
6
f8
4
2
3
5
3
3
ff
2
fc
5
9
fd
2
fb
fd
fe
fc
8
fd
2
9
a
9
4
3
a
5
c
f6
0
fe
0
fd
9
fe
7
f9
a
4
f5
4
0
7
9
fe
a
6
5
5
3
fb
ff
fe
a
f9
fd
3
fd
1
a
4
3
9
f6
fb
9
1
fe
f9
5
fa
a
fe
5
f7
0
6
9
8
2
8
a
4
fe
ff
4
b
fe
4
f7
f8
9
c
f6
7
ff
9
1
fe
f8
fb
fa
a
f5
f8
1
f5
f7
fd
ff
a
0
b
2
fc
7
9
f8
7
f5
b
fd
fe
2
0
9
fa
b
1
2
1
6
2
0
f8
f8
fb
f9
f8
fd
2
fc
0
9
0
9
0
2
b
f4
fc
6
f8
c
5
8
7
4
f6
3
f8
6
fc
a
f8
f3
fb
6
f7
f5
a
9
f6
7
7
ff
fb
9
1
7
7
4
f6
fb
f9
2
ff
fc
fd
b
f6
c
fc
8
fb
9
f6
ff
fe
fb
fb
3
fd
ff
2
4
f5
f9
9
1
5
7
f8
2
6
c
b
f7
f4
f6
2
7
b
f7
ff
9
fa
f5
f9
f9
f9
4
f9
4
fd
4
fa
0
3
fb
f6
fa
ff
0
3
8
6
fe
0
f5
fe
8
f9
9
3
f6
f6
f9
8
fc
ff
f5
fa
8
5
b
fe
9
f6
fd
fd
a
7
f8
f9
f6
f7
a
0
fc
3
7
ff
4
f7
1
9
4
2
fe
5
6
fa
8
f4
8
fe
f7
a
9
4
8
f7
6
fd
fe
f5
d
f7
fa
9
fc
7
f8
fe
0
f9
c
f6
f8
5
ff
f9
fc
6
f8
fd
fe
2
4
8
a
f9
f6
fd
fd
1
fb
a
6
2
fb
3
fb
7
f5
7
f5
5
fe
b
f6
ff
fc
f9
8
f6
7
f5
a
7
c
4
5
fd
a
fe
fe
f8
f9
4
b
b
9
fb
6
2
3
3
f8
8
f9
2
ff
f6
5
fc
4
fc
fb
7
4
f7
fa
fe
0
9
1
f7
3
2
2
b
fb
f6
fa
4
f8
7
1
4
fc
9
fb
9
f8
0
1
2
f5
f7
1
a
fa
f4
0
fb
8
1
fb
fb
fb
f5
f9
f6
0
fe
fd
3
f9
fb
b
ff
a
ff
f7
3
1
5
fb
a
fb
ff
fc
fe
9
4
f6
a
ff
b
7
9
2
0
3
8
3
0
fb
ff
fe
b
fe
b
f8
2
fb
fb
f8
a
9
4
6
4
fd
4
7
6
5
f6
f8
b
8
fe
9
5
fa
9
6
6
fc
f7
3
f6
1
2
fc
f7
8
f6
5
fc
fd
fa
3
fc
6
f5
9
fc
f6
fd
fe
fe
f4
8
fc
a
fe
fa
5
fe
c
f7
ff
0
7
fc
ff
fb
5
3
2
7
5
3
4
a
5
a
a
0
3
f7
fc
fa
f6
8
f8
1
5
5
2
f5
fc
3
3
f5
0
1
5
0
7
2
fe
ff
5
8
4
1
a
c
4
7
7
fb
f9
3
b
f8
f9
9
1
7
f9
ff
3
ff
ff
2
b
f9
fa
a
8
7
1
b
8
7
9
4
6
fc
f8
ff
f7
9
2
f6
f9
5
fa
f7
8
a
fe
a
8
fd
3
f5
a
9
b
f9
ff
b
fa
f9
4
fb
fe
4
4
f9
f5
fa
8
fd
4
f8
c
3
fe
b
4
3
f6
7
fb
fd
a
4
f6
f4
ff
3
6
ff
1
f9
9
fc
fc
f7
2
a
4
2
1
f7
2
3
2
ff
fc
fc
f7
a
ff
1
0
6
f8
fc
f8
2
2
fc
b
a
1
3
4
1
8
a
5
5
1
0
fb
f6
6
a
7
3
2
fa
fd
1
8
3
f8
fb
1
fa
4
f8
9
f8
7
6
fb
fb
3
fa
0
fa
9
ff
fb
5
f7
a
f6
9
3
6
a
2
2
a
fb
f4
8
ff
8
7
6
2
9
fb
f9
f7
1
3
8
d
a
4
f7
a
7
fb
0
fe
f5
6
7
b
4
4
4
f8
1
ff
5
ff
4
2
4
3
fe
8
6
f7
5
7
1
fa
8
2
9
fc
fe
4
a
3
8
0
4
5
b
1
f6
8
4
0
9
7
f7
a
f9
f8
5
b
1
fe
2
3
1
1
f5
fb
f5
fe
b
1
4
b
f8
6
5
9
7
f7
ff
8
f9
fc
0
fe
ff
1
f8
0
2
fe
fe
c
b
2
3
3
fe
8
5
fa
5
fd
f5
fa
4
f8
f6
6
2
9
5
f5
8
6
f8
5
1
fc
4
7
fc
f7
1
f6
f7
f6
5
a
a
3
f5
f9
ff
fa
1
fe
fb
fc
2
6
f7
f5
0
6
2
6
7
fc
2
fa
3
6
a
fb
fb
0
6
5
f8
fd
b
fc
3
a
f8
b
fd
ff
6
f6
4
f7
7
f8
3
9
f8
8
fe
c
f6
9
f7
3
2
9
f6
f7
6
fe
fb
8
f8
1
f8
5
1
ff
7
f5
1
ff
f3
6
f8
0
9
5
f8
5
5
0
9
fe
3
9
1
c
4
9
7
0
1
fb
f9
f4
fe
6
2
fc
fa
4
b
8
4
2
fb
f9
1
fc
f9
8
6
fd
fa
a
8
ff
2
fc
fb
f8
f7
fb
a
8
1
fd
8
7
5
0
fa
0
6
5
f8
f9
ff
fa
f6
8
f7
fe
5
f6
3
f5
fc
fc
1
f7
fe
1
c
f7
3
fd
ff
fd
fc
3
5
6
4
6
f7
9
f9
fd
9
5
1
5
f6
2
fb
5
3
f9
f6
f8
4
7
fb
1
f5
ff
fd
f8
f6
4
fb
a
a
fd
8
5
fb
f6
2
fe
1
4
fe
1
a
5
5
fb
1
fe
fd
5
fb
ff
8
c
f4
f7
f5
fe
fd
fc
6
3
2
ff
f9
4
5
ff
6
fa
f5
f4
2
fc
3
fe
fa
6
f7
c
5
f8
9
5
fd
f6
8
fe
6
fd
fd
fe
f9
f9
a
f7
7
a
5
fb
8
5
f9
4
6
7
fd
fc
fd
a
f5
f9
ff
f6
0
fa
f6
1
8
f7
9
3
f7
0
4
b
1
fc
1
fd
ff
fc
fb
0
f6
1
fb
f5
fb
2
7
fe
ff
f5
a
2
2
0
ff
6
fb
ff
fd
fa
a
5
0
9
c
fb
fb
5
1
3
5
8
5
f9
2
8
3
9
fd
2
8
fb
8
7
1
b
f6
fe
7
f5
fa
8
8
9
b
f6
ff
1
1
f6
0
f4
f6
3
f9
f8
f7
9
a
6
9
f7
ff
f9
fb
7
3
9
6
ff
ff
fb
f8
5
2
f8
ff
9
f6
a
f6
a
3
6
fc
2
9
fa
3
fa
0
f8
5
8
f9
4
5
f6
1
f6
ff
f5
f9
4
fc
ff
0
fe
8
b
5
6
fc
f7
f9
fd
a
a
a
fc
5
fd
fc
4
fb
4
f9
9
fa
fb
b
f6
f9
ff
4
a
4
fd
f7
5
1
f7
4
fb
a
fe
f5
8
3
f6
2
9
4
4
8
fd
fd
f8
0
f6
f8
9
f4
5
5
f8
b
0
ff
2
f8
c
5
f6
f5
7
fe
b
4
5
fc
fc
fa
f9
a
2
f5
fc
fc
f8
0
f8
1
1
3
3
f8
8
fb
fb
1
6
4
1
fd
ff
f6
fd
f6
fd
9
0
fa
6
b
5
4
fa
f6
5
a
fd
2
1
fb
fd
fd
3
a
2
fe
f8
f9
f7
7
fc
f6
f6
2
f6
8
f6
fd
f6
9
f5
ff
fa
9
fe
f9
a
9
f4
7
f6
a
3
7
9
fd
f5
fc
ff
0
f6
6
f9
f9
fb
f9
f7
c
1
3
f8
f7
0
f7
f8
fa
b
4
b
fa
fe
ff
9
6
f4
0
7
8
1
fb
0
0
f5
7
fe
2
7
ff
9
9
3
6
3
f9
ff
f5
3
8
b
8
fa
fd
f8
f5
f5
f5
f6
3
4
a
fa
f5
9
a
f7
5
1
fe
3
2
f6
8
f9
1
1
f9
ff
4
5
f9
f4
8
4
3
0
6
5
9
7
8
fc
2
4
b
4
fe
4
6
fc
fb
f8
fa
f5
0
0
2
f6
fa
3
5
a
7
fc
6
fa
a
9
8
9
f7
2
1
8
4
7
6
fa
0
1
fa
f8
ff
1
0
fa
8
4
f8
fb
1
4
7
7
0
1
f6
1
f8
fe
1
f9
f9
fc
fc
ff
7
3
a
f5
9
f7
fd
f5
fe
7
6
fc
4
f8
0
b
f9
0
f6
9
0
0
fb
7
8
fa
4
fc
8
f7
fa
5
f8
1
f7
5
9
4
fa
f7
f5
2
6
4
a
fd
fa
fd
ff
f5
fa
f7
fc
f7
4
2
fa
7
7
ff
8
0
a
5
2
f7
3
f8
6
1
f8
a
fe
fb
9
fd
4
ff
f6
5
a
8
fd
5
1
a
1
2
3
f5
f3
b
f7
f5
1
f8
9
f9
f7
8
fc
ff
fa
a
fa
fc
7
5
4
fd
4
7
fd
fd
1
7
5
fe
7
7
9
fe
2
6
6
1
f5
1
3
fe
1
f9
f5
a
1
2
fc
2
f8
6
fb
f7
f9
0
2
9
b
9
5
3
fe
6
0
fa
f8
0
1
b
f9
ff
1
9
7
8
1
0
4
f8
6
fe
c
1
6
fd
fc
b
f7
fb
fe
6
7
f7
f7
4
8
6
6
f8
fc
ff
fd
fd
f7
4
0
6
f8
fe
f8
fe
a
fc
2
ff
5
fb
3
7
5
f9
ff
3
ff
fb
fd
8
a
4
6
f5
fd
fe
f7
3
fd
f9
b
1
2
fb
fe
7
fa
3
f7
f9
f7
fb
f5
6
f7
8
fb
2
5
fe
fa
f7
fb
0
9
9
7
fa
4
fa
fa
6
ff
ff
4
7
fb
2
fc
f6
9
9
8
2
6
fc
f5
fc
2
f8
fc
3
f6
0
ff
a
4
9
8
f7
f8
a
2
5
b
b
f9
f9
3
fb
1
f9
2
8
2
4
f8
a
5
fe
f5
1
fe
fe
8
3
1
f9
b
a
f6
4
ff
f9
8
f9
fa
f5
b
f6
2
3
4
f6
0
5
f5
1
f5
ff
fd
a
f6
9
6
fc
f4
3
b
fd
f9
a
8
a
8
f9
9
b
fe
f6
fa
f4
6
ff
fa
f3
3
f8
fd
fe
6
9
3
f5
b
5
ff
b
0
fe
fe
fd
2
fa
fc
c
6
7
f9
0
fd
fa
a
ff
0
fb
2
2
f5
8
fa
8
f8
b
a
8
ff
1
a
f6
4
b
6
8
ff
ff
7
fd
f6
ff
fd
1
b
6
4
b
f9
fc
fe
fd
ff
fc
fd
9
1
f9
7
a
f8
5
fa
0
a
fd
fe
7
fd
0
5
fe
3
f5
a
5
9
f8
fa
3
fe
8
2
8
fe
5
3
fe
f7
fc
f9
5
fa
fe
a
5
9
f6
3
f4
ff
f9
9
4
fd
f8
9
f6
f6
fc
fe
6
a
fd
1
6
2
fd
f9
b
7
fc
2
ff
f7
4
a
7
f5
f9
f6
7
f5
fa
fb
b
1
f8
9
4
8
6
ff
5
fa
f5
9
4
ff
f5
fd
fa
3
fa
5
3
7
f6
6
9
6
fe
4
8
f8
1
6
fd
f8
fe
3
3
f8
b
ff
2
6
f9
f6
f9
1
ff
9
ff
fe
fd
5
6
ff
b
b
1
8
1
9
3
fc
6
b
ff
ff
2
7
5
ff
f9
fc
fa
fe
f8
b
f6
fc
fa
1
fe
8
a
fc
5
1
9
5
fd
3
1
6
f5
ff
fd
a
3
5
5
9
fd
6
fe
b
7
9
fe
f5
2
f9
8
0
f8
0
1
fa
fd
3
1
fd
0
7
5
fc
f5
2
b
9
2
1
fc
f8
f5
f7
f7
8
fc
f8
f5
6
b
f6
8
f4
fb
6
7
a
b
3
9
8
4
a
f9
1
8
8
9
7
fb
5
1
3
f9
f9
9
0
8
0
ff
1
f7
8
7
fb
2
7
f7
9
b
3
fb
8
ff
a
8
ff
f7
ff
0
0
fe
fd
f8
3
b
f9
1
9
6
f8
fc
fe
7
b
f7
f7
1
2
8
f5
f6
9
6
fa
2
6
fb
9
6
9
f9
6
fa
1
5
fc
2
f9
ff
f9
fa
fb
fa
7
6
9
6
ff
a
a
fe
fa
4
8
f7
2
f9
fa
2
fc
9
a
f8
4
ff
f8
ff
0
6
5
b
fb
a
9
f9
f8
f7
3
fc
fd
fe
f5
c
fa
6
5
f6
fb
f8
b
f6
fc
fa
7
8
f7
d
b
f9
c
8
0
f8
0
3
f9
1
fa
fd
6
f8
9
4
fa
2
6
7
8
fa
7
f8
a
7
8
2
0
f4
2
ff
0
b
fe
1
4
7
fa
fa
6
fd
f9
6
1
f4
b
ff
fa
9
1
8
b
f7
0
f9
5
fd
fe
7
fb
2
6
fa
fb
fa
f8
3
8
fd
6
f6
5
0
f9
b
5
f7
fc
c
f8
f8
c
3
fb
fc
2
9
f7
4
a
2
0
1
ff
f8
fd
ff
4
ff
2
8
1
6
fc
5
f5
f7
a
ff
8
8
fb
0
2
fb
7
f7
fc
4
fc
7
7
fb
fe
2
4
a
4
fd
fc
6
7
1
5
f8
fc
9
fb
1
7
f9
5
4
a
f9
6
2
f7
5
fc
8
f7
f9
fe
fc
f5
f9
1
fa
fd
0
9
1
fe
f9
2
fc
3
5
5
5
3
3
f6
4
5
fb
2
f5
fc
6
9
fc
f8
6
9
fc
c
3
fe
f6
4
fc
5
7
6
f5
9
fb
f5
0
6
fd
ff
b
f7
fd
fe
4
fa
f9
7
6
5
f9
3
8
f6
fc
2
9
a
f5
6
1
f6
b
9
1
fb
8
9
5
ff
fe
2
2
1
0
fa
b
1
f6
f5
c
f9
a
7
4
1
f7
4
f8
f5
3
f7
fe
0
6
fd
0
6
fa
f9
ff
2
3
ff
fd
6
ff
2
b
7
fc
7
7
2
f5
f6
7
fc
fb
fb
8
fd
2
6
5
f9
f9
f7
f9
2
9
fb
f8
f4
fc
4
2
0
7
3
6
f6
fa
c
fb
b
a
0
fd
fa
2
2
2
2
b
fa
a
2
4
1
fe
0
b
f3
f7
fc
fc
fc
fa
3
fb
8
1
7
f5
fa
2
f6
3
2
3
f6
a
7
6
f8
fc
5
f5
7
3
4
0
1
fe
f6
a
2
4
3
f5
8
fe
0
a
f5
fa
fb
8
4
fe
f6
fa
8
0
3
ff
fb
b
0
5
1
fe
9
f9
0
8
8
f9
fb
fb
1
3
f8
3
ff
a
2
fd
fb
f8
fb
f6
5
3
2
fe
fe
fb
0
3
2
0
6
fd
fa
ff
6
fd
4
f5
f7
2
f4
9
9
fc
fd
7
4
f6
f9
fb
1
2
2
4
4
a
fa
1
f3
5
a
fc
6
fc
fd
f5
f6
f6
ff
f5
0
6
8
fd
f8
f9
f6
f5
0
fb
f7
fa
fe
3
4
fc
4
ff
2
a
7
6
5
4
fa
f6
1
5
fb
f6
3
2
b
fe
7
fe
3
0
8
1
a
b
6
4
7
fa
f8
6
fa
fc
c
0
fe
5
f8
f6
1
6
f8
1
3
fa
f8
f5
5
2
fb
4
5
f7
f7
3
a
ff
f9
8
1
8
a
5
f8
9
3
6
f9
8
fc
f7
3
1
f9
fa
ff
f9
3
6
fd
3
fa
ff
fe
f6
1
f7
fc
f7
8
fb
b
fd
6
3
9
fa
fc
f9
fb
6
0
4
8
a
4
4
f6
6
f9
9
ff
ff
8
f9
fe
f5
f8
6
2
5
1
fa
0
f5
f9
fb
f8
fe
f8
b
7
f6
0
1
f6
f7
a
4
7
b
fb
f7
1
a
8
a
fd
f8
f7
f7
f8
fd
7
f7
fb
6
fe
fc
f5
ff
a
f9
1
fb
fc
fb
f8
fc
a
ff
2
ff
f6
f9
2
4
7
5
2
3
5
ff
fb
8
1
f6
8
2
fd
fe
5
2
fb
5
fe
f4
f8
8
7
5
5
6
4
fd
f6
fb
f4
fa
fd
9
5
1
fd
5
1
9
b
9
f8
7
a
fc
fa
f5
9
ff
f9
3
8
9
fc
fe
0
fb
f5
1
1
fb
4
a
f7
fd
f8
b
fc
fc
fa
fd
9
fc
0
1
fe
f8
f6
ff
f6
f8
8
fa
7
7
8
9
a
fc
ff
6
7
3
f8
fd
f9
2
4
fc
f9
6
b
6
f8
c
f8
a
ff
4
f5
3
ff
6
4
6
0
f4
1
f5
fe
fe
3
2
9
2
fc
f5
f6
f6
0
5
fa
fc
4
b
ff
a
8
4
f5
3
b
5
f8
fb
b
fe
f6
4
7
b
6
6
f8
f9
fe
fc
fa
1
6
6
a
2
f9
8
f9
f5
ff
4
fe
fa
c
f6
fe
f7
b
fd
fd
5
9
5
fa
7
4
6
fa
0
7
fc
f9
f5
f6
f7
ff
4
b
7
f6
f9
f7
f7
fb
2
a
5
4
f7
f6
5
5
1
9
b
f6
fa
fb
5
5
2
8
6
8
7
fc
f6
fc
9
6
fc
c
3
ff
a
8
7
1
1
0
fb
fb
fb
f6
2
4
7
f9
f7
f7
f5
5
5
fc
a
ff
fc
6
fc
fe
fe
0
fa
fa
5
fc
8
fe
9
f7
f8
f7
fa
5
fa
8
0
2
f8
fd
9
6
f9
4
fe
fe
4
2
3
b
0
f4
f8
f9
fd
fe
fe
6
f9
a
0
6
9
2
fb
c
ff
fb
9
fc
8
f9
f8
2
6
4
fc
9
fd
0
f8
b
f9
f4
4
fb
6
3
fa
fb
fe
9
f5
1
0
9
f5
fb
7
f5
6
fc
ff
9
f8
fe
f5
5
f6
fa
1
1
f5
fd
fb
8
6
1
1
f7
5
8
9
f7
fc
f6
ff
9
a
3
2
fc
fa
4
1
fe
2
0
a
a
f8
2
fb
9
