fd
5
0
3
fa
0
fb
fd
5
fa
0
f8
fa
fb
1
fb
8
6
fd
7
2
0
3
1
f9
6
7
f9
3
3
fd
fd
2
fe
6
1
fb
7
fb
fd
fc
fd
fd
6
fe
f8
f9
1
0
f9
fa
ff
fe
f8
f9
2
5
8
fa
0
fe
fe
fd
9
fd
8
f7
0
f9
1
fd
fd
ff
fd
4
1
3
fb
f8
f9
fd
0
0
fc
1
4
fe
fe
f8
4
fe
5
fa
fc
7
f8
fb
2
f9
6
5
0
fc
fa
fe
fb
3
4
1
0
fd
ff
fe
fd
ff
0
4
2
7
2
f8
fc
4
fc
fe
ff
7
f8
6
3
5
6
1
1
5
1
7
ff
0
5
3
fa
fc
7
5
fc
fd
f8
7
1
6
fb
1
f9
2
4
0
f9
f9
fd
6
f9
fd
7
7
fd
fc
6
6
fa
3
0
0
4
6
f9
5
fe
f9
1
0
ff
f7
2
ff
f9
8
0
fd
3
f9
f9
1
fa
fb
fd
2
3
fd
4
b
2
fa
fc
5
0
4
6
fe
fc
fd
0
1
fc
f9
1
ff
fa
7
f9
fd
f5
6
5
6
f7
1
fe
f5
fa
ff
f7
7
fc
fc
6
fd
fe
9
fa
4
fa
3
3
ff
f5
ff
fe
2
fb
7
fb
4
4
3
2
fd
0
3
fa
6
fd
0
0
0
6
2
fe
8
3
0
4
1
fd
fd
fc
6
5
4
ff
f9
fc
fa
fc
fc
fe
3
fb
5
2
fd
fb
1
fe
fb
fc
6
5
fe
ff
7
fa
5
fd
1
fa
fe
4
6
0
fd
fb
3
fa
5
fd
0
fd
6
fc
2
ff
0
fe
5
2
4
5
0
f8
2
fa
fa
1
3
3
7
0
6
fe
f9
5
fe
7
7
fe
2
fc
7
f9
2
fa
f9
8
2
2
4
5
3
1
8
6
4
fb
f9
fb
3
fa
fe
5
fd
fc
0
ff
f7
6
fc
0
fd
8
f8
fc
fc
f9
3
6
4
1
2
f9
fd
2
fc
0
fa
f9
fe
fd
ff
fc
1
ff
6
f7
3
fc
6
ff
f9
fb
4
ff
4
3
1
fe
ff
ff
f8
4
8
7
f8
3
fd
8
5
1
ff
fc
2
3
f9
f6
4
7
f9
fc
fd
fd
f8
fc
fe
fe
1
0
1
fa
fe
a
fa
7
f8
7
2
4
fd
1
d
fc
4
0
4
9
9
fd
fb
2
4
8
5
5
0
9
fb
9
ff
4
9
3
6
9
3
fe
a
7
fb
3
4
fa
fe
fe
fc
1
3
3
5
1
4
f9
2
5
4
f9
f8
fd
3
a
3
0
ff
b
2
fb
ff
fd
fb
7
fd
8
f8
f9
1
0
fe
ff
4
fa
fb
7
0
fd
ff
7
fb
f8
5
4
f9
8
0
5
6
fa
5
fd
4
8
6
fb
5
fe
2
4
0
3
fc
7
fa
6
ff
8
8
fc
fd
2
ff
1
fb
fa
fd
1
6
fe
ff
4
fa
fd
fc
fb
fc
4
2
5
fc
ff
fb
ff
4
1
1
2
3
4
2
fa
fc
ff
5
fe
fc
1
fc
fe
ff
fc
ff
fe
f7
2
2
0
fa
fc
2
8
6
f9
2
7
5
3
7
f9
ff
fc
5
1
fd
ff
fb
2
ff
0
fe
5
f9
fe
fe
ff
ff
2
7
fa
1
6
ff
fd
fa
3
fa
fa
3
6
4
fc
fc
4
7
f9
f9
fd
3
7
fd
6
fc
5
3
5
1
fe
fe
fe
fc
f8
fe
fe
5
0
fb
fc
2
0
fc
4
fa
0
fc
5
fa
3
6
ff
3
4
fe
5
f8
fc
f9
5
6
fc
7
ff
7
6
1
2
fd
ff
fc
5
7
fa
0
fa
fe
7
fd
3
6
fd
fa
7
b
fb
a
6
7
fc
f8
2
fe
fa
5
6
5
8
7
6
1
fd
fe
fb
fd
fc
3
1
6
fa
1
f9
3
f7
4
9
fb
f7
fe
6
fd
6
2
fa
fa
fc
4
3
fb
2
2
3
fd
fb
5
1
fb
fb
4
7
fa
fe
3
3
fc
1
7
f9
2
0
6
fd
5
0
3
fc
5
4
fd
ff
fc
7
6
6
fa
fe
fe
fb
5
fe
fa
fe
ff
1
7
0
3
fc
fc
2
1
1
7
4
ff
fa
2
f7
fb
ff
fe
5
1
fd
fd
3
fb
8
3
ff
2
5
0
2
fc
ff
fd
5
1
fc
7
fb
fa
8
4
fe
ff
6
fd
fa
0
f9
fa
0
4
fe
fe
3
5
fd
9
f9
f9
fb
ff
fe
fe
3
ff
5
fb
ff
7
7
2
3
6
8
f9
fe
f8
f8
fd
8
ff
4
0
fa
fd
2
6
3
ff
fe
fa
ff
ff
6
5
0
fb
1
3
5
0
f8
f8
0
f9
fa
7
4
8
5
4
f9
1
fb
3
3
1
fd
6
1
3
3
ff
1
fc
ff
1
ff
1
4
f9
f9
f8
f9
4
2
3
fd
2
f8
2
fc
ff
fc
fa
f6
4
4
f9
1
f8
7
9
0
fc
6
5
ff
7
6
fa
1
f9
2
3
3
fc
4
2
ff
fe
fe
fb
fa
4
6
fe
fe
3
fe
fd
0
fa
5
fa
4
f8
ff
ff
0
ff
3
f8
f8
5
f8
fd
fa
fe
8
4
fa
f7
4
fe
fb
5
f9
6
5
4
0
fe
fe
fc
f9
5
fe
2
1
6
f9
0
fd
4
1
ff
0
4
fa
0
7
3
3
ff
f9
f9
fc
fb
0
fb
fa
3
4
6
7
ff
fb
4
fc
5
4
0
fa
ff
fb
fa
2
fa
1
4
fa
1
0
7
0
4
0
ff
3
f8
5
1
fe
fa
f9
fe
fb
f8
0
f9
3
4
5
fc
4
fe
fc
f9
fb
ff
f9
fd
fa
1
3
0
7
8
fa
fc
4
fa
f8
3
fc
7
8
f8
fe
fc
f8
ff
ff
5
fe
ff
fc
fa
fc
fe
0
6
4
2
1
6
0
fc
0
fe
5
6
fe
ff
ff
fe
4
fc
fe
fe
5
7
fd
fd
ff
6
3
fa
8
fc
4
6
fd
f8
fe
0
fa
fc
fc
3
4
fc
fb
fa
fc
7
fc
6
1
5
2
2
f8
3
fe
4
1
4
1
1
4
2
2
fd
3
6
1
1
f8
3
fb
fa
1
6
1
4
fc
ff
0
4
f5
fc
fe
3
7
fa
ff
3
fd
fe
ff
4
fc
6
fd
2
5
fd
3
fa
5
f8
2
f5
f8
0
ff
5
f8
2
7
3
f7
6
fd
f7
fc
fc
7
2
f7
3
7
fa
8
7
5
fa
f8
ff
fa
1
3
fa
a
4
1
6
0
fc
fe
fe
f6
4
fe
fd
fc
fb
fd
fb
5
ff
4
4
5
fd
fd
f9
0
0
3
f9
4
7
fd
5
f9
4
fd
4
fb
fa
f9
1
0
fc
ff
0
3
ff
8
f9
5
5
fd
2
ff
3
f8
f8
3
6
3
4
7
ff
fb
5
f9
5
ff
fb
2
2
fe
fb
1
fe
2
fb
1
3
4
5
fa
fd
ff
6
f9
1
fd
4
3
4
ff
6
7
7
f5
0
9
5
fa
2
2
2
fc
7
1
fa
fb
6
fd
f9
2
8
fe
fc
f8
3
5
0
2
ff
2
fa
fb
f8
fd
1
0
fc
7
f9
fc
5
fa
2
4
4
9
fa
1
3
4
fd
6
4
4
2
f9
f7
fe
fb
fa
7
7
fc
f8
2
0
3
5
f8
fd
6
fd
ff
4
f9
fe
fa
f8
fe
3
6
4
fa
3
fd
5
f9
7
1
0
3
f7
fd
2
7
4
ff
fe
fc
fe
6
f8
3
fe
fa
2
7
7
0
4
fd
f7
8
ff
fb
3
0
1
8
fc
2
fc
f7
6
4
1
fe
f9
fb
1
2
ff
f8
6
0
fa
2
5
6
7
3
fa
0
f8
4
3
f8
fc
0
8
0
fd
ff
fc
fa
8
fc
ff
f6
0
4
0
5
fa
4
5
f9
4
fd
fd
4
2
fc
1
fa
3
0
fc
4
fc
fe
3
1
fc
fc
6
6
2
1
3
fb
fa
5
4
fa
4
fe
1
0
f9
fb
3
f9
5
ff
fb
f9
5
fe
fd
2
7
5
0
ff
fd
4
ff
2
5
fb
fc
2
4
fe
ff
fc
f9
fc
fe
0
6
f9
2
fa
f8
f8
ff
fe
fe
0
fc
fd
7
6
fb
0
f9
3
ff
fc
0
4
1
fc
2
fa
fd
fc
fa
6
0
2
3
1
5
f8
6
fc
fb
2
f9
2
fd
3
f9
ff
3
fb
fd
6
fb
f8
8
fc
4
5
f8
0
6
fd
0
f9
f8
2
fb
ff
fa
4
fc
0
6
4
5
fb
f8
6
5
ff
4
fc
fb
4
fb
fd
4
fa
4
3
ff
fd
f8
fb
6
5
ff
fc
fc
4
7
4
4
6
ff
5
fa
6
ff
1
fe
fb
fd
7
6
fb
2
fa
ff
5
6
5
fe
f8
3
fa
1
0
6
5
1
ff
2
4
fc
fa
fa
fd
3
fe
f9
1
fd
f5
fb
8
fa
fd
fe
fe
7
8
fe
fe
2
fa
8
1
f9
f9
ff
fa
1
f8
f8
fe
2
b
8
fa
2
ff
fd
fd
5
fc
3
f9
fa
fc
7
2
fd
8
ff
f6
0
1
f9
fc
f9
1
5
fb
fd
f7
f7
fc
fe
fa
fb
fe
0
0
0
ff
0
3
fc
fd
fe
2
fa
2
fe
f9
5
fc
6
4
7
f9
fb
6
7
0
1
6
fb
2
1
ff
ff
4
fa
2
2
8
fe
0
fe
fd
1
fc
4
1
ff
5
ff
2
1
3
0
f9
2
7
ff
fd
f9
2
7
fc
fb
7
3
1
ff
5
2
1
ff
3
7
f9
f8
fe
0
3
fc
1
fa
fe
ff
1
5
2
9
fc
fe
fd
6
ff
3
1
6
fe
2
0
7
2
fb
2
f8
ff
fc
fc
ff
fd
5
fd
fc
1
fb
fe
4
f8
7
fa
2
fe
fa
7
5
fe
fa
5
2
3
0
f9
fc
8
4
fe
fb
ff
fe
fb
5
1
5
2
f8
6
6
ff
0
1
f8
fc
4
fe
f8
7
ff
1
fd
6
fe
3
1
f9
4
f9
1
fd
4
fc
fd
fe
7
6
2
fb
fa
3
6
fe
fa
4
6
1
fd
0
ff
fc
1
fb
5
fa
fa
7
fd
5
5
f9
fc
f8
f9
7
0
fe
fd
b
4
9
fa
6
7
1
4
fb
fc
fc
2
6
2
8
fd
ff
7
1
6
fc
fb
1
fc
5
fd
8
2
0
fc
3
6
7
f8
6
fb
3
fa
3
1
5
f9
a
8
ff
fd
fb
9
6
fe
fe
4
f9
3
f8
1
f9
6
fd
4
7
6
ff
f9
fa
8
4
5
fc
fe
3
ff
fe
f9
0
ff
2
fe
0
4
0
fe
fe
3
ff
fc
f9
fd
5
fc
7
6
0
6
fa
7
8
5
fc
fe
f9
1
5
6
6
6
fd
6
fb
f9
fe
5
3
fc
4
5
0
8
fb
2
6
7
f7
fe
f8
6
fe
fc
4
4
f8
f9
ff
2
0
f9
fc
3
1
fc
6
4
5
6
fc
7
4
fa
0
f7
2
2
3
fe
fd
fd
fa
5
3
fb
1
fb
8
fd
6
5
2
f9
fb
fb
fc
2
f8
1
fd
0
6
6
8
1
0
4
f9
fb
4
fe
4
fc
5
8
2
fa
5
8
3
8
ff
fc
fc
fc
fd
5
fa
fc
fa
4
fb
ff
ff
fa
2
fc
2
fa
fb
ff
ff
fc
fd
f8
fd
fa
5
fd
1
5
fc
fe
5
f9
4
6
8
2
0
6
7
fb
6
fd
ff
2
ff
f9
f8
fa
fa
4
fc
5
2
fb
f5
1
4
1
fb
fc
7
7
ff
fe
f9
ff
4
5
1
3
fd
4
fd
ff
0
ff
5
f8
fc
3
8
fa
5
fd
fc
f8
fb
f9
4
4
3
7
7
6
ff
2
f9
f9
5
4
fb
2
5
0
6
1
0
ff
4
5
fe
f5
f9
6
4
3
fa
4
fa
8
3
f9
6
ff
2
fb
fd
6
1
2
f9
fc
fd
2
1
ff
fc
6
4
1
2
fb
7
fc
f8
f9
fe
7
fc
6
0
ff
6
6
fd
fc
ff
1
fb
2
6
f9
ff
1
4
1
fb
8
1
6
fa
7
ff
2
fb
6
6
ff
f9
f8
2
2
8
2
fe
0
ff
f9
2
7
fd
fe
1
6
7
3
fd
0
fb
4
fa
fb
6
f9
ff
fa
5
5
fc
1
5
fc
4
2
fc
3
1
fe
1
8
5
fe
ff
ff
3
1
fc
ff
ff
fa
fe
3
3
fc
fb
fb
f9
7
6
6
fc
2
f9
fe
fd
fd
8
1
7
2
5
fa
ff
6
0
2
6
2
fc
0
3
2
4
ff
8
4
4
f8
0
0
fd
2
fc
7
6
fe
ff
2
f9
fd
fa
f8
f9
fe
fa
fd
1
0
1
fe
7
4
fd
9
fb
2
5
fd
fd
fb
ff
fb
fe
2
6
2
fd
6
2
f8
f7
fd
fc
1
fa
fb
f8
3
0
fd
fb
0
f9
b
1
3
2
fd
fe
fe
fd
8
fe
f9
f7
6
fd
0
fe
f9
4
f9
0
fd
5
0
fd
fe
f9
4
2
8
fc
fa
4
5
1
2
f9
3
f8
0
3
fa
0
fa
fd
fb
8
3
fa
fe
7
7
4
ff
fa
ff
6
7
0
4
fb
5
f8
f9
3
fb
6
fd
fa
f8
2
fc
fe
4
ff
fa
0
f9
5
fd
fa
0
0
0
fc
fe
4
3
2
f9
7
2
fe
3
fe
2
ff
fe
fe
5
fa
4
f9
f9
fd
ff
2
fc
3
fb
0
f8
1
4
7
f8
7
1
fa
fd
f5
f8
fd
1
f8
fc
7
fe
7
4
1
4
1
ff
5
3
3
8
fe
3
5
f9
0
6
fe
1
ff
fd
f8
1
2
2
0
fb
2
1
fe
fe
2
fc
fd
2
3
fa
6
5
ff
fa
1
5
1
5
6
3
f9
fe
8
5
1
0
fa
fc
1
4
fc
4
7
fb
ff
6
4
4
7
fe
1
f8
f9
5
fc
f9
fa
3
3
7
0
fb
8
8
fd
fa
fd
0
fc
2
fc
7
fb
1
fc
fe
5
f9
5
6
7
7
1
f8
fc
3
6
4
1
4
1
fe
3
0
fb
1
f9
6
fe
4
fb
fd
fd
fc
8
fb
3
fd
1
6
2
fe
7
fb
6
4
6
fe
c
6
fd
9
fa
6
f8
f8
fd
6
ff
5
7
4
fe
2
4
7
2
f8
7
4
4
ff
1
fa
1
f9
9
8
fa
fa
4
0
ff
7
fa
ff
2
fd
ff
0
f9
ff
f9
fa
6
fd
6
fc
1
5
fe
fc
6
7
0
5
2
f9
8
5
1
fd
fd
fb
fe
0
6
fc
fd
f9
fe
8
6
0
fb
5
f9
fb
4
1
f9
2
fa
f9
7
5
fa
f9
fe
4
1
f9
6
fb
5
fc
fa
fd
3
7
fc
f9
0
ff
fd
0
fd
5
fd
0
fb
fe
1
fa
2
fc
fe
3
1
ff
ff
f8
fd
fd
3
ff
fa
fb
6
1
2
fa
4
fd
0
f9
7
fd
2
3
1
fe
8
4
2
4
fa
5
ff
fc
8
fc
fb
fa
8
fc
6
5
fb
fa
5
fb
fd
fe
ff
7
7
5
7
8
f8
3
4
5
5
2
fa
2
1
fc
6
fd
6
f9
fa
5
6
fc
6
fb
7
f9
2
fb
fb
ff
ff
fe
2
0
fb
6
fa
fa
7
ff
6
0
2
7
1
7
fa
f8
7
3
3
ff
5
ff
2
5
fa
fd
fd
fe
ff
5
fa
0
7
0
fc
8
fd
fd
fa
6
0
3
5
1
fd
f9
1
fd
fa
fd
4
fb
0
5
f6
1
fa
fa
4
f6
3
f9
fb
0
7
f7
fc
fd
f9
0
f9
fa
f9
4
ff
6
f9
1
fe
fa
1
fa
0
f9
fa
fa
1
4
fe
f7
fd
7
fa
fb
5
f5
6
5
0
8
fd
0
2
6
5
5
0
fa
1
fd
fb
fd
2
f8
1
fa
fc
2
fa
fc
7
2
5
1
ff
6
fb
1
f9
0
0
0
6
f8
1
2
ff
f8
6
6
fe
fb
7
fa
fc
fe
fc
1
ff
5
5
2
5
6
fe
fe
fd
fe
fb
1
4
3
fc
f9
ff
0
2
fa
fb
3
f7
1
fb
2
fa
fc
ff
3
0
fa
fe
8
fc
f9
1
1
f9
5
3
fb
5
7
fb
fa
fc
4
1
fe
fc
3
fd
5
ff
fa
2
f9
f9
ff
fb
f8
fd
f9
6
f8
f9
fb
fa
4
6
6
fb
2
0
fb
ff
fd
3
f9
ff
fb
1
ff
fa
7
ff
5
0
5
6
3
1
2
fc
7
f9
4
fd
fa
3
2
1
4
ff
9
ff
fa
fe
fa
fe
fe
fc
2
2
5
fd
3
f8
2
0
0
f8
f9
4
5
4
4
fc
5
fb
fd
ff
7
ff
1
fe
5
3
3
0
1
7
3
3
7
a
fc
fb
1
c
1
8
4
fe
4
fc
2
6
fa
f8
6
0
0
5
3
fd
6
fc
3
6
6
0
fd
f9
7
8
1
fc
ff
7
f8
fb
f8
4
fa
fc
7
0
fe
f9
fb
8
1
2
fc
f9
6
2
5
fa
fa
4
3
ff
fc
fc
fb
6
ff
5
2
5
6
fc
f8
fd
1
1
fc
fe
3
fd
4
ff
5
fb
fb
3
fd
6
5
3
ff
0
fb
fe
4
6
3
3
fc
0
3
3
5
2
4
fb
2
0
3
4
fd
5
5
fe
fa
f9
2
1
fd
ff
ff
fa
5
ff
1
6
0
f8
fd
fd
5
4
fb
f9
fb
ff
fc
6
0
fe
8
fd
fb
3
6
4
ff
8
fd
f9
fa
2
3
fd
4
6
fb
ff
fa
fd
fa
fc
fc
f9
fc
fc
fe
7
ff
7
fe
6
ff
fc
8
fc
fd
2
6
4
6
7
6
ff
6
9
1
7
ff
fd
6
3
5
4
0
4
4
4
fc
6
8
fb
3
f9
fc
4
f8
3
5
fc
4
fd
6
1
4
f9
fb
4
5
fb
0
fb
f9
5
fb
6
3
5
fd
4
ff
fc
1
f8
8
ff
5
1
3
7
1
fd
fc
fa
fa
0
fe
fe
fd
2
5
ff
fd
4
4
f7
2
fc
f8
f6
8
2
fe
fb
f6
fd
fa
6
3
4
fa
fe
a
fb
8
f9
0
fa
f8
5
3
fd
fc
f9
fe
1
fa
4
f9
f4
3
7
fe
7
4
1
6
5
3
8
fc
fc
fb
fb
fe
f7
f7
0
1
6
fd
5
4
2
5
fd
f6
fe
fa
2
9
3
fe
fe
7
fc
5
fe
ff
6
fc
2
fc
fd
fe
1
fe
ff
6
fd
5
0
fc
fe
fc
fe
7
fc
1
5
fe
fc
7
4
0
fa
2
f9
4
ff
fd
4
fc
fa
1
6
fa
ff
fc
1
fa
f9
1
ff
ff
1
fe
fd
8
fa
fa
3
f9
2
fc
0
fb
fd
5
6
0
2
f8
8
7
fd
1
6
ff
4
1
f8
fe
ff
fd
6
fe
3
1
f7
6
fe
fe
f9
0
6
fd
fd
3
fd
a
fc
6
fd
fe
3
1
fe
f7
6
3
fa
9
6
f8
fa
2
2
5
ff
2
6
fc
5
ff
f9
fa
5
1
7
5
ff
fc
4
2
5
1
6
1
0
fd
ff
0
fb
5
ff
0
fd
fc
1
f9
3
6
2
8
8
fb
fa
5
1
7
fb
fc
fb
fc
f8
6
fd
4
ff
6
0
ff
fe
f9
3
ff
ff
1
6
2
2
7
fe
8
4
1
9
2
1
7
fd
3
0
fa
5
2
0
fc
5
fe
9
2
fd
fd
6
fa
fb
2
f8
fd
9
7
5
fa
2
5
fe
3
5
fb
6
fd
fc
4
6
8
fb
f8
fc
0
f8
fd
4
fc
fb
1
5
f9
f6
ff
4
0
8
fe
fd
2
f9
8
1
2
ff
7
ff
0
3
5
ff
f7
fe
2
2
5
fb
fb
6
1
fc
1
ff
f7
4
2
4
5
3
fc
6
6
0
5
fc
1
1
2
4
1
ff
fd
fc
5
fc
fe
5
fe
5
3
ff
3
f9
fe
fc
6
0
fa
f9
fe
6
fe
5
5
fc
3
fa
1
1
fd
6
8
fa
fb
fd
fb
0
fe
ff
fe
fd
1
fb
0
3
7
fd
6
5
fd
7
fd
fe
2
fb
fe
7
ff
1
fc
5
fc
fa
f9
5
0
5
3
fc
0
f7
1
1
ff
4
f9
fb
fa
5
fa
8
fb
0
0
5
0
1
fb
fc
fe
fb
1
1
2
4
fe
0
ff
fa
ff
7
4
3
fd
fc
fd
5
fd
ff
f7
3
fd
5
ff
fe
2
fb
f7
3
1
fb
fb
fc
f9
0
0
1
8
fe
2
2
fc
fc
fa
1
fe
5
9
fd
8
4
f9
fb
fc
1
fe
fd
0
1
fb
f8
ff
fb
7
f9
fd
fd
3
fd
fb
fb
3
4
fa
6
6
f9
1
4
f9
6
5
4
fd
0
fc
0
5
1
fb
ff
ff
fb
3
7
fa
fb
f8
0
7
8
1
f9
fa
fb
ff
7
1
fa
f5
8
6
ff
1
fc
ff
2
f6
f9
1
f6
0
6
fe
6
fc
fc
2
4
2
8
f9
