4
f3
1
2
f5
7
4
fb
f5
f1
fa
fc
5
2
f3
f3
8
f7
e
f4
0
3
f9
f5
fb
f
b
fe
fc
ff
f2
f9
f
f5
b
f5
f7
b
0
f8
f9
e
ef
9
c
f8
5
3
f2
f1
a
c
b
1
f6
f8
f0
fe
5
e
7
3
f7
2
fe
f6
f3
a
fa
ef
2
f
f0
f5
c
0
2
6
fa
b
f1
f8
fb
5
9
f2
2
8
f8
f3
b
0
f5
fc
ff
f6
8
f6
f1
f9
10
7
8
f9
d
7
0
f3
f1
f2
f5
9
9
6
f4
9
9
f8
1
8
4
6
6
2
e
c
f9
e
f5
b
f8
7
fb
fb
1
2
0
fe
f3
f3
2
f8
fa
fa
2
d
6
f
2
9
0
fd
f5
fd
e
1
3
ff
f0
2
5
f
f9
1
12
e
f
6
f0
ff
f8
ff
6
9
fe
4
a
9
fd
f5
9
5
0
fe
1
d
e
7
f8
f0
1
3
f8
6
e
f7
3
8
10
f9
ff
d
8
fd
7
c
11
a
6
1
f4
f1
b
f7
3
e
6
fe
4
ff
f5
e
d
f6
fe
3
a
4
f1
a
1
5
fa
f0
fc
fa
ff
f8
4
7
f
f9
f7
f8
ff
3
b
e
fa
f3
fa
ff
fd
f4
b
2
0
fc
9
b
c
10
9
2
f9
f
fd
f2
f1
f7
ff
6
4
8
3
6
6
fd
0
e
f3
9
f7
f3
6
f7
f6
fe
d
fa
2
f3
f5
9
fb
1
a
f8
fc
ff
8
5
f7
f8
fd
c
fe
7
fd
f7
f2
f1
0
8
f
10
f5
8
f2
5
3
f2
0
a
f5
3
6
d
4
fd
d
8
5
f6
9
a
6
d
fa
fc
c
4
4
4
a
2
c
f5
c
f4
b
f1
0
f3
e
f5
8
b
f6
4
8
c
f5
f7
b
12
10
9
5
f6
f9
f0
5
f5
ff
f7
9
fb
f5
f7
8
d
f8
3
f0
f6
f6
a
f5
10
9
8
2
f0
d
fb
f7
d
f3
ff
6
f6
fe
7
ff
fd
9
f9
c
f7
5
9
f4
d
fe
3
ef
fe
f
ff
ff
f8
10
f0
f9
5
f4
f8
fd
e
4
d
d
3
d
6
f7
8
f7
d
3
f4
e
9
f8
e
d
f5
fe
10
1
1
f8
ef
f6
f8
ff
f4
f5
d
f1
f2
fd
b
fa
f5
6
7
6
c
fa
4
fa
1
f8
b
d
2
f5
d
f4
d
f0
f5
f2
f1
fe
f7
5
8
fd
9
3
f5
4
f4
4
fb
f3
fe
e
8
9
4
f4
fc
f9
f
b
fd
ff
0
fd
f8
fc
fd
f5
2
d
fa
fe
f5
f5
fd
2
e
b
a
d
6
f1
f1
fa
10
fd
d
f6
ff
11
6
4
1
5
f5
1
6
ef
6
fc
3
f8
f6
f
c
3
0
0
9
f8
b
7
5
e
a
fb
f5
e
f9
f9
5
e
7
4
f9
3
f8
fa
fb
f6
f4
ff
f2
e
f9
f6
1
f4
f4
f7
f4
f8
f1
2
f6
a
9
f0
8
7
c
8
b
d
f0
1
f0
2
f7
a
2
fb
c
f4
6
f6
ff
f4
ff
f6
fe
d
b
6
3
c
f9
f0
f7
f9
1
b
f
7
fc
d
3
c
4
fb
3
fc
4
f6
e
d
ff
10
fb
f9
10
f
f3
fe
5
c
fb
3
8
f5
f0
2
ff
f6
0
ff
fc
0
f9
f8
6
a
8
f4
fd
f7
fb
f7
f5
3
fb
9
9
f4
5
3
f
9
c
f9
9
fb
9
4
f
fb
f4
3
fe
d
8
d
4
5
3
f0
f8
a
fd
2
fe
fa
fa
fc
0
fa
f4
3
f4
6
e
0
4
f5
7
b
c
fe
f7
4
8
f4
f9
b
0
a
0
f1
c
5
5
f1
3
9
f5
f6
1
e
fb
c
f0
8
f6
fb
f2
ff
f0
e
7
f1
fc
1
f8
fc
f2
ff
f3
2
f1
5
f7
f1
fd
7
f4
f3
7
f8
c
d
f6
f7
4
f3
fb
f9
5
fe
6
c
0
fc
fb
2
d
fc
f9
d
f2
fe
e
f
fd
5
b
fa
0
a
9
8
f9
f5
6
ff
0
1
c
fb
f5
2
fc
6
f3
f9
1
ef
f9
e
2
f8
9
2
fb
0
f3
a
f2
d
3
3
ff
e
fe
6
fd
6
7
9
b
6
fc
d
fb
e
f6
4
a
6
8
fd
9
fe
b
ff
f4
2
10
f3
10
f0
c
4
5
f7
ee
f1
f7
f9
0
f3
4
8
7
5
f8
8
e
fc
a
fe
d
f4
9
f8
c
f5
6
f5
b
fb
a
0
7
2
f0
fe
f8
a
2
fa
8
fb
f3
fe
fa
d
2
6
fe
1
f2
fc
b
f9
e
f6
b
3
fd
b
fb
5
8
4
ff
f9
8
0
2
f6
fb
4
e
d
1
fe
f2
f5
2
1
b
1
10
f6
6
fc
e
9
f6
fa
f2
f
f7
f9
4
2
ff
5
8
4
7
0
2
c
f2
f2
f1
e
d
f2
f8
fe
b
8
9
f9
f9
a
f2
6
fe
f6
d
f4
f4
f4
b
e
fa
f6
f6
0
f4
c
f8
ff
f5
f2
fa
10
11
f6
f6
f8
f1
f2
a
7
f8
6
f2
fd
2
9
fb
0
fa
f3
f7
f5
f
8
f2
f1
8
5
8
5
f8
f7
d
5
8
a
0
1
2
6
a
f9
f4
6
fa
ef
f6
9
f0
c
3
f0
c
1
ff
f
f7
4
e
f2
fe
f6
f4
6
5
f4
f3
fc
fe
2
d
f0
f0
a
f5
fe
fa
8
f2
f
f3
0
2
1
2
10
fa
5
b
a
fa
c
fd
f7
fc
1
9
f6
1
b
fe
7
1
f2
f5
f1
3
9
10
f0
fd
a
fc
e
f3
7
9
5
1
8
f7
e
2
f4
ff
2
a
f0
8
5
5
4
f4
f8
8
fa
c
fb
0
ff
f0
e
fa
a
e
f1
0
11
f5
f8
d
4
f9
7
f0
fb
d
e
f5
6
f1
d
d
2
c
a
f5
fc
e
4
ff
fe
f9
fc
8
f6
fc
6
d
d
f8
3
11
fd
fe
fb
6
8
c
3
f7
e
f9
f1
fb
f1
f2
a
6
2
fa
fd
9
a
f2
7
10
f
5
f5
f5
f6
0
0
d
f9
fc
fd
1
f5
f1
fc
0
0
f4
f9
a
3
f2
a
f5
f
7
3
f8
fd
f5
f9
4
f1
f0
ef
fe
fb
f9
f6
f5
4
f5
f7
f3
a
4
fd
a
c
b
0
f1
4
f9
ff
f1
1
1
f9
fd
c
4
fb
f5
a
fd
fe
f6
fb
f6
fd
8
6
4
f3
7
5
0
ff
fc
f7
f3
f2
fa
fe
5
10
2
9
8
fe
8
4
1
4
f6
fd
4
d
f4
7
ef
f4
f2
ff
9
f6
b
f
f0
f3
e
fc
f4
6
f8
f6
f6
b
f2
6
5
6
f9
7
f3
f4
4
f9
f8
2
fd
ff
f2
f9
f9
5
b
6
f5
ff
f5
9
f6
f2
f
f4
3
0
3
f
e
d
ff
f3
fa
f6
6
fb
fc
f9
1
c
e
5
f2
6
4
f8
c
f2
ef
e
f1
ff
b
2
f
fe
1
f0
f7
f1
f
8
fd
6
f5
fd
1
f6
fe
f
c
f1
4
9
fe
5
f2
5
1
fa
3
3
a
c
f1
2
b
f7
3
1
4
fe
4
fc
fa
f1
f9
f4
fe
9
fa
f2
5
0
12
f4
f8
f
a
c
f
f6
6
f7
fc
f8
f3
ff
f4
7
fa
fb
2
a
fc
ff
f9
d
a
4
f9
c
d
f8
5
f3
e
5
fb
4
f
fb
6
c
5
f1
f
9
2
f8
f
b
f7
b
3
fc
f7
5
f9
3
ff
1
5
f6
2
f7
fb
f
f3
fe
f3
6
f9
fe
f7
10
f1
a
fa
8
a
f4
5
d
7
a
3
8
b
11
f6
7
fc
8
a
f9
0
f4
7
f
f7
fa
7
f2
1
fe
6
5
2
5
7
f8
0
fb
ef
c
f0
f5
f4
f3
3
1
8
f3
f5
8
f4
b
10
fc
f9
c
f5
f7
f7
ff
4
fa
a
f3
6
b
fe
9
2
0
f5
f9
f1
ff
fd
d
f5
ff
5
fc
0
c
c
9
fc
f1
a
3
f8
fd
fa
d
fd
ec
fc
e
b
7
f8
4
f5
a
f7
d
f9
a
b
fc
fe
f0
f3
f8
f9
0
c
f5
fa
1
f6
fd
f9
f2
a
fe
fa
fa
5
f8
4
f4
4
f3
0
f2
f7
1
1
3
6
8
d
f3
fb
2
fe
b
8
4
ff
7
f8
f3
fb
f8
f5
a
ef
b
f
d
fa
e
fe
e
3
f3
f6
2
f4
c
f7
f7
b
fe
fe
fe
fe
f
fc
f
1
ff
f8
fa
7
5
fa
f4
fd
f6
3
fb
d
4
fa
fe
c
3
a
fc
7
f3
5
f6
0
ff
f8
c
2
fd
b
fa
f4
f4
ef
f8
f5
9
f6
f9
f4
7
f4
5
6
e
6
6
3
e
2
fe
0
fd
f4
c
f3
fc
fa
fd
f5
b
8
f8
f3
f3
7
1
fd
f
e
f3
4
4
1
8
f5
1
fe
f3
f9
0
f6
f8
c
f0
b
a
2
7
5
7
5
f6
2
d
3
d
8
4
f1
fd
a
fa
fd
5
f9
8
f3
9
f9
b
8
fc
ff
fd
f6
5
fe
f2
5
1
4
f9
f3
1
a
b
8
5
4
ff
4
fc
f1
f3
1
f8
a
ff
f3
fc
fb
e
f9
a
f0
4
7
f4
1
4
7
6
f6
e
ff
f1
f9
a
0
f7
fa
fd
fd
0
f8
f3
f4
6
7
e
2
fa
f7
9
f1
3
f9
7
4
4
6
c
6
8
f5
f7
f8
f1
2
f6
d
f4
4
f4
ff
b
f9
0
f7
8
a
a
f1
ef
fb
5
f1
b
a
f6
f8
2
f2
f7
f5
c
4
f7
d
f1
f3
7
fc
f6
fb
d
a
0
fd
a
a
0
d
6
9
8
f3
f7
0
fa
f7
fe
d
9
c
f2
f3
7
f3
fb
3
fb
4
f2
c
0
10
10
6
f3
0
3
4
e
9
d
10
7
ff
c
7
f8
e
9
c
c
f2
f9
f6
f
0
6
d
f1
b
f
f2
f4
9
f8
9
d
8
fd
ff
ed
f2
d
f8
0
c
ff
f5
8
5
f6
8
f9
f9
fd
5
c
4
fe
f0
f2
f1
3
3
f2
f7
1
f6
9
3
c
f6
f5
f6
f5
a
6
fb
c
6
2
f9
4
ff
d
fb
f8
6
f1
6
fb
f8
11
2
8
f0
fd
e
