5
1
2
4
4
5
4
5
1
6
6
f9
f9
fe
1
f8
fa
f9
1
fa
f9
fd
5
5
fe
fe
0
4
4
6
ff
fe
1
6
fb
4
0
1
4
f9
0
ff
fe
3
ff
fa
7
fb
6
fd
5
7
2
ff
4
0
8
ff
fc
8
fd
ff
4
7
fc
4
fb
f9
fd
fc
fc
fd
0
3
2
fb
6
fb
5
fe
9
0
1
fc
0
ff
ff
7
3
7
2
fc
3
4
5
ff
fb
fa
6
fd
fe
7
7
ff
3
7
3
fe
6
3
ff
0
fc
fe
2
1
2
6
6
1
f9
f9
fd
f9
6
4
7
ff
fb
fc
fb
2
fe
1
ff
2
7
3
fc
fd
4
3
3
fa
3
ff
7
fd
2
fe
ff
fb
fc
3
6
6
ff
6
4
0
6
6
3
f9
fd
7
fc
fe
3
0
5
0
fd
4
1
fd
3
1
fc
fa
fd
fe
4
6
fc
7
2
fb
8
fc
8
ff
9
7
fc
fd
ff
7
6
3
3
fa
7
2
7
1
fd
5
fa
fa
fb
ff
8
ff
1
7
fe
fa
4
fe
2
fd
ff
f9
4
fb
fb
5
1
1
5
fd
7
7
fc
4
3
6
ff
0
6
fc
5
fc
5
4
fc
7
3
fa
7
fa
2
4
fe
ff
3
fb
4
1
4
3
fe
fa
fe
5
7
0
fd
1
fa
6
3
fb
fe
ff
5
1
fa
fd
1
fb
ff
2
fa
1
ff
4
7
3
6
fd
0
1
1
1
0
fc
fc
0
4
7
4
f7
fe
fd
1
fa
5
fe
7
fc
5
f9
3
3
fa
ff
f9
fe
3
fe
fa
2
3
6
fa
4
fe
7
5
2
5
5
3
fe
fe
fd
3
ff
fb
ff
f7
ff
0
f9
2
fb
fa
f7
f9
fa
4
fb
fe
4
fd
0
7
0
fa
fb
fa
1
6
2
fb
fc
fe
2
fa
5
2
fe
3
fe
5
fb
fd
f9
ff
1
f9
6
0
fb
ff
fb
fb
6
1
4
fb
5
5
1
fb
1
f8
ff
1
fa
7
fa
fe
fd
fa
4
f9
fd
1
1
2
3
0
4
1
6
fd
2
fc
ff
fb
fb
fd
fb
fd
fc
2
4
0
5
4
5
6
fe
f8
0
3
3
fb
5
fa
4
fd
6
fb
8
5
fe
0
fb
f9
0
fc
f9
0
fc
ff
f8
3
fc
3
6
0
fb
fe
5
3
6
fe
4
fc
2
fe
f8
f9
fa
fb
0
ff
0
ff
7
ff
f9
1
fe
fb
fa
ff
0
6
0
4
6
fb
fd
5
fb
fc
0
fa
fd
2
0
fc
0
fd
8
f9
7
4
ff
2
2
5
1
fc
2
7
f9
1
7
1
fc
fe
f8
1
fb
fe
ff
ff
2
6
f9
4
5
fa
fb
f8
3
3
fb
4
fb
fc
fc
0
fd
f9
4
2
ff
4
4
ff
1
5
fc
f9
fa
4
ff
3
6
1
fd
6
fd
fb
fc
1
1
3
fd
ff
fc
fe
fe
fd
7
7
fe
3
4
fc
6
5
1
fd
0
ff
f9
fd
0
1
1
0
fa
7
7
2
6
6
6
6
fc
5
3
f8
f9
fb
fa
0
fa
fe
ff
fc
fd
ff
ff
f8
4
fb
fc
0
ff
5
fe
3
2
3
fc
7
fb
4
fb
f8
f9
3
6
0
fa
1
7
0
fb
3
fd
fd
fa
fc
f9
fb
fa
fe
0
fa
fc
8
fd
f9
1
6
fe
7
fc
3
fa
fa
2
fc
2
fc
4
f9
4
7
5
6
1
6
fb
0
4
fb
fa
5
fb
fd
f9
fd
0
2
fb
4
fb
fb
fc
3
2
f8
3
1
f9
f9
6
fe
7
fd
0
2
6
fa
7
fe
7
fc
7
f8
f9
4
1
ff
fb
fd
6
fc
fc
ff
ff
fb
0
8
2
ff
2
fb
fa
9
fe
5
fe
fb
fc
7
fd
1
0
3
f8
fa
1
fd
4
7
7
8
fc
3
fb
fe
0
fb
4
f9
2
ff
fd
fa
fa
6
1
ff
fa
fa
3
0
5
fe
fe
fe
3
0
1
fc
fc
fc
1
7
1
fc
f9
2
5
fd
6
8
fc
fd
6
1
fb
fc
2
0
2
2
7
6
7
2
8
3
2
5
fa
5
5
fc
ff
2
fc
4
7
1
ff
4
4
fd
f9
fd
3
fe
fe
0
6
fe
4
0
1
1
fc
1
4
fb
3
3
7
fd
6
fa
fc
0
fa
6
1
fc
3
7
fc
1
ff
1
fe
9
fd
fa
1
fd
fa
fb
8
5
fd
fb
4
f9
ff
fb
fd
ff
0
fc
fa
3
f9
0
f9
fe
6
fa
fa
f9
fe
fa
6
fb
5
7
fe
0
7
2
6
6
8
fb
fe
7
fb
ff
fe
fc
f9
ff
1
fb
3
5
1
fb
3
4
fa
fc
8
fe
4
fc
2
1
6
2
4
fe
fb
fc
2
0
0
6
5
4
fe
fd
9
ff
fc
5
1
1
ff
fb
2
fd
fd
1
fb
2
3
4
8
ff
ff
fd
8
fb
1
ff
fb
fd
fc
7
5
fb
1
fd
f9
2
ff
fa
6
fb
fd
0
ff
1
fc
3
ff
f9
fa
4
5
5
0
3
fa
f8
6
3
7
f9
6
5
f9
fe
ff
5
ff
0
2
ff
1
5
fb
3
fe
5
2
2
0
fa
2
2
ff
3
7
fe
2
f9
fe
5
1
fd
fd
6
fa
fb
3
3
0
5
0
4
fd
ff
5
7
6
6
0
4
6
5
fb
3
fd
fe
fc
6
fb
f9
6
fb
5
f8
1
2
5
5
1
fb
fc
fd
8
8
4
6
7
2
ff
fd
2
3
fd
fd
f8
ff
3
ff
6
3
fb
fc
3
fa
3
3
4
0
7
3
fe
7
fb
4
f8
fa
fc
1
fd
fe
3
fd
2
2
4
8
6
6
7
5
3
fc
fa
2
0
ff
fa
fd
fa
fd
0
2
8
2
fa
4
fe
1
fb
3
fa
fa
ff
3
1
fe
fc
fd
0
0
5
6
4
6
0
fc
fc
5
f8
ff
2
3
3
f8
0
4
fb
fe
5
7
ff
fa
fe
fa
3
2
5
f9
4
f9
fd
ff
f9
1
7
0
7
f9
fd
7
fc
f9
fd
1
7
fa
0
4
6
2
0
ff
5
fa
2
3
fe
2
5
2
f9
5
4
fb
5
0
f8
2
f6
3
1
f8
fe
6
fb
fb
7
fd
fd
7
fc
2
0
4
fc
f9
fb
fa
1
6
ff
fe
8
5
f8
fc
0
4
6
f9
0
3
fa
1
fe
5
2
ff
4
fc
8
5
f9
8
2
f9
5
f8
f8
fd
fc
5
fe
ff
f9
1
1
6
ff
ff
1
fc
fa
3
3
fe
2
5
6
3
6
7
fa
fc
1
fc
f9
ff
1
1
0
fd
6
fc
6
fa
ff
2
fe
2
1
fe
0
6
0
fb
6
fe
f9
0
fa
7
5
1
fe
2
1
4
fd
f7
2
7
ff
4
0
fa
3
ff
fe
3
f7
0
4
fc
fc
f8
6
3
fb
fb
f8
0
4
ff
4
0
5
2
7
0
fe
7
1
f8
6
7
3
fc
6
fe
f7
fd
0
fb
fd
7
2
fc
1
fe
1
f9
fa
6
0
1
fe
fb
ff
2
1
fa
fb
ff
2
2
f8
5
ff
5
fe
f8
ff
5
fc
fc
4
fc
4
fe
fd
3
1
4
2
6
fa
2
f9
ff
fe
2
fb
3
fc
1
fc
7
fd
2
2
4
3
fe
0
9
6
7
2
4
ff
1
fd
3
1
f9
f8
f9
fb
f9
4
fc
8
3
5
2
4
2
1
f7
7
fc
f8
fa
3
2
4
5
ff
7
fb
f9
3
f8
f8
fc
2
7
fb
fa
7
fe
0
2
fa
5
fe
fd
fd
ff
7
fe
1
4
fa
4
1
8
fd
6
fe
fa
1
1
1
7
4
3
1
5
fd
1
fa
4
fa
fd
5
6
5
5
fb
fc
fa
6
3
1
fa
fc
fb
f9
fb
1
2
2
5
1
4
fa
1
fc
f8
6
6
7
1
4
ff
6
2
0
0
ff
fa
f9
fb
fb
2
f9
6
ff
0
fb
fa
3
fa
3
4
fe
fd
fc
1
f9
f9
fa
0
0
7
7
fc
fc
ff
fd
6
5
f8
fb
fd
0
f9
f9
fb
0
4
fb
5
fd
3
1
0
5
fa
f9
ff
0
2
fd
6
ff
2
3
4
4
1
2
fa
ff
1
3
fa
2
f8
fe
fa
4
2
6
7
2
2
ff
7
0
fd
fb
6
fb
f9
f9
2
6
8
0
fd
fe
f8
fc
0
5
3
4
6
7
3
3
1
fb
1
fe
ff
fe
1
3
2
fa
fa
ff
3
fe
0
1
fc
ff
6
4
fc
2
0
3
5
f9
6
3
f9
5
9
4
0
3
ff
3
3
5
fd
fa
4
1
3
f9
fc
fc
fa
f8
0
fc
1
f9
6
fe
fa
0
0
5
f9
4
4
fb
fc
2
1
f9
fe
f9
fa
ff
6
fe
6
ff
2
fc
2
6
3
3
7
5
5
5
6
fd
6
fe
4
fd
fb
fc
4
ff
1
fc
2
ff
ff
5
fb
fc
3
3
0
1
1
2
1
3
fc
fe
f9
0
1
7
1
1
fc
2
6
3
fd
7
7
5
f9
4
f9
fc
7
fc
4
6
f9
2
fe
6
fc
ff
1
3
2
1
fa
1
1
fe
ff
4
6
3
2
6
fc
7
fd
7
3
8
6
fd
7
1
fe
0
7
fd
0
f8
2
6
6
fc
6
2
2
fb
0
0
2
4
fa
7
fd
fd
ff
5
3
fa
f8
2
8
7
2
9
f9
4
fa
ff
6
5
2
f9
0
fa
1
3
ff
2
1
2
3
6
4
5
fe
fb
3
f8
0
3
fc
ff
0
0
fc
ff
4
fd
4
f8
f9
fa
f8
4
fc
f8
fe
4
ff
4
0
1
4
fd
ff
1
ff
2
fe
5
1
fa
2
fc
fc
fb
6
fa
fe
1
fd
ff
3
6
fc
fe
fb
fc
6
fa
fd
1
f8
fc
fa
0
7
4
8
fe
8
1
ff
4
4
fc
fe
fb
fa
fd
0
3
ff
4
1
fb
f9
fd
5
fb
f9
3
6
fc
7
fb
fc
fb
f8
3
fb
3
fe
fe
fd
fc
fe
fa
ff
6
fe
fa
fd
ff
fb
fb
fa
fd
3
fc
2
1
fb
fe
5
6
f9
6
fa
ff
ff
fe
6
ff
1
0
f8
fd
5
3
fd
fb
3
ff
5
1
fb
5
6
0
4
f9
fc
fe
6
5
ff
fd
4
fe
fa
fb
fd
6
7
ff
6
7
fb
4
fb
3
fa
7
f9
fb
4
fd
f9
4
fc
8
3
fa
0
7
2
fd
1
2
fc
fd
0
0
3
fc
fa
4
fb
ff
f9
fd
fa
4
5
fc
0
fe
fc
0
6
fc
fb
5
fe
5
fd
fa
fa
fd
5
0
4
3
5
2
ff
fa
fa
fa
fb
9
8
fc
fa
4
7
3
f8
ff
0
fd
fe
fe
fe
ff
6
fe
5
ff
0
6
fa
2
fb
fd
ff
fc
fb
fb
0
fd
4
1
4
fa
f9
fa
2
4
fe
1
fa
1
fe
6
f9
ff
fc
f9
0
fb
2
fd
ff
f9
1
0
f9
5
ff
1
4
f9
1
f9
7
fa
ff
6
7
fc
0
fb
3
4
fe
fe
fe
ff
fc
0
4
4
6
1
6
1
fa
0
4
fe
fe
ff
1
3
f9
3
7
5
fd
fd
fe
7
fe
5
fb
fb
fc
fc
2
1
7
1
2
2
fe
1
fe
f8
fc
fb
5
0
0
2
1
fd
8
fc
ff
f8
fd
5
5
0
fb
0
fe
2
fa
7
1
4
fa
ff
0
fb
f7
fe
4
ff
2
f9
fc
3
7
0
0
fc
f8
7
5
f8
5
2
ff
5
ff
5
fe
8
3
4
8
ff
fb
6
fa
2
3
ff
fa
5
1
ff
fa
fa
fc
fc
3
fd
fe
ff
8
8
4
fd
4
5
fa
fe
6
9
3
fb
fe
1
1
3
0
5
6
fe
fe
2
4
0
2
7
fa
0
fd
7
fe
3
fb
fa
fd
fc
5
5
5
3
fe
fe
f8
fc
fa
fa
5
fa
ff
fc
7
fb
f9
fa
7
1
8
6
4
5
fb
fe
fe
5
3
fd
f9
0
4
5
6
fc
fd
3
fe
4
fd
3
6
3
fe
fd
4
fe
0
fe
5
fd
1
fa
3
2
2
fe
2
ff
fb
1
4
3
6
f9
5
fe
5
4
0
f8
4
2
ff
f9
6
4
fd
fa
2
6
5
ff
7
fa
f9
fd
2
3
f9
fa
5
fd
fc
fa
1
fb
f9
4
fc
6
7
4
fe
4
fe
fa
f9
fb
1
fd
fc
6
2
4
fb
f8
fc
6
ff
5
3
fc
fa
6
fc
ff
f8
fd
4
fe
5
fb
fe
fd
fa
fa
fa
fe
fd
7
7
2
6
3
7
ff
8
3
fc
fe
fd
2
1
0
5
fd
5
5
1
8
ff
0
fd
fa
f8
fd
0
fb
f8
f9
fb
fb
3
2
fa
f8
ff
fa
fc
fd
2
f8
4
1
4
5
fc
6
f9
f8
7
3
7
3
8
6
fa
fe
fb
0
4
5
0
f8
fc
2
6
fe
6
fb
1
2
fb
0
4
ff
3
fa
7
5
fb
fb
2
ff
fb
4
fc
5
fc
1
fa
fa
fe
fa
fa
ff
ff
4
9
ff
3
ff
4
4
3
1
fa
4
fe
1
fd
f9
ff
6
1
fe
5
2
fe
fd
fc
fa
5
fb
0
fb
fc
2
7
6
3
4
ff
6
5
6
7
0
fe
fb
3
7
5
6
3
1
0
2
1
7
fd
7
4
8
4
2
8
5
7
fd
fd
fd
9
9
4
5
f9
fb
ff
fa
4
6
4
fc
fa
fc
7
7
fd
fb
fe
fe
4
fc
4
1
5
fe
1
0
fb
fc
1
1
fd
3
5
fd
fd
7
fd
fd
fb
2
fc
7
fb
5
f9
5
fa
3
ff
3
8
8
fa
fa
6
ff
5
6
fc
fb
4
5
f8
fc
fa
fc
fd
ff
3
3
fb
4
fa
ff
fc
fe
ff
2
fc
1
8
3
7
fe
fb
fb
fe
6
ff
fc
8
6
fe
3
fc
3
7
5
0
fd
3
ff
6
0
3
5
fd
fb
2
ff
7
ff
ff
7
0
7
fc
fc
2
fb
5
fa
fb
7
8
fa
2
4
0
0
fe
7
fb
2
2
ff
3
7
3
5
fa
1
1
1
f9
fd
4
7
7
fe
f9
2
fb
fc
fd
5
0
7
0
fe
3
7
fd
f9
fd
3
fd
0
0
fc
f8
fa
fc
fb
4
3
f9
ff
fc
3
fb
fe
ff
6
6
3
fc
6
7
fd
4
fa
3
fe
f8
fc
fb
5
fa
8
7
f9
7
7
1
fc
5
ff
f8
f9
2
fb
fb
f9
0
fe
5
6
6
0
8
2
7
5
4
0
6
fc
fc
1
fb
fc
ff
3
1
6
fc
6
7
6
7
4
2
1
4
fb
fa
0
5
2
2
fc
fe
fd
fa
3
fc
ff
f8
fa
3
3
4
0
6
f7
5
fb
fe
f9
f9
ff
7
1
fa
fc
7
f9
1
2
6
3
fc
ff
4
6
0
2
fa
1
fc
7
fa
2
f8
3
4
7
fd
5
2
5
2
ff
4
2
4
2
6
3
fc
fb
1
1
ff
3
3
2
fa
4
6
0
7
4
4
4
f8
0
fc
1
fe
fe
4
ff
1
0
7
fb
fc
fd
ff
fd
fd
fb
ff
4
4
f7
2
fc
fa
0
fd
0
ff
fb
fe
1
fb
f9
2
6
0
6
fe
fc
0
0
fe
ff
5
fc
fa
1
fb
4
1
fd
2
fa
3
f8
fb
2
fe
1
6
5
fe
7
1
4
6
fa
0
1
fc
f8
5
fe
fc
fc
2
6
ff
fd
8
fc
ff
fc
6
5
4
0
0
f9
7
0
0
f8
0
6
fd
4
6
fb
fa
f9
7
3
2
4
fd
2
ff
1
6
ff
ff
3
5
fd
fc
0
4
f8
f9
5
3
fe
2
f9
2
5
3
f9
2
fd
2
fb
fb
1
fc
5
6
0
ff
fb
f8
fe
2
fc
fc
1
2
3
2
fb
5
6
fa
6
f9
f7
fc
fc
2
3
fb
3
fa
0
8
7
fb
fc
f9
fa
4
2
ff
f8
6
2
fd
3
fe
2
fc
fb
4
7
6
fe
2
3
fd
5
fc
8
3
fd
2
7
fa
3
3
fb
fd
3
fb
fe
fe
0
1
4
1
1
f9
fc
1
fa
fd
0
2
fe
7
ff
7
3
0
3
5
fc
ff
f9
f9
7
0
fd
4
fa
3
fe
fe
fa
ff
3
fd
0
3
fb
0
fc
3
1
f9
4
2
fc
fd
fe
4
fa
3
0
fc
ff
6
7
f9
f9
1
0
1
5
fc
fc
fe
1
7
7
f9
fe
fc
3
fd
5
6
ff
fd
5
8
0
1
5
ff
ff
fd
0
fd
5
1
ff
3
5
fe
0
f9
2
ff
7
fc
5
f9
fc
fb
f9
fc
1
fe
fa
f9
0
fe
fc
7
f8
f9
7
fb
ff
6
8
ff
1
fe
4
fb
fe
1
fa
6
3
fa
fd
ff
f9
f9
fc
6
fc
1
2
fb
4
fa
4
3
1
fe
fa
fd
fc
0
fd
1
ff
3
3
fe
fa
f9
0
6
8
2
9
6
3
8
8
f9
6
6
fd
fb
3
fd
3
f8
5
fc
0
fd
fc
5
fe
2
fd
2
fd
ff
fb
7
fa
fe
7
fc
6
5
6
7
0
4
fa
fc
1
fb
0
fd
fe
7
4
fb
4
fb
0
fb
7
5
7
f9
6
8
fd
5
4
fd
fe
fb
f9
4
6
3
fe
fd
1
fb
4
6
fd
6
fb
7
fe
f9
0
fd
1
8
fe
fd
5
8
4
0
fd
fb
3
f8
fa
fd
0
1
f9
fd
8
0
fc
ff
fd
ff
fe
2
0
fa
5
ff
2
fd
fd
f8
fb
1
fe
fb
1
fd
2
fd
1
1
1
fd
fe
0
7
fe
4
0
ff
ff
0
fa
2
f9
1
ff
0
1
fe
6
fc
4
fb
fb
fe
5
f9
fa
fe
6
4
1
8
ff
f9
fa
f9
f9
4
f8
1
fc
0
1
3
4
fc
f9
1
3
4
fa
4
fa
fd
2
5
4
4
6
0
fc
fd
2
fc
0
5
6
ff
4
6
7
ff
fe
f9
3
fa
0
fd
3
fb
5
f9
fe
fe
4
5
7
fd
fd
5
8
4
4
2
1
fc
6
3
fe
2
7
fa
7
6
fe
fe
fa
fe
6
fc
2
8
f8
fb
4
4
1
ff
f8
6
fc
ff
fe
6
7
fb
3
fc
5
ff
fb
4
ff
fa
fd
9
0
fd
3
fb
6
4
fc
ff
f9
3
fb
fd
fc
fe
6
6
fa
fe
5
8
ff
ff
fa
6
fe
fa
3
0
f9
fe
fd
4
5
2
7
2
f8
6
8
0
fe
1
0
1
fe
fc
fe
fb
fc
0
5
5
4
fb
4
6
fe
2
fa
4
fd
6
2
fb
2
1
fd
fd
fa
4
fa
fd
f9
5
2
3
f8
6
0
5
5
1
0
fb
3
6
3
fd
3
fa
2
fa
1
fe
fd
8
fa
3
fe
5
0
1
fe
5
0
ff
6
5
5
1
fe
3
fd
3
5
1
fc
4
fe
ff
fd
6
2
0
3
fc
f8
0
ff
4
5
ff
4
fd
3
fb
5
ff
fa
fa
f9
fa
8
fa
fd
2
7
5
fe
5
ff
fc
ff
6
fc
fd
fb
fb
fe
1
0
4
5
3
fd
2
0
fb
5
3
6
ff
fb
5
4
7
ff
4
4
1
fc
fe
fb
ff
fa
f8
f8
f8
fd
2
4
f8
ff
f8
5
fa
fd
fb
3
f8
6
fb
fc
7
fc
f9
7
1
fd
ff
6
fe
fc
f9
fd
ff
fd
1
5
1
fc
fd
1
fe
fa
f9
6
7
1
1
3
f9
fc
f9
1
fe
2
fc
fe
fb
0
6
5
ff
4
f9
5
fc
f7
3
3
2
5
4
4
ff
0
6
fa
f9
fd
fc
ff
4
4
fd
0
0
ff
1
5
5
fa
fc
3
ff
fb
6
7
fa
fc
2
ff
5
fb
fa
fc
2
fe
fa
6
0
0
3
3
0
6
f9
fe
fd
4
4
f8
fa
ff
ff
2
fc
fe
3
fb
fd
0
fc
3
f9
fb
fd
f9
f7
fb
fd
1
fc
5
f9
6
fa
fe
3
fa
f9
fd
f9
0
3
ff
6
fc
3
6
fd
f8
0
2
0
2
2
4
6
f9
2
fe
fd
fb
fe
2
4
fa
ff
5
6
fa
5
5
fb
f9
f8
2
1
f9
fd
3
fb
fe
3
1
fc
0
fb
fe
fa
5
fc
fd
fd
1
fc
fc
fe
5
5
fa
fe
2
0
f9
6
5
fd
1
3
1
0
fd
4
fe
ff
fa
ff
ff
ff
6
fd
5
4
fe
fe
1
fc
2
4
5
4
5
f9
3
fe
fa
fc
fd
1
fe
fc
f9
fe
7
5
fc
5
2
fe
3
fe
5
3
0
2
ff
fe
fc
ff
fc
2
7
1
fb
fd
7
fc
fb
f9
0
fa
ff
2
4
fa
7
fe
3
fe
4
f8
6
f9
f8
fa
f9
6
4
fb
f9
fd
fc
fc
fb
fb
6
3
2
ff
fa
0
fe
fe
ff
7
fc
5
7
6
f8
fb
f9
0
5
fa
ff
f9
fe
fe
2
1
3
0
ff
fa
0
6
ff
4
5
fe
8
7
ff
3
5
4
0
1
1
ff
fe
5
fd
6
fe
8
4
ff
fb
fa
fa
7
2
7
f9
fb
3
5
1
2
0
ff
2
f9
7
fc
f9
ff
2
0
fb
2
2
6
ff
fe
3
4
fb
ff
4
4
fb
fe
fd
2
5
fc
4
fa
fc
5
6
fe
fe
fa
7
6
fe
2
1
0
f8
5
fe
5
6
0
5
ff
fe
1
0
f9
f8
1
6
ff
6
0
0
fe
ff
ff
4
2
0
ff
5
f9
fe
fa
f9
8
fd
fd
2
f8
5
7
1
7
3
fa
6
fd
fe
0
fb
1
fd
3
2
fb
4
fb
2
fc
fb
6
6
fe
0
fe
8
fb
3
5
f8
f9
3
f9
fe
f8
fc
2
ff
2
f9
2
fb
3
fd
4
3
1
fe
f8
5
f8
fb
fc
3
ff
fa
5
0
1
1
0
6
3
fe
fa
5
0
0
ff
ff
2
5
5
fc
f9
3
ff
3
8
ff
7
3
fa
2
7
6
fb
0
fd
0
fd
fb
5
5
8
ff
6
2
fe
3
f9
fb
2
4
1
fd
fe
fc
3
fc
0
5
fe
5
3
fb
ff
fd
5
4
fd
fd
4
3
fe
f8
fa
f8
ff
2
0
fd
4
fe
2
fb
0
7
1
4
4
5
0
fd
1
f9
3
4
6
1
2
0
ff
fe
8
2
5
fc
4
ff
fa
ff
0
fd
ff
fa
fd
f9
3
5
5
0
fa
7
1
3
4
1
6
2
ff
f9
1
6
0
3
6
6
fe
fe
fa
ff
3
1
fc
fd
fb
6
fa
7
2
4
fd
0
fd
6
fc
fe
fa
2
5
7
fc
ff
0
6
fa
1
fd
2
0
fd
1
fa
fa
fe
fe
6
fd
1
fb
3
4
8
7
6
fd
7
3
3
ff
f9
fb
2
6
f9
fd
fa
fe
fd
ff
5
fa
5
2
6
1
5
fb
f9
3
0
fa
fb
fa
ff
ff
7
fb
f9
4
fc
fd
fe
fe
2
0
4
1
fc
3
0
5
fc
0
1
2
fa
4
3
3
fd
fa
1
f9
4
fa
ff
fa
fb
4
5
ff
2
ff
fb
ff
ff
2
fc
5
fa
fc
f9
4
4
fb
4
2
3
4
f8
3
fb
0
ff
5
fc
1
fe
3
5
fc
fa
fd
0
f8
fa
5
0
6
0
5
4
ff
1
fb
0
fb
fd
f9
6
fd
fb
3
ff
3
1
fb
3
fc
4
fa
5
ff
fe
4
fb
1
fb
3
0
0
3
1
4
3
fb
6
5
2
2
4
fd
fb
ff
ff
7
5
0
fd
fc
fa
5
ff
0
f9
fe
1
ff
fd
7
7
2
4
ff
fc
fa
2
7
fd
3
6
fb
0
7
3
4
fd
0
1
8
ff
5
3
4
1
6
8
fd
7
fd
fe
0
0
1
7
ff
6
fd
2
fb
6
4
fa
fd
f8
f9
2
2
3
fd
4
1
fc
4
4
1
4
0
fd
fd
7
fd
fd
4
6
2
fd
4
7
fd
f9
0
2
6
4
f9
6
ff
3
fb
7
5
0
fb
1
0
fe
2
fa
fc
fc
3
fa
fd
f9
fe
fe
7
ff
1
7
fe
fe
5
6
3
fd
fc
8
1
7
fb
fd
3
fa
fd
fb
7
3
2
fe
1
7
2
2
6
5
fe
9
fb
7
5
7
2
fb
3
8
6
3
3
3
fb
0
ff
ff
4
fe
1
6
4
7
fb
fe
fa
3
7
ff
1
fa
3
4
fa
fe
fc
4
fe
5
fb
6
4
0
fa
7
0
6
1
0
6
fc
5
8
4
fe
4
f9
1
5
fa
6
f9
f9
3
0
f9
fc
fe
6
2
8
fa
fb
0
fc
2
f9
fd
2
5
2
4
0
5
6
1
3
fd
f9
fa
fc
f8
2
4
0
6
f9
fe
0
fb
fe
fc
5
3
8
ff
2
6
ff
6
8
6
4
ff
f9
f9
ff
fc
0
ff
3
8
ff
5
4
8
fc
0
5
fe
4
0
f9
0
fb
5
2
fb
6
fd
fb
fa
1
3
fa
1
fe
ff
fe
fc
0
7
5
7
2
4
6
fb
fe
1
f9
fc
5
f9
3
f9
2
6
fe
fa
1
ff
fc
2
2
0
fd
4
0
f9
2
3
0
fa
7
8
8
4
fd
fe
fd
1
fa
4
fc
3
3
1
8
5
fd
fb
6
fc
fc
2
ff
f9
fc
5
7
1
fb
3
5
f9
3
6
5
3
fe
7
3
2
1
2
f9
7
fb
4
3
fb
fa
5
6
4
1
9
ff
f9
ff
f9
5
fe
2
f8
fa
5
5
fd
4
fa
fe
f8
ff
f8
ff
fb
fc
fb
ff
5
fc
1
ff
4
fa
fd
fb
5
5
6
6
2
fc
7
fb
6
ff
0
0
fb
6
1
fe
fb
fd
3
6
ff
7
fa
3
f9
fd
3
2
5
5
fc
4
fd
fd
6
5
1
5
3
5
fb
4
fa
5
fe
6
fc
fe
4
2
fa
fa
1
fc
fe
1
0
1
fa
ff
6
3
6
fc
f9
1
0
2
fe
4
fa
8
7
6
fb
4
0
4
fe
8
7
7
2
0
6
fd
f8
ff
0
5
fe
5
fd
3
fb
fe
fd
7
0
fe
1
0
6
2
3
fa
1
fe
fb
fe
0
0
f9
fe
0
6
f7
1
fd
fb
fe
fd
fb
5
4
4
fe
fe
0
fd
1
fc
fd
1
0
f7
4
3
ff
f9
ff
1
fc
fe
fa
fe
0
0
2
fd
5
f7
1
5
2
7
fa
2
2
5
1
fc
4
1
ff
9
8
0
1
1
5
3
2
2
2
fc
5
4
3
fb
f9
4
4
fc
4
fb
fa
5
6
3
2
fc
8
5
8
1
fc
4
5
fc
0
6
f9
4
1
2
f9
2
5
2
fe
fe
fa
fa
fa
fb
ff
f9
6
1
fc
6
0
8
f9
5
2
fc
7
3
5
fc
6
fd
6
6
7
1
7
5
4
8
4
fe
4
3
3
f8
fb
fb
4
fc
4
fd
0
6
f9
7
f9
fe
fc
5
fb
2
8
fc
fe
fb
fe
f9
1
fe
4
5
fb
6
1
fe
2
3
fc
f7
3
fe
1
1
1
fa
2
4
fd
1
0
7
fd
f8
ff
f9
2
fc
ff
f9
f6
fe
fd
3
0
fd
3
fa
0
fb
3
fb
6
8
fd
fc
fd
fd
6
fe
6
1
2
1
5
3
3
2
ff
f9
1
f9
fb
4
8
5
3
0
6
5
4
5
fb
3
fb
fb
fb
fe
fb
3
1
4
4
f9
2
6
fe
0
ff
6
6
5
fe
7
3
1
7
fc
fa
fe
6
f9
1
0
1
fd
5
fb
fc
0
6
6
fb
4
fd
3
7
1
7
2
5
fe
fe
f9
fc
fa
7
2
1
ff
5
fe
7
4
4
fc
2
0
ff
7
6
ff
1
fb
fa
fb
3
fd
fe
4
4
fa
fa
0
3
6
6
f8
3
4
2
fa
fc
fb
4
fb
ff
7
5
5
6
2
4
ff
8
2
fa
fd
3
4
4
fa
6
5
0
fa
fe
5
fe
f9
7
7
fc
0
2
ff
0
f9
4
fe
fe
7
2
6
6
f8
fa
0
0
0
fc
6
5
fb
3
fb
fb
9
fa
fe
3
fa
0
5
fa
3
1
4
a
3
2
8
3
fd
fb
fb
5
5
2
1
4
1
6
fb
0
fa
9
fc
1
6
1
fe
3
5
ff
fc
fa
3
2
f9
6
fd
6
5
fb
fa
4
5
5
2
ff
fa
fa
0
fc
fe
1
fa
fa
fe
7
6
7
2
fe
5
fc
1
fb
3
0
1
8
ff
2
0
fd
0
fa
f9
4
2
4
2
5
2
6
fe
0
1
fa
5
0
7
3
6
fe
fb
fe
5
7
3
fd
fe
fd
6
fe
fc
4
fd
3
4
2
ff
4
fc
7
fd
3
f9
2
3
f9
fe
1
fb
3
1
f7
fd
1
fb
fc
2
2
fe
7
fb
6
7
7
f9
5
4
1
5
6
fe
2
3
3
2
fe
3
fd
4
ff
fb
fc
5
f8
1
6
5
1
3
fc
fa
5
4
f8
1
f7
ff
3
fe
fe
fa
f9
fd
ff
3
6
7
fc
fe
2
8
ff
fd
0
0
2
fc
ff
1
0
4
fb
1
1
fb
fd
3
fe
3
ff
7
fe
f9
1
4
fb
fe
7
2
8
fd
fd
6
2
8
3
4
fe
0
6
fe
f8
fb
5
fa
6
ff
4
fc
2
f9
f9
fc
0
7
fc
fb
8
0
fd
fc
ff
3
4
1
fc
2
1
7
4
5
8
5
3
1
fc
fc
fe
fa
4
4
f8
1
fe
6
fb
0
3
fa
4
fa
6
2
fe
3
8
7
fc
fb
7
6
fa
f9
f9
6
6
2
ff
fa
7
fc
8
4
fd
fa
2
f9
fc
fd
1
7
fd
fb
8
2
fe
f9
fb
2
f8
3
5
5
0
7
8
1
4
4
2
fe
5
fa
5
4
3
fc
1
f9
ff
2
fc
0
1
fe
fc
3
1
fd
3
fe
fa
1
fc
5
f9
f9
fb
fc
1
fc
6
8
7
4
2
f9
2
6
5
fe
3
fe
4
fc
8
1
7
4
0
0
fc
fd
fc
fd
fb
fa
fe
5
fd
4
fb
fb
0
f9
3
fd
fa
6
fa
ff
0
0
3
0
7
0
3
f9
fe
fd
4
7
ff
4
1
1
2
fe
fc
2
7
ff
fa
ff
6
f9
4
ff
f6
f9
fe
6
f9
fa
7
3
3
7
fb
1
fb
0
fe
fa
fa
fb
4
0
2
3
7
2
6
fb
f9
7
0
4
fc
7
1
3
ff
fc
ff
3
9
fb
7
6
5
ff
fc
7
6
3
fc
fe
fc
2
ff
fe
2
fb
fd
4
f8
5
5
ff
fa
0
fd
fc
4
5
1
f9
1
ff
2
fc
9
0
fc
0
0
fa
ff
fb
4
6
0
9
4
3
fd
fc
ff
fa
7
fd
f9
fd
5
ff
0
9
0
8
0
4
fa
6
4
0
2
fe
fd
1
4
3
8
f9
1
fd
ff
6
ff
fc
fb
fb
0
4
2
8
f8
fd
0
3
0
5
fd
fe
3
2
ff
5
5
ff
0
0
fd
3
3
2
4
4
f9
5
5
2
3
2
fc
4
1
7
fb
fd
fe
fd
5
ff
ff
5
4
fa
fd
fe
fb
fe
1
1
3
fe
fa
4
fe
fe
fc
f7
6
fe
1
3
4
fd
fe
4
6
ff
fe
3
2
0
6
6
fe
fd
3
f8
ff
fa
2
f9
f9
fe
fb
fc
fa
0
fe
fb
fd
fd
fe
4
fa
fa
3
fc
2
0
ff
1
fc
9
4
fa
7
fa
0
3
1
fc
fe
3
5
6
4
0
3
4
fd
ff
2
5
1
1
fc
5
6
fc
2
2
7
fe
7
9
0
fa
fb
0
3
fd
2
4
fd
f8
4
f9
f9
3
fc
5
ff
fd
0
5
0
f8
fc
f9
fb
1
6
f9
0
4
fb
7
7
fd
fb
fd
f8
fe
2
fd
fd
7
fa
fd
5
4
2
7
8
1
6
fd
1
4
ff
7
fe
4
f9
1
fd
1
4
ff
8
fe
fa
5
2
fa
5
ff
fa
6
1
5
f9
fe
7
1
0
7
f8
8
3
f9
5
3
fe
fe
3
5
f9
2
5
fb
8
3
fa
fe
5
fc
fe
4
2
4
1
0
fc
0
f9
fb
3
6
ff
fc
1
fb
fc
fa
4
ff
1
5
5
4
fc
3
fa
5
4
fe
6
2
0
6
ff
6
6
f9
fc
2
fc
fa
ff
7
2
fb
3
fb
f9
1
3
f8
fa
2
7
5
f9
2
4
4
fa
ff
ff
1
2
2
2
7
fa
7
fd
6
0
4
fe
fa
0
f9
fa
fc
fa
fd
fd
fc
fd
fd
f8
3
f8
fb
0
1
2
ff
fa
6
fc
fc
6
4
fb
2
4
fd
fe
5
6
fe
fc
fe
fb
fc
2
f9
fd
fb
fe
fd
8
7
fd
8
6
6
fa
5
fb
1
ff
fb
fd
1
fc
0
1
0
fe
1
fa
fa
7
fe
fc
fa
fa
4
3
fe
8
4
0
f9
f9
6
ff
5
f8
0
f9
5
0
fc
2
2
0
8
fb
7
fd
fa
2
fd
0
2
7
7
3
ff
1
5
2
5
fe
fb
2
3
fb
2
6
fd
fc
7
fb
2
2
6
fd
0
fe
0
fc
7
3
0
ff
1
7
fb
1
fe
6
6
3
ff
7
fb
8
2
ff
7
fc
ff
5
1
7
2
6
fc
fe
fe
4
6
fe
fd
fd
4
f8
3
6
1
fb
0
fc
fe
fc
fd
fd
1
fd
2
5
fa
2
fe
f9
0
f9
fc
7
f9
0
ff
3
5
2
fd
1
0
8
7
3
fa
3
f8
f9
3
fa
fd
4
1
3
fc
fe
0
ff
8
fc
fa
5
7
7
5
5
fa
fa
fa
fc
4
fc
4
ff
3
6
2
fe
fb
fb
2
2
3
fe
0
fa
1
5
1
ff
ff
8
5
fd
4
4
fa
fe
0
4
6
ff
0
fa
ff
f9
fe
0
fc
0
fd
fb
fe
fe
fe
4
ff
fc
5
0
fd
fb
fb
fe
5
ff
8
0
3
4
4
2
3
fe
fb
fe
fa
5
fe
ff
fd
4
4
fe
1
fe
3
6
8
fc
fa
4
1
fa
3
3
6
fd
6
fc
7
0
ff
fb
0
fb
fe
1
f9
fb
3
fa
fe
2
f9
fe
ff
fb
1
ff
5
fc
6
fa
3
6
0
fb
fb
0
0
5
fe
6
ff
7
ff
0
4
fe
fd
fa
fb
1
fe
f9
1
0
6
fd
fb
fa
fb
4
5
fb
2
1
fe
ff
3
fb
fe
f8
fc
6
fe
fd
2
3
0
fe
7
6
5
2
fb
ff
2
fe
0
7
7
f9
1
3
fe
5
f8
4
2
fa
6
2
fa
fc
3
f9
fd
ff
6
fb
4
fc
3
2
f8
fe
ff
ff
2
3
2
0
0
4
ff
0
6
fe
4
2
0
5
ff
fe
1
7
f8
0
fc
fa
8
8
3
1
0
fc
f8
5
fc
fa
fb
fe
f8
0
fe
1
5
fc
fe
0
6
ff
3
fc
fb
f9
fb
6
4
ff
3
fb
3
6
3
fa
fd
3
8
1
1
fa
fd
fe
fb
8
5
fa
2
fd
2
fa
f9
ff
6
fd
8
1
ff
0
1
2
2
fc
fa
fd
2
fc
7
fc
fb
f9
fa
fb
1
fa
fe
fe
5
0
7
1
fd
f9
fb
0
1
6
fd
fd
0
3
3
5
5
2
4
6
0
f8
fe
fb
2
fb
fd
ff
f9
0
0
0
5
fa
fc
fb
7
fb
0
fb
2
1
ff
2
fa
fe
fb
3
fb
fb
3
f8
0
fa
fc
ff
6
fe
ff
0
6
2
f9
0
fb
fc
f9
5
7
1
1
ff
f9
5
fe
7
5
fa
6
fb
f8
2
f8
fa
fe
2
ff
fb
fe
fc
5
3
2
5
3
3
4
5
f9
fd
2
f8
1
2
2
fe
6
3
7
5
fd
2
ff
fd
fb
3
6
7
5
f9
ff
4
fd
fc
3
3
fb
fd
f9
fe
7
fc
1
fb
3
fb
8
1
6
ff
2
f9
1
5
fe
fb
fc
fa
5
2
f9
fc
1
3
fb
ff
7
6
7
fe
f9
0
1
f9
7
fc
fc
f9
fd
5
f9
fc
5
fe
5
0
3
fe
2
ff
2
4
fe
fd
2
fc
fc
fe
fe
4
f9
fe
fc
fa
5
fd
0
0
fa
1
7
fc
6
f9
1
4
fd
1
fa
fa
fe
3
f9
f9
3
fd
fc
f9
2
5
3
f9
0
ff
fc
fd
1
fd
fc
4
5
4
fe
fd
3
3
3
6
fa
fc
fa
1
fe
7
fd
0
1
fb
6
2
fe
fd
0
fa
9
6
0
1
ff
fd
fe
1
6
fc
f9
fd
f8
fc
3
ff
1
7
ff
4
fe
fd
fb
4
fd
2
6
ff
fe
f8
3
4
ff
fc
3
fa
fa
f9
4
7
6
0
1
2
fd
fb
ff
ff
f9
fc
fd
fe
fe
ff
1
fa
ff
f9
4
0
f9
3
5
3
7
fe
8
7
8
3
0
5
0
0
fb
4
fa
fc
fb
2
ff
4
3
ff
6
f8
0
3
0
6
fc
7
f9
5
fb
2
ff
7
2
1
3
ff
6
4
fd
5
fa
fc
8
0
fa
3
4
fe
3
8
fd
fa
4
ff
fb
fe
f9
2
7
fd
0
4
fc
fb
f9
4
f9
ff
7
1
fa
6
4
fa
fb
1
fe
5
ff
8
fb
ff
f8
fb
f9
4
7
5
7
0
fe
4
fb
fc
5
2
ff
fb
1
7
fc
1
fe
0
6
fb
7
2
ff
fa
fd
5
1
1
f9
fb
fc
fe
fc
4
fb
0
ff
fa
8
4
1
fb
8
fa
1
ff
5
1
ff
2
ff
5
5
4
7
5
fc
6
7
fb
fe
0
7
6
7
6
f9
f8
fc
0
4
3
4
fd
fa
fa
fd
7
0
fd
6
4
0
2
fd
5
f9
fa
4
fe
ff
f9
f8
f8
fb
6
fe
fe
fb
ff
0
3
3
fc
8
6
ff
3
f9
7
3
fb
fb
fc
0
0
0
f8
3
2
0
fb
fc
fa
ff
fc
fb
7
3
fc
3
fb
fb
fe
0
7
0
2
fe
fa
1
6
2
5
6
1
6
f9
5
ff
fe
1
fc
fe
5
4
4
fd
2
1
fa
f8
0
ff
fb
f9
fd
2
7
fe
fc
fa
f9
7
ff
5
2
1
ff
3
f9
0
0
fb
5
1
fa
f8
fa
fc
4
1
f8
fc
f8
fc
fd
f9
ff
fe
0
1
ff
fe
5
0
ff
f9
0
2
6
6
2
3
4
7
5
f9
fe
fb
fa
2
5
fa
6
1
ff
f9
6
4
3
f8
fc
3
fe
f9
6
3
fe
1
2
f8
f9
4
f8
ff
5
1
fb
7
ff
fe
2
0
fd
fc
fe
3
f8
fe
fd
0
0
ff
fb
4
fc
fc
fc
2
2
3
6
1
fc
fc
1
fb
4
fc
fa
1
5
ff
fb
0
4
6
fe
fb
1
ff
6
fc
4
6
7
2
2
5
fc
fb
fa
fd
4
fd
1
2
fb
2
5
5
fa
fd
ff
f9
fd
1
7
0
3
f9
7
f7
8
ff
f9
7
fd
fc
4
3
5
5
fd
fa
5
1
5
ff
5
1
3
0
fe
2
fc
3
3
fd
0
fb
5
1
3
fc
fb
5
ff
7
fa
2
1
fa
fa
7
ff
8
2
5
fb
fb
fd
f8
2
fd
4
fa
f8
2
6
6
1
fb
4
3
2
7
4
0
fc
fc
f9
8
fa
f9
3
fd
fb
f9
2
7
fd
fa
1
fa
fc
2
1
f9
ff
fd
4
7
4
fe
f9
1
2
f9
fd
0
fd
6
5
1
fb
7
ff
0
2
1
ff
fb
6
0
1
ff
7
9
5
ff
f8
fd
7
7
f9
3
5
f9
5
2
5
5
fa
ff
7
3
fd
fb
3
ff
f7
0
1
0
4
4
f9
5
fb
fe
4
fd
fa
2
7
4
3
f8
f9
5
ff
1
2
7
f9
6
fb
ff
fa
fa
4
fd
fb
2
3
fc
5
5
3
3
4
4
5
5
1
fe
f9
0
5
4
ff
6
fe
fc
ff
fb
f9
4
fe
fd
fd
7
fb
6
4
fe
fd
fd
3
fe
fb
2
4
fc
ff
6
1
f9
fa
0
5
f9
fa
f9
fd
0
6
7
fe
fc
5
4
3
fc
fa
fb
4
fd
7
0
3
fb
0
fe
fc
fb
7
fe
f9
fb
ff
f9
2
0
1
ff
fb
fb
fb
6
fc
fb
ff
7
fe
f9
fe
5
5
fe
2
5
1
6
fb
6
ff
7
fa
5
fa
7
ff
3
6
fb
3
2
6
1
0
4
3
4
f9
4
3
8
fd
5
1
fb
fe
4
6
7
fb
fc
fc
f8
fd
f8
7
fc
4
5
6
fc
4
fb
fe
fb
8
2
7
fe
0
4
0
1
2
fe
fe
1
2
f9
1
6
fb
fa
fb
fc
fc
3
fb
fa
9
1
6
fa
1
fe
fc
ff
5
ff
4
ff
3
fb
2
fe
0
0
1
fe
fb
f9
fc
fc
fa
3
3
5
fb
fa
0
fe
f9
fd
fb
4
fe
6
fb
4
1
ff
2
fb
6
4
3
fd
fe
fd
2
5
4
ff
ff
fa
f9
fb
0
fb
1
f9
fc
3
fa
0
4
fb
ff
fa
5
fa
f9
5
fd
ff
6
fd
fa
fb
fa
fc
f9
fb
1
2
ff
0
0
5
1
5
4
fb
fa
fe
1
0
fc
fb
0
1
f9
fd
fd
8
fe
fa
1
4
ff
3
4
f8
fd
ff
fd
3
2
6
fa
7
f9
4
6
f9
fa
0
6
6
2
7
0
4
6
fa
fb
fc
6
7
ff
ff
ff
5
7
8
4
7
fc
fe
2
1
1
5
fc
5
1
f9
5
8
7
fd
f9
2
5
fb
f9
fa
4
fa
f9
4
f8
2
f9
fa
6
8
fd
0
9
3
fd
fa
0
4
6
f9
6
6
fe
6
fb
fd
7
5
fd
8
fd
fe
6
4
1
ff
fe
fc
fe
1
5
3
fe
2
ff
f8
1
8
5
ff
fb
4
fc
fb
fd
0
fd
3
1
f9
fb
0
fe
5
fa
0
fc
4
fe
6
f9
1
fb
3
ff
f9
5
fb
0
2
fc
5
4
5
ff
4
4
fe
4
f8
fd
fc
fc
fc
fa
3
6
7
fe
fc
6
1
fb
3
3
4
fa
fd
ff
ff
0
0
0
fa
6
2
0
f9
fe
fe
3
fc
fc
5
fb
5
f9
f8
2
fb
3
ff
3
4
fe
2
fe
fd
5
ff
4
1
0
7
8
fc
1
6
7
4
1
fb
fa
4
4
ff
fb
0
3
4
fa
0
ff
fc
fb
fa
f9
f8
2
6
fc
4
3
6
4
fd
fd
6
7
fd
6
f9
fb
2
4
3
6
4
2
2
2
fd
ff
fc
fc
fc
3
fc
fa
4
1
f8
a
3
f9
2
fd
5
fd
0
fe
ff
6
1
2
fa
f8
f9
fb
fa
fd
4
2
fd
4
f9
fd
fb
0
4
fa
ff
4
4
f8
5
4
1
ff
3
ff
0
f8
fc
1
fe
8
fa
fa
f9
6
7
2
6
7
1
fe
7
0
fd
ff
4
fa
fa
f9
2
fa
fe
1
3
5
fc
1
fb
7
4
1
0
fd
0
7
5
0
3
fd
ff
0
5
4
3
1
3
0
1
ff
fd
fb
f9
4
8
4
1
fe
fb
f8
6
0
0
f9
fe
f9
3
2
f8
ff
1
0
fd
0
5
f8
fe
ff
fc
fc
3
f9
fc
f9
4
7
f9
f9
6
1
0
ff
0
fb
fe
4
4
6
6
1
f9
fe
ff
ff
f8
fa
ff
fa
2
5
5
fe
fc
0
0
9
2
fe
3
fb
fd
a
2
fc
4
4
fe
fe
3
6
fd
7
fc
fe
3
6
6
6
7
fd
3
2
ff
3
ff
2
2
0
5
fb
2
7
fb
2
fa
f8
f9
5
0
3
f9
7
fe
2
3
f8
fe
1
fb
fe
fe
8
1
fe
5
0
ff
0
fb
2
fc
fe
6
4
4
fa
fb
3
7
fd
1
fa
5
1
3
5
fc
2
ff
3
6
4
fc
3
f8
1
6
f9
fa
7
fc
3
0
fe
fb
fc
6
fa
fb
f9
fb
1
fb
fe
fb
fb
fc
4
ff
fb
0
fb
fa
2
ff
ff
4
fb
ff
fa
5
4
ff
1
fa
f8
5
f8
0
8
fd
5
0
ff
fc
8
fa
4
4
fd
1
3
fc
5
fc
3
fa
fc
fa
4
2
fd
ff
fd
fd
fe
6
fa
f8
2
1
5
7
1
ff
4
1
7
fe
7
fd
fe
4
f9
3
f9
7
5
fd
5
4
1
4
fa
2
2
6
fc
ff
ff
f9
6
fb
5
6
1
ff
fc
fa
7
fc
fd
4
6
7
fb
1
fa
fd
1
4
8
fd
3
3
6
fe
fd
1
1
3
5
2
1
fa
fc
fd
ff
fe
fe
5
fe
fc
fa
1
0
6
fe
5
7
7
fa
fb
fe
3
f9
fe
1
ff
fe
f9
fd
fc
3
3
2
fa
fa
fe
f8
fd
3
fc
5
fa
fa
1
2
5
0
1
ff
6
0
0
fe
5
0
fc
fd
1
8
ff
5
6
fa
6
fe
5
5
fa
7
0
0
f9
fc
3
7
fb
ff
5
fa
fd
2
5
fa
6
0
4
ff
ff
1
4
ff
fd
0
fa
2
1
fc
1
4
fa
8
5
1
fc
fd
fa
3
2
4
4
ff
fa
4
ff
f9
ff
fc
4
ff
1
6
ff
fc
fd
8
0
1
fe
1
3
6
7
5
3
fe
3
fc
2
fa
f9
fa
fc
fb
5
6
0
fe
2
ff
0
3
6
5
fe
fd
6
0
fe
fc
fa
6
f9
2
f9
1
fc
f9
fe
fc
f8
fe
ff
fa
ff
8
fe
1
fd
5
3
fe
fa
0
ff
fb
6
1
fc
4
fa
1
fc
3
fd
fb
ff
fb
9
f9
7
8
fd
2
4
1
1
0
5
7
f9
7
4
fd
1
fb
ff
1
5
f7
4
0
fd
0
f9
fe
ff
2
5
3
0
fc
6
fb
6
1
5
fb
fb
fb
0
fc
0
fc
5
7
fe
0
7
3
fa
3
5
6
fa
fd
fb
fe
fe
fe
2
5
ff
0
f9
8
0
fc
0
fd
8
ff
1
f8
1
fc
1
fb
2
fd
ff
fc
fd
fb
fa
fa
fb
fc
fd
8
fb
8
ff
fc
ff
2
fb
fa
7
ff
3
fe
fb
fb
4
1
fd
2
5
2
6
0
2
7
3
fb
fa
fc
f8
fc
4
6
5
1
2
fe
5
fe
fa
0
0
ff
fd
5
7
fd
5
fa
5
fb
3
fb
5
4
0
ff
1
fc
5
2
2
fe
ff
7
7
8
fd
fd
2
2
fe
fb
3
f8
fc
fd
5
6
5
fe
fa
fc
fb
fe
4
2
fb
7
7
fe
1
fb
f8
6
1
3
f7
fa
2
6
5
6
fd
3
1
1
4
0
fb
0
2
fb
fe
7
2
2
f8
0
fa
fc
5
2
fe
fb
fc
fa
7
f9
5
4
9
ff
8
fd
3
3
2
0
fc
fa
fa
5
5
fe
0
7
4
7
fd
ff
1
2
6
fb
3
0
0
1
ff
fa
fa
1
ff
6
5
2
fd
fc
fb
7
f8
1
3
fc
7
1
2
3
f9
2
4
1
4
fb
fc
fc
5
f9
fa
