fd
4
6
f8
fa
6
2
2
2
fc
7
fb
ff
3
fa
5
1
fe
fc
fe
4
6
3
4
fb
4
fd
fe
fc
2
fa
fc
1
ff
fc
6
0
fb
7
5
f9
4
4
7
4
3
f9
fb
4
1
5
0
1
4
2
fe
2
1
7
fb
5
fe
fb
f8
ff
1
4
7
7
3
fa
8
3
ff
4
f9
f7
2
0
6
0
6
5
fc
fd
8
f9
1
4
fd
2
2
fe
fb
fc
fa
f9
f8
fe
3
3
fe
fb
fe
4
1
3
ff
6
ff
5
6
6
ff
fd
5
fd
ff
4
0
5
fe
fd
0
fb
5
f9
1
5
7
fd
8
fb
fc
fe
2
2
6
3
3
4
8
fa
6
3
fa
fb
fc
6
6
4
5
f9
fa
fe
2
2
7
1
7
5
fa
0
fc
f9
1
4
4
5
ff
fe
0
8
1
1
fa
f9
8
fc
fc
fe
fb
fa
4
2
fc
7
6
f9
1
2
5
fd
2
fe
6
2
fe
5
fe
fe
fa
1
2
5
fb
f7
5
fd
8
fb
fb
fb
fc
0
fc
0
7
1
3
fb
fb
4
fc
5
f8
fa
ff
fe
6
1
4
f8
1
1
1
9
5
fb
1
fd
1
4
4
fb
fd
fd
6
1
7
f9
2
fc
fc
fc
2
4
4
5
fc
fa
0
0
fe
fd
3
fe
fe
7
fd
5
2
fa
1
fa
7
fc
4
fb
fd
2
2
2
fb
fd
2
3
f8
4
1
5
fc
3
6
fe
0
fa
2
0
8
0
3
5
fc
4
0
7
fc
4
5
3
fa
0
fa
fc
fc
8
1
5
fc
6
fb
1
fe
fb
7
3
0
5
6
ff
1
7
6
ff
fd
ff
7
fc
7
fc
6
fe
2
4
2
2
6
7
1
f9
fa
f9
f8
1
f9
3
6
fc
fb
7
f9
fd
0
fa
fb
fd
3
fd
5
fa
0
fb
3
3
fe
ff
2
fe
fc
fa
8
ff
3
fa
fc
fe
fd
4
f9
fa
7
7
fb
4
4
7
f9
8
7
6
1
fd
5
0
ff
fe
5
2
fe
3
4
6
6
2
f9
0
fc
5
0
fb
fb
0
fd
f9
fe
fe
2
ff
fc
fa
f8
6
f9
1
2
fc
fe
6
7
fa
3
fb
6
fa
3
ff
fe
0
0
7
5
6
fe
0
5
6
4
2
6
6
fc
4
5
8
fc
2
8
f9
ff
3
1
6
1
fd
4
1
7
ff
6
3
fd
0
fc
fa
5
0
fe
4
6
4
6
2
fb
f7
0
ff
2
3
fb
1
1
2
fd
5
4
fd
1
5
fa
fa
fc
fa
fc
1
ff
8
fd
2
ff
2
1
fd
1
0
f9
5
f9
5
3
f9
6
fe
6
3
f9
2
fc
0
4
5
1
fa
1
1
5
2
fb
4
3
f9
f9
5
fb
f8
f9
7
6
1
fa
fc
6
9
fd
fc
0
f9
fd
fc
6
fe
7
5
6
5
4
6
fb
fd
fb
5
f9
fc
7
fc
3
fa
6
fe
5
3
0
3
3
fe
f9
3
8
ff
2
6
fa
fd
ff
2
fa
fb
5
1
fc
fb
4
1
fd
1
fc
4
7
ff
6
fb
6
4
3
fd
2
8
4
fc
2
4
fc
4
6
fb
fd
fe
fb
fa
8
4
fb
fe
fd
fe
fc
fa
4
6
5
3
6
fa
0
ff
0
1
fe
6
f9
2
fb
fe
ff
ff
5
7
8
1
ff
6
f9
5
fb
2
fb
fe
6
fe
fd
4
fd
1
ff
fe
fb
6
fc
0
fc
fb
f8
6
f8
fa
3
0
0
fb
2
1
f9
fd
5
fc
f8
4
5
0
7
fd
1
fd
fc
3
8
6
f9
f9
5
4
ff
6
8
fa
fa
fa
ff
ff
4
0
fc
fd
0
1
fb
1
f7
fd
5
5
f9
0
fa
6
4
2
fc
4
ff
4
5
6
5
fa
fb
5
fb
ff
ff
7
fc
4
5
5
0
0
fb
1
fc
fc
8
0
3
fd
fc
fd
0
7
fd
fe
6
3
3
fd
fa
fa
8
ff
ff
fc
2
f9
1
2
8
4
3
8
2
3
0
fd
1
f9
5
fa
f9
f9
6
ff
1
f9
fc
7
fe
fd
7
1
1
fe
ff
1
3
1
5
fe
4
fa
fb
fc
0
3
2
7
2
0
fa
fe
fa
fd
fe
f9
5
3
ff
ff
2
6
7
8
fa
f9
fd
ff
f8
fb
fc
4
3
4
fd
3
fb
7
4
f9
8
0
ff
fd
3
fc
6
3
6
ff
fa
ff
0
fa
6
fc
2
5
4
fb
0
fe
fc
fd
5
0
4
0
f9
1
ff
4
fb
7
ff
fd
fe
7
1
4
f9
f9
fd
fb
4
3
3
6
8
0
fa
5
fd
6
3
2
6
6
0
8
fe
3
5
6
0
0
fd
fe
8
4
ff
1
2
6
5
ff
fb
fc
4
fe
5
f9
f7
1
4
f8
fd
2
f8
ff
fc
0
fc
f9
f9
fe
8
ff
fc
8
5
5
4
8
4
2
fc
fc
4
6
6
ff
7
8
fe
4
f9
ff
fe
1
fb
fc
fc
1
5
3
fc
3
fb
5
0
fc
f9
fe
fa
3
4
0
fd
fa
fb
fb
1
fc
fe
4
1
fe
fc
ff
fc
fb
5
1
fb
fa
5
5
fd
3
1
0
3
ff
7
fd
0
fe
fb
2
f9
fa
f8
6
2
fe
fc
f8
fc
0
fa
fd
ff
fe
1
f9
fe
f7
1
0
3
0
fb
fd
fe
ff
8
fb
6
ff
3
f8
ff
fd
fe
fb
fa
8
fd
3
7
7
fd
fd
fa
0
0
1
5
fc
0
fb
2
8
1
fd
4
6
5
8
fe
7
8
fa
fe
6
fc
5
4
4
fa
0
1
7
fb
8
6
f8
4
0
4
7
ff
1
ff
ff
fb
f9
6
fb
4
6
2
2
fd
fc
fa
fa
fc
ff
6
fc
4
fa
f9
fb
1
0
fa
8
fd
fd
ff
2
8
f9
6
5
5
fa
fb
4
4
fc
4
fc
fd
0
fe
fc
fc
3
ff
1
0
5
fc
0
6
f9
fe
fa
fd
2
fa
6
fa
fe
2
7
fe
7
2
fb
3
5
fc
3
5
6
f9
ff
7
ff
f9
fd
fe
8
fd
4
fa
0
6
2
fb
fa
2
ff
f9
fd
2
0
fa
7
ff
4
fc
fb
8
fe
1
6
fb
fd
6
ff
fb
fa
fd
fe
fc
ff
0
5
fc
3
ff
1
0
fa
4
3
f9
0
ff
1
fd
fc
fd
fc
0
fe
3
f8
3
ff
0
7
0
fc
fa
6
0
3
0
3
fc
ff
fa
fc
fb
6
fb
3
1
5
5
0
fc
0
6
fd
2
fb
fe
3
fa
fc
fd
fa
0
3
3
fb
7
fb
fe
fd
f8
5
fc
4
2
ff
fc
ff
4
4
fa
6
4
2
7
6
fe
7
5
ff
3
3
5
6
fd
fd
5
6
fb
5
4
4
fd
fe
fb
fc
fa
5
fc
fb
3
fe
8
8
fa
3
fd
7
2
ff
1
fd
fc
5
fd
ff
f9
fd
f8
6
f7
fe
2
1
2
6
2
fa
f9
5
5
ff
fe
2
6
fc
fb
fd
4
5
fb
fb
fb
fe
fa
f8
ff
fa
2
fb
5
7
fc
3
fc
7
5
2
fe
fd
ff
5
2
4
fd
6
6
fd
fe
fb
fb
1
3
fd
f9
fa
fb
6
fb
1
1
8
4
fa
6
fa
7
fa
3
ff
6
4
4
fc
f8
ff
4
ff
f9
2
1
1
3
3
fc
f9
7
fc
6
2
ff
5
4
fd
fb
fd
5
fb
3
fb
5
4
6
7
7
3
2
4
fd
fb
2
1
1
2
fa
1
f8
4
3
fb
5
ff
5
fe
8
3
2
3
4
0
fe
fc
fe
1
2
0
7
fa
ff
2
0
f8
fb
fb
6
2
fe
5
fa
fe
fe
4
2
3
3
f8
2
fb
fc
7
7
5
4
5
fe
ff
fd
5
fb
2
3
6
fc
fb
fd
5
fa
fc
f9
7
3
0
fe
ff
f9
4
7
fa
4
fe
4
4
f9
1
3
5
fd
5
0
5
fb
1
6
fa
ff
ff
ff
fb
f9
3
fd
fd
ff
2
2
7
0
fc
1
7
fd
1
fa
1
5
fb
fb
5
1
fa
1
1
fd
2
2
5
5
fc
fb
fc
5
fd
fd
3
fd
5
fe
3
4
ff
4
fb
ff
fe
f9
ff
f7
fc
fa
fd
0
f8
2
6
6
4
3
4
6
fc
6
ff
7
f9
fc
fb
1
fc
0
f9
0
6
0
fc
3
ff
fd
fc
0
2
fa
fc
fe
fc
2
1
fc
6
fa
ff
3
6
fc
fc
fe
fe
ff
0
0
f7
fd
4
6
fc
fd
fc
3
f9
fc
fc
1
fe
ff
fb
fc
fe
f7
8
6
1
4
4
fe
7
0
fa
fe
5
1
5
4
fb
1
f8
f8
ff
0
fd
fa
fe
fa
3
4
2
5
f8
3
4
0
f8
fb
ff
fa
fc
ff
fc
4
2
1
3
7
2
5
f9
fb
fb
fd
fd
5
fb
1
fd
0
2
fa
6
6
f9
5
fa
4
6
6
fb
7
2
fb
fa
2
fc
fa
ff
0
0
4
fd
1
f9
fe
4
fb
fe
2
fd
0
fd
fa
9
ff
0
fb
fc
fa
3
4
7
fd
1
4
0
1
1
7
4
ff
1
3
0
1
1
fc
ff
4
1
fc
2
0
fa
fb
fe
4
fa
fa
fc
fe
3
f8
5
5
fb
f9
5
fd
0
2
2
6
f8
6
fe
ff
fc
4
f9
fd
6
6
fe
1
6
fe
4
5
fc
ff
fd
5
f9
0
fb
8
0
5
f9
fc
f9
ff
ff
4
fb
1
7
1
fa
5
fb
fe
ff
5
3
3
3
fe
f9
fd
fd
6
1
fe
fb
6
fa
4
ff
f9
1
fd
2
ff
fb
fb
1
fa
1
2
3
5
fa
7
0
0
fe
fc
2
2
3
fe
6
fa
4
0
fc
fa
6
fd
fd
7
0
3
fb
3
ff
fd
5
fe
4
fe
f9
f9
8
fe
5
2
fa
f9
0
fa
6
1
6
fd
f9
fa
6
f8
4
0
3
1
fc
fc
4
7
fc
7
fd
fb
fb
fd
fc
1
6
fc
6
4
fe
f9
fe
3
5
fa
fe
f9
7
fc
2
0
3
8
4
fe
f9
6
4
ff
fc
1
f9
5
3
fe
0
0
5
4
fa
fe
fa
5
0
1
fa
6
0
3
0
4
5
3
7
fb
8
4
0
8
1
f8
fe
1
2
ff
4
fc
3
0
5
5
0
4
6
f9
f8
fc
ff
2
5
fa
f8
fb
5
4
6
fe
0
ff
0
fa
4
fd
f9
fb
3
fa
ff
fd
0
2
4
3
fd
7
9
6
5
fe
6
fd
fb
fb
3
fe
0
6
7
5
6
0
ff
fa
0
6
fb
fe
f9
fa
fa
fc
2
fc
4
5
2
f9
6
ff
f9
2
6
5
2
0
4
ff
4
fe
2
4
5
f9
fd
2
fd
1
fa
2
4
fb
fb
0
0
1
3
7
5
7
f9
f9
fc
fb
f9
7
fd
fd
2
2
1
fb
2
1
fd
fb
fe
fd
6
fa
5
f9
1
fe
fa
ff
f8
ff
5
7
fb
3
fe
6
ff
ff
8
7
fd
2
8
4
4
fb
fd
6
0
4
ff
7
fb
ff
3
7
6
fb
fc
fa
fe
0
fc
fc
7
fb
ff
8
f9
5
5
f9
0
fe
0
1
fc
7
2
4
ff
3
fe
7
fb
5
2
fd
f9
fd
6
5
fc
ff
4
fd
fb
6
5
f9
fc
fc
ff
8
7
f7
f9
0
6
f8
fc
ff
fc
1
fa
0
0
4
fa
ff
0
f9
ff
3
3
5
3
2
0
1
f9
fb
5
fc
2
3
2
3
1
fa
1
2
ff
fa
fe
fe
7
f9
f9
2
fd
fd
1
fc
fc
4
fb
4
5
f8
7
3
6
3
2
7
fd
fa
5
3
fc
2
1
fc
ff
7
5
1
fc
fb
f9
6
1
8
3
fd
fa
fb
1
fd
fb
fe
5
3
5
3
8
fd
7
0
4
0
4
4
fb
fd
fb
1
fd
4
1
fc
ff
5
2
8
ff
3
fa
2
fb
fe
4
6
5
f9
1
fa
3
2
4
6
7
5
4
fe
7
6
a
fd
ff
f9
4
fa
fd
ff
7
1
1
2
fd
2
ff
4
0
f9
2
fa
fa
fb
7
fb
6
4
4
fb
f9
1
4
f9
7
7
fb
5
fa
8
fe
0
f9
6
fe
4
6
fb
3
fa
fd
fe
0
fe
ff
f8
4
7
fd
0
fa
ff
1
fd
fb
6
6
fd
3
f9
fc
ff
fa
fc
3
5
f7
3
fa
fd
ff
7
fe
ff
5
7
4
5
6
2
1
fc
8
2
4
f9
fe
5
1
ff
fe
3
2
ff
0
3
fd
fc
fb
1
0
fc
0
f8
5
7
fe
ff
7
fc
fd
4
2
f9
6
3
3
1
1
fc
fc
fe
2
5
f9
6
4
2
f8
fe
fd
1
fb
8
5
6
fb
2
fe
fd
7
5
3
fa
1
fb
fd
fd
8
6
4
4
3
0
6
fd
3
5
0
2
5
7
0
ff
fc
f9
1
6
f9
fe
7
0
fc
fb
7
ff
fe
7
1
fc
7
f8
ff
2
1
fa
ff
3
fa
f9
fa
1
fa
5
fc
ff
4
ff
fa
0
0
fa
fa
4
4
ff
5
fb
9
2
4
3
fd
fb
6
7
1
fe
5
4
2
3
f7
fe
ff
5
5
ff
fa
6
fc
5
0
5
6
fb
2
6
2
ff
0
2
fe
4
f9
2
fb
fa
0
6
6
5
fd
0
f9
fc
7
fe
6
2
5
2
0
3
5
8
1
7
fd
f9
fb
fc
3
fb
fb
1
f8
3
fd
3
0
1
fd
5
fd
4
f9
fb
6
0
fd
3
4
0
7
fd
ff
fb
6
fb
4
1
ff
6
fe
fa
ff
fa
fb
f9
fd
4
1
3
5
fd
fb
f8
7
fd
fa
fb
fa
ff
fd
fa
3
fc
2
fa
6
4
fb
fc
f9
ff
4
fa
4
3
3
5
0
fa
fa
fd
7
ff
fc
0
5
1
fe
5
5
fc
1
fa
fb
3
fb
8
fd
2
8
4
fb
5
7
2
7
ff
0
7
0
f9
1
f9
fa
1
fd
5
6
fe
2
fe
5
7
0
5
3
1
ff
4
fe
3
0
0
7
4
fe
fe
6
5
5
0
5
3
7
2
7
3
6
fc
2
5
8
2
4
1
fe
6
1
2
fe
ff
3
fd
fa
fb
0
0
fc
ff
5
fc
1
0
fe
4
4
3
fb
0
f8
5
6
fc
fb
fe
fd
f6
f8
5
fd
5
fd
ff
fb
f9
fc
8
6
3
6
fc
fb
9
4
2
4
fb
5
f9
2
fb
fe
7
6
6
5
3
1
4
4
4
f9
fc
7
ff
2
3
fd
0
2
4
fd
1
6
5
fe
1
fe
2
5
fd
6
7
4
0
4
9
fa
1
2
fc
fb
fd
2
fe
f9
2
fb
fe
fb
3
3
6
fc
fc
6
fb
0
ff
5
fe
5
fb
fb
6
fd
f9
fa
3
fa
f9
ff
4
4
1
0
fa
fe
fc
5
fb
fb
fb
4
5
f9
3
fb
fd
ff
fc
fb
2
8
5
4
fc
2
ff
fd
4
7
fd
fb
fd
fd
1
ff
1
6
2
2
2
6
fc
5
fa
4
fc
5
7
2
4
f9
6
0
fd
6
fe
0
5
5
fa
8
2
8
3
5
6
fc
fb
fd
fc
1
fc
3
f9
fe
f9
fc
1
2
fe
5
ff
fc
ff
fe
1
8
6
0
2
5
7
fb
fc
f9
fe
4
3
fa
1
fa
4
0
fc
3
fb
3
fa
ff
5
1
5
7
fe
fd
5
fb
fa
4
fd
fd
fe
5
1
f9
3
6
fd
5
2
5
fc
0
0
2
fe
3
fb
0
3
4
1
6
fd
fb
fd
fe
1
fc
fb
ff
6
3
fd
fa
f9
fd
fe
fd
3
3
8
7
fc
0
7
ff
1
1
4
1
3
ff
6
f7
0
7
fe
5
f9
5
1
6
4
4
0
0
3
2
fd
ff
5
fd
fa
0
1
9
ff
1
7
1
fe
fa
fc
8
6
fb
0
fb
4
f9
0
f9
fb
fe
fb
fb
fe
fd
1
1
fc
6
ff
fe
7
7
fd
f8
3
fa
5
0
fd
ff
5
5
3
1
6
f9
5
fc
fd
f8
ff
2
ff
f9
8
f9
ff
4
fd
3
4
fd
fb
1
fa
fc
ff
fd
3
7
2
3
0
2
f8
fa
2
f8
0
2
0
2
3
5
fd
7
4
8
5
1
f8
fc
6
ff
6
f9
0
2
f8
2
ff
2
fd
2
fc
fc
fd
fb
4
1
fc
ff
fc
4
0
6
0
fc
4
4
fb
f9
4
1
4
0
5
1
0
7
f9
2
0
1
0
7
6
4
6
fe
0
fa
ff
8
3
0
fc
0
f9
5
8
fd
4
f9
ff
7
fa
f9
fc
3
5
2
4
fe
ff
fb
fc
fd
fa
5
5
fa
6
0
3
0
4
1
fe
0
4
9
2
fe
8
f9
2
fa
fe
f8
3
fc
fb
0
fe
fe
1
7
ff
fc
fe
6
5
3
4
2
fe
1
3
fd
fe
5
0
2
6
6
3
6
fb
2
fb
3
6
f8
f7
6
fa
ff
1
f8
6
3
3
7
4
fb
fe
2
fa
8
4
4
fa
4
ff
6
7
fe
ff
0
ff
fd
6
f9
fd
fd
0
6
5
ff
fb
6
fe
4
6
ff
2
fa
4
2
5
fb
fe
0
fc
ff
4
3
fb
fc
3
2
7
0
fc
fc
3
f8
fd
6
2
8
4
fe
5
5
f9
5
0
3
fc
fd
4
6
6
fb
2
fd
fb
fa
6
f7
ff
1
ff
ff
fe
0
9
ff
fc
fb
3
2
fa
4
fa
fd
fa
4
fb
2
fe
ff
1
0
ff
3
f9
3
fd
f9
6
fe
2
4
4
3
7
4
ff
6
ff
fa
fb
6
fa
5
0
6
fe
0
3
fb
ff
f9
4
f9
fa
4
5
5
5
0
3
fd
0
4
fc
6
fa
ff
6
1
1
fe
2
fc
6
fc
fe
5
fc
fc
fb
1
fc
4
4
4
f9
7
fa
fd
8
0
fd
2
f9
1
fb
5
fa
fe
4
4
fa
4
fd
1
fc
f9
fd
1
2
fc
fd
0
4
6
ff
fc
f9
1
4
fc
2
fc
4
0
f9
fa
5
6
0
fe
fb
0
2
1
fc
fd
fa
fe
8
4
fa
fb
4
0
0
1
3
6
fd
7
6
3
1
fa
fe
a
2
8
6
5
1
7
fd
fc
ff
ff
fd
fd
6
fb
3
fc
f8
ff
ff
3
fa
f7
f8
f9
ff
2
fe
1
fe
7
8
2
0
4
2
fc
8
3
fb
fa
fb
f8
f7
0
f8
2
ff
0
f8
ff
6
3
f9
7
fc
fc
fb
fb
2
f9
2
0
ff
4
fd
f9
fb
2
fe
4
2
6
1
5
4
3
6
1
fd
3
4
5
4
7
5
ff
f8
fd
fa
ff
fe
ff
fa
4
fd
6
fe
fb
fd
5
4
6
2
6
7
2
6
2
ff
3
0
0
2
fc
2
2
2
fb
2
ff
6
1
0
1
5
4
f9
fd
1
2
f8
fe
0
fe
4
ff
fd
fe
ff
6
fe
ff
f8
1
2
7
fd
fc
1
f8
7
fa
0
fd
fd
fa
8
4
7
1
f9
4
fe
fa
5
f9
fe
5
fd
fa
f9
ff
4
5
fd
fa
fb
ff
3
0
fa
3
2
2
fc
f9
6
4
fb
fb
ff
ff
3
fa
fc
3
3
5
6
fc
fd
fc
fb
fa
3
ff
1
f9
ff
f9
1
fe
fd
f8
ff
1
3
fc
fa
fd
7
3
3
fd
fd
fb
6
2
0
f9
fb
4
5
5
5
4
f8
fb
1
5
5
6
f9
fc
6
f8
f9
fe
3
fe
fc
4
6
fb
fd
2
6
3
4
fe
3
6
6
3
f9
fc
fa
fe
f9
0
0
fa
fd
2
fe
fd
0
fe
fe
2
4
5
6
0
1
ff
fe
3
fc
1
4
fd
fc
7
fe
8
fa
6
ff
fb
7
5
5
ff
0
fc
4
2
7
2
5
6
7
0
fb
fa
fb
3
4
0
fe
ff
ff
ff
6
fb
4
fc
fb
fa
fe
4
ff
fa
0
1
fe
fa
3
7
fa
7
fe
4
5
0
fe
7
3
4
1
7
fc
fc
ff
6
fc
ff
fd
7
7
6
5
fc
3
5
3
fd
fe
ff
6
fb
3
fb
2
fc
fa
3
2
f9
6
5
fb
5
6
fe
0
2
ff
4
ff
6
7
3
0
6
fb
3
fd
f9
f8
fd
fc
3
fa
0
ff
fa
0
fa
fa
f8
fd
fb
5
fe
4
fe
3
4
fd
2
1
3
2
6
f9
5
3
ff
2
fb
f9
fb
fb
f9
3
7
0
6
fe
1
fb
5
fd
0
fc
6
ff
ff
2
5
fd
fe
ff
ff
5
6
f8
f9
f9
3
fd
1
fd
0
fc
fa
3
ff
5
fe
f9
1
ff
2
7
0
f8
fd
ff
f8
fc
fb
4
fd
1
3
6
fb
fe
5
f9
6
2
ff
fe
4
fb
5
ff
7
4
4
1
0
3
2
fb
ff
ff
4
4
6
fc
fb
fa
f9
1
2
5
fa
fe
f9
fa
5
5
fe
ff
4
f9
0
0
5
fd
1
f8
0
3
fa
fc
4
1
3
fe
4
3
fc
6
2
fa
fe
fe
fb
2
fc
fa
fc
0
6
fe
6
2
2
fd
5
f9
5
ff
7
fd
4
fd
fe
6
6
2
3
7
0
fb
7
fe
4
1
1
3
7
0
f9
fa
0
4
7
ff
2
5
fb
0
f9
6
4
7
fc
f9
3
3
4
4
fc
fe
4
f9
6
fc
4
0
1
f9
fa
4
f8
fe
fa
0
fd
fe
fb
2
f9
fa
2
4
2
6
6
0
fd
0
ff
2
1
fe
6
4
fa
4
3
fc
1
f9
fe
1
0
2
3
0
4
2
fa
1
1
ff
f9
3
fd
1
4
fb
fb
3
1
4
ff
7
3
2
0
fd
0
fa
8
fe
3
6
7
ff
f9
ff
1
f9
7
1
fd
f9
fd
f9
0
6
f9
fe
8
fb
4
f8
2
2
fd
fc
f9
1
fc
6
fd
fc
2
8
3
0
fe
6
fc
ff
1
4
0
3
2
3
3
fb
fd
7
0
0
2
fc
ff
6
6
fa
fa
2
ff
f9
0
6
5
1
5
fe
ff
0
ff
fa
0
3
fc
2
0
4
fd
5
5
fc
fb
fb
5
3
5
fa
4
3
5
2
7
3
fd
fa
2
f8
fc
f9
4
4
3
ff
6
2
fd
fa
7
fa
fd
fd
fb
f9
fd
fd
fc
4
f9
fe
f9
fe
1
fc
fa
fb
0
ff
f9
fc
fb
fb
1
f7
1
7
ff
3
fa
2
4
7
fb
fe
fe
5
ff
fb
fd
ff
6
2
fb
2
fd
fb
fa
f8
1
fb
fb
2
fd
fc
7
fe
f9
fd
1
f9
5
7
fe
4
3
3
1
0
fd
fa
f7
fa
fd
f9
f8
fd
f9
ff
fd
0
0
fe
6
f9
6
f8
2
fb
4
fe
f8
fe
0
5
5
fb
fa
fe
fe
ff
1
8
0
1
7
5
fd
f8
4
2
4
ff
fa
4
fa
1
fe
fb
f9
ff
6
fe
f9
ff
7
4
5
7
2
fd
fb
fe
fe
2
fa
f9
fc
ff
2
4
fd
2
3
f9
fd
3
2
7
fc
5
fc
1
1
1
5
2
6
5
4
fe
fe
f7
0
4
6
f7
4
4
0
0
fe
0
f8
4
5
1
7
2
5
fd
7
fa
f9
fb
7
fe
ff
fe
2
7
fb
6
4
fd
f9
6
7
ff
fb
2
fa
fc
fc
f9
fb
ff
fc
fa
fe
fb
7
1
fd
7
ff
3
f9
fa
fa
4
f9
1
fc
0
3
1
3
ff
fb
ff
f9
5
ff
fb
9
fe
fb
fb
f8
4
3
5
fa
5
fb
5
4
fa
fd
fb
fd
4
4
fc
0
fa
6
fe
fc
5
7
2
6
0
fd
f9
3
fb
fa
ff
fc
fe
1
6
fd
fd
7
7
3
fb
fc
fc
f8
f9
fa
fd
4
4
2
4
fd
fa
fb
1
fc
ff
2
f9
fe
fe
8
4
7
fe
fa
0
fb
7
0
fe
fa
fc
7
0
2
3
ff
1
2
ff
fd
8
0
7
ff
6
fa
f9
0
2
fd
fb
fe
fd
1
3
fa
3
f9
0
4
fb
5
3
fd
0
3
7
6
4
3
2
fd
fb
f9
ff
6
fd
6
fc
fe
4
3
fa
4
5
0
f9
fb
fd
ff
7
7
fa
fb
ff
0
fa
0
7
3
f9
fd
3
fd
6
ff
1
ff
3
fa
fa
fa
2
0
fd
fd
4
fd
fb
fd
fd
fe
4
fd
6
ff
f8
7
ff
fe
0
4
fa
fa
fa
fe
1
2
fe
fe
f9
2
4
f9
fb
ff
fc
6
fd
1
1
fb
1
0
6
fb
8
2
5
8
fa
0
fa
5
ff
2
fe
5
1
fe
fd
f7
fd
2
1
fc
f9
4
4
fe
fb
7
fa
fd
2
f8
6
3
4
fa
0
1
fc
3
7
2
7
4
4
7
fa
fe
fe
3
0
3
fb
2
fa
fe
3
0
7
3
f9
fe
0
fe
0
f8
2
fd
1
fb
fd
fc
fc
fa
fc
7
1
0
6
f9
0
4
f8
fe
1
f8
0
2
ff
0
2
0
6
1
ff
f9
fe
fc
6
1
fc
fc
5
4
2
f9
fd
fd
fd
1
ff
ff
2
7
7
4
fa
0
fd
fa
4
3
1
fe
8
ff
1
5
2
1
1
fa
5
3
1
7
fb
6
7
fa
fb
1
4
ff
fa
8
0
1
fd
2
2
fb
fc
f9
fc
4
7
fc
6
6
fc
8
ff
5
fa
5
fd
fa
3
fe
1
4
1
fb
2
fe
fd
f9
5
fe
4
f9
7
fe
8
6
ff
6
fa
4
f9
f8
fa
fe
fe
1
7
4
1
fb
5
fd
7
6
4
5
fd
6
2
7
fd
ff
8
fe
1
6
5
fd
7
ff
2
3
fd
fc
3
ff
fe
fc
3
3
5
fa
4
f8
fa
ff
1
5
fa
7
7
1
fa
0
fb
fe
fb
3
fb
fa
fd
fb
f8
5
ff
3
9
fd
fc
4
fb
f7
3
f8
fb
0
ff
6
fc
4
fe
f9
6
fb
fe
0
fa
4
fa
fb
fb
4
fe
ff
fc
4
fc
6
f9
6
0
fa
4
1
fd
2
ff
0
3
5
fe
fd
2
fb
ff
0
6
1
ff
fd
1
fa
fc
f8
0
1
f7
0
4
f8
fb
7
fb
6
7
fd
3
5
fc
1
0
fd
6
f8
fd
2
ff
1
6
ff
fb
fb
6
2
ff
1
ff
4
6
5
fd
0
1
4
fa
fe
fb
ff
0
5
ff
f9
6
2
fe
3
ff
fa
fa
8
6
4
7
ff
fb
7
7
fe
fb
f8
1
fc
fe
7
2
0
ff
6
ff
fd
3
f9
4
fa
ff
5
f9
5
5
2
7
4
1
fa
6
6
1
0
1
fe
f9
fe
f7
0
f9
ff
fb
f6
4
fa
2
0
f9
0
fa
fa
4
fe
fe
fa
5
5
ff
fe
fe
ff
ff
5
f9
fa
1
fa
3
fb
f9
ff
5
fd
fa
fd
ff
3
3
fe
0
fd
6
4
0
2
0
8
4
fe
1
2
fe
fa
6
6
5
8
0
2
fd
5
4
fd
ff
0
5
f8
fc
fe
3
f9
1
0
5
1
fc
2
1
fa
fe
fb
fd
5
fa
5
f9
2
1
f8
5
fa
fb
fa
fe
fd
fd
3
ff
3
3
fe
fc
fd
fd
f8
fc
7
7
f9
6
f9
2
fb
fb
fd
fa
fc
1
f9
5
6
fe
fa
8
fc
ff
4
2
fa
5
ff
2
2
0
0
7
7
7
6
f9
f8
3
ff
fb
f9
2
1
ff
fe
8
fa
3
2
6
4
fb
fd
f7
f8
ff
4
fc
fa
2
fb
7
6
ff
3
6
ff
fb
4
fc
5
fd
1
fd
fe
3
1
ff
0
3
3
4
8
1
ff
fd
fd
4
fe
1
0
fd
ff
f9
fc
fd
f9
f8
fc
4
fc
fc
6
fc
fe
fb
4
fe
fb
5
f9
fd
2
fb
fc
6
4
fc
1
3
1
4
3
5
4
6
ff
fb
0
fc
fe
ff
fe
fc
1
fb
5
2
fa
2
fb
fe
ff
3
0
fa
8
f8
fb
fb
fc
f8
4
4
3
fa
4
1
6
7
4
3
3
ff
1
4
fa
1
3
fe
fd
fe
0
fc
1
f9
f9
fc
f8
f9
f8
ff
3
3
fc
1
7
fc
fd
fa
2
0
ff
fb
1
2
ff
2
fe
fd
1
fc
7
6
f9
fa
2
fa
3
ff
fe
5
3
fa
fa
2
4
4
6
fa
2
fd
3
ff
1
7
6
0
8
f7
fc
ff
2
fd
ff
fe
fc
fc
fc
fd
fd
5
f9
fa
5
fe
3
fe
5
2
fd
7
1
7
7
fd
1
8
fe
fe
ff
4
8
ff
4
5
3
6
fc
3
5
ff
f8
fe
f7
ff
fa
f8
fd
6
fb
4
3
3
fb
5
fb
fa
fc
fa
ff
1
6
fb
fc
4
2
1
2
2
ff
f9
fe
3
5
6
fc
fc
fe
8
1
1
ff
fe
f9
fc
3
ff
2
3
fb
2
8
0
fb
1
fa
1
2
ff
3
fc
6
fa
fd
ff
4
fa
fa
fe
1
0
f9
4
fd
fa
3
3
6
fc
3
fb
0
1
2
0
6
ff
f9
1
fe
5
fe
f9
1
7
fe
6
fc
fa
1
3
ff
fc
fd
1
2
5
3
0
4
fc
3
1
4
fe
fd
f9
f9
7
3
f8
fc
1
ff
f8
1
7
ff
8
5
1
fe
fa
ff
f9
5
3
ff
fb
fc
5
4
2
0
ff
3
5
2
6
ff
ff
fb
4
fa
8
fb
3
6
3
6
fd
f9
7
3
0
f9
2
0
4
2
fe
fc
3
fb
6
0
8
3
fb
fd
4
0
f9
3
6
5
4
fa
5
7
6
fa
4
fa
fd
6
5
2
4
6
fa
fb
0
1
fa
2
7
fd
4
fc
1
f9
6
8
fa
ff
2
7
7
3
7
fa
fc
ff
f7
3
3
f9
5
ff
3
3
6
fe
2
f9
3
3
5
4
0
5
fd
fa
fe
fd
5
fb
f8
fd
7
1
f9
4
f9
3
6
3
7
2
fd
ff
3
fc
ff
fb
7
1
ff
ff
4
3
7
7
3
3
6
2
5
fb
8
2
1
fb
fa
f7
2
3
fe
2
4
fe
fa
fe
2
3
5
fa
1
5
2
6
7
fa
fa
5
ff
4
1
fe
fd
ff
fd
f9
2
fe
fa
f9
6
7
f8
fc
ff
f9
3
4
1
4
f9
fb
fa
f9
fa
2
0
2
fb
1
5
4
5
6
fb
fd
2
1
6
2
fe
7
5
1
f9
ff
fe
2
3
fd
ff
7
fd
3
5
f8
f8
fe
0
4
2
fa
1
0
3
6
fe
1
fe
5
fd
6
fc
1
ff
fe
5
3
4
2
ff
5
2
4
4
fa
2
1
7
7
7
fd
6
fe
6
2
1
8
fd
ff
0
f8
6
0
fa
1
f7
fe
3
fc
3
2
1
2
4
fa
ff
fd
7
1
fd
f9
f9
fe
6
fb
f9
fd
6
fb
7
4
6
f9
5
ff
6
0
fe
0
2
fc
5
3
1
fb
5
2
ff
2
fa
3
2
8
f9
5
3
fb
6
0
fe
2
ff
1
7
8
fb
fd
1
fb
fb
7
fd
fa
7
fc
fd
7
fc
5
0
fe
0
fd
6
5
fc
5
2
4
ff
f7
0
2
f8
fa
3
fd
7
4
0
fa
fe
f9
f9
8
6
5
fa
2
5
8
f9
fc
1
fb
0
fa
7
5
fe
fc
fd
6
6
7
fa
7
fe
0
fb
5
fd
6
6
6
fb
fb
fb
fc
ff
fe
fa
fd
5
fc
fc
2
fe
ff
fe
ff
3
ff
1
f9
6
fd
5
fb
2
4
fe
fe
2
7
fc
fb
5
6
5
8
7
fd
fe
fc
2
0
fb
fa
6
fc
6
3
fd
3
f9
fb
fc
0
fd
fb
6
2
8
8
3
ff
f9
fc
fd
f9
fc
fd
fa
fd
5
2
6
0
2
3
7
5
fe
fd
f8
3
0
1
3
fb
fe
1
6
ff
3
4
fc
fd
3
fa
8
fb
8
fa
f9
0
4
5
4
fe
3
6
2
fd
7
fc
5
4
fe
7
7
3
fc
fc
3
6
4
ff
2
f9
2
fa
fb
0
fc
ff
fe
ff
fa
f8
0
fe
fa
fc
5
5
1
fc
6
fe
f8
4
fd
6
fb
1
1
5
2
6
1
6
4
0
0
ff
1
fa
5
4
fd
fb
4
ff
4
0
fd
7
f8
5
fe
7
2
7
8
7
1
1
3
2
3
fa
fb
3
2
ff
fa
ff
f9
fd
fd
fe
6
fc
f9
5
3
ff
fb
fd
3
fb
7
2
3
fa
fc
7
1
5
ff
7
f8
f9
ff
1
7
fc
1
fb
0
7
0
fa
ff
ff
7
fb
fc
fb
fe
2
ff
fd
fd
fc
fd
fe
7
0
fe
6
fe
4
7
4
0
6
0
1
6
fe
4
2
fc
1
2
fa
3
fa
f9
2
fc
3
8
0
fd
fd
f9
4
0
2
fd
6
fa
fc
3
fe
0
fb
2
fc
ff
fb
fb
5
4
fc
0
4
3
fe
f9
6
fe
2
4
fb
2
1
3
3
fa
5
fa
f9
f9
fe
5
2
f9
fd
7
6
fe
7
fb
3
fd
6
f9
4
fc
1
1
8
7
fd
0
fb
6
fc
5
6
fb
fa
2
3
ff
fc
fe
fc
4
ff
3
f9
1
ff
fd
fb
fd
1
2
fd
fe
f9
fd
5
6
4
fb
3
4
fa
5
fb
5
8
1
fc
3
fc
ff
fa
8
fb
6
2
5
0
fb
fc
6
f9
fc
3
5
2
2
2
fd
fc
0
2
6
3
2
f8
fe
fb
fc
fd
fa
5
2
1
fa
fd
1
0
fc
fb
f8
3
3
fd
f8
0
1
fe
3
0
2
1
7
1
8
6
f9
fd
fd
2
5
2
6
5
0
7
4
f8
0
4
fc
6
3
fd
ff
fd
fe
fe
fe
6
7
0
1
f9
8
6
fb
7
fb
2
fc
3
4
4
ff
1
1
fe
3
fc
0
ff
f9
3
2
0
3
fd
1
3
f8
6
6
fa
f9
5
fc
5
3
0
6
7
fe
2
3
fa
3
fe
5
fe
fe
0
fa
7
fb
2
6
fc
0
f9
5
2
fb
1
fb
fe
fe
0
ff
f8
4
fe
0
5
fd
fa
fb
5
5
5
8
fd
fe
5
fe
3
3
0
fa
5
2
fb
fb
1
fe
3
fa
ff
7
2
fe
fc
f9
5
fe
4
2
fa
f9
6
fd
fa
ff
1
fb
7
4
1
7
fc
6
7
7
1
5
fb
f9
f8
fe
ff
fa
ff
1
3
ff
fa
4
fd
fd
fa
ff
a
fd
0
6
3
fc
8
f8
f8
fa
fd
9
fc
fe
5
f9
fd
0
fd
7
fd
6
0
2
fd
fc
3
fe
fd
f9
fe
1
1
fc
3
3
3
0
ff
f7
3
fd
fe
fb
3
3
6
fe
fe
fb
0
f9
fe
fc
fc
2
7
4
0
fc
5
fb
fb
3
ff
3
5
8
6
5
0
4
f9
fb
fa
fc
5
5
f9
fc
7
6
1
fb
6
5
fc
fc
5
2
3
fe
8
fe
4
fe
4
f9
0
7
fe
fc
5
3
f9
8
ff
f9
2
fb
fb
7
fa
4
8
7
7
0
fc
ff
4
7
fd
3
fc
fc
2
f8
7
6
fb
fb
3
3
0
1
0
fd
2
1
fd
fb
5
fd
fa
2
6
fc
fb
fe
1
2
6
fb
fd
f9
1
3
1
ff
fb
5
6
fb
f9
5
5
fa
7
fb
ff
ff
0
6
2
3
1
7
3
3
6
fd
fe
3
7
0
fc
fe
fd
fb
1
4
1
ff
fb
7
fa
5
7
5
fd
fe
fc
fa
fe
0
0
0
6
0
6
1
fe
3
0
f9
8
0
5
5
fc
fd
f9
2
fd
5
3
fa
fb
3
5
f9
fb
f8
7
3
fa
2
fe
2
7
f8
7
ff
7
3
fa
fb
fd
fa
fa
fb
fa
5
5
8
5
5
3
ff
7
fe
6
7
2
fd
2
6
fc
3
f9
fa
5
fd
6
2
1
4
fc
ff
fb
fd
3
7
fd
fd
1
ff
fc
f8
1
2
f9
5
fa
fa
6
1
1
fb
2
fd
4
fa
fb
2
3
0
fd
fd
4
fd
0
2
f9
fc
2
2
f9
f9
6
fb
fa
fe
ff
fe
0
fa
5
0
f9
fd
fc
4
1
fd
ff
fa
fb
0
ff
4
1
6
5
fa
4
4
4
6
4
fa
1
0
4
fa
4
2
0
4
5
4
3
fd
f9
4
6
fd
3
6
6
fc
1
6
fc
2
4
6
fd
fe
4
6
7
6
7
5
4
ff
fc
fb
fd
f8
ff
1
3
fc
7
6
4
6
fc
fa
4
ff
f8
4
ff
4
4
2
0
fd
4
6
0
fb
fb
5
7
fd
6
fe
0
1
fe
fb
7
f9
4
fa
fc
fd
5
fe
ff
1
4
fb
7
4
7
fd
5
ff
6
fb
f8
ff
4
1
ff
1
5
4
fe
fb
2
f9
7
fe
fe
6
7
4
fc
8
fe
fa
6
5
fe
f8
fe
fa
fb
3
fd
0
7
fb
6
2
5
fd
6
f9
fe
fa
f9
ff
5
1
1
fc
1
fc
fe
7
7
1
fe
2
5
fa
0
f7
5
5
fa
0
6
fb
0
0
ff
f9
0
fe
3
3
1
6
f8
ff
fc
5
fb
fa
f8
2
5
f8
1
fd
7
1
4
8
5
0
f9
1
f9
f8
fb
3
1
4
fc
ff
ff
3
3
f9
6
fe
7
2
1
6
fd
ff
8
fa
fd
2
6
1
fc
fb
2
fc
3
0
fb
fa
fc
fe
fe
f9
3
3
fd
1
4
ff
fd
4
f9
ff
1
4
1
0
7
2
8
ff
1
ff
5
fe
fd
fb
6
fb
fd
3
1
f9
fd
0
2
fe
f8
7
fe
4
fa
3
3
fc
1
7
2
6
2
0
fa
4
3
3
f9
ff
1
ff
5
fe
6
2
fe
ff
fb
fa
ff
4
7
5
0
f8
4
6
5
1
fb
3
ff
8
3
ff
fd
5
fe
0
5
ff
f8
f8
fe
1
fa
fc
4
fd
fb
fd
2
9
fa
6
3
fd
1
9
7
fe
9
0
1
ff
fe
2
ff
2
f9
0
6
fe
3
1
2
6
ff
f8
0
fb
ff
6
1
7
6
0
5
6
0
fe
ff
1
7
1
fc
3
ff
1
7
fb
f9
ff
f9
fc
1
3
0
fa
3
fb
2
2
f8
2
fe
fb
6
1
fe
3
fc
fd
fd
f9
0
fa
fb
8
8
fa
fb
f8
f9
6
2
0
fe
fb
ff
3
fa
1
fb
1
fc
fe
fe
fc
5
5
3
3
2
3
fa
3
fe
ff
fa
fb
fd
fb
f9
1
fa
4
2
5
1
6
4
1
7
3
fc
fd
5
8
f9
fb
fb
fb
fd
fd
2
fa
8
7
ff
fe
7
fa
f8
fa
0
8
2
fd
1
ff
1
2
fe
ff
0
fa
5
fa
ff
0
1
5
3
0
fe
f9
2
3
ff
8
5
4
fd
4
3
5
4
0
1
6
8
3
f9
5
ff
ff
f9
fa
2
fd
fc
6
fe
6
5
2
3
fe
6
fd
0
fd
3
fc
1
fb
4
4
0
fc
fd
3
fb
1
ff
2
fc
3
0
fd
8
fb
5
fd
fd
1
ff
fe
0
4
5
3
2
6
1
4
fd
fb
6
fc
fb
3
ff
7
6
2
fc
6
7
fc
1
0
fc
fb
fa
fa
1
1
3
fa
fe
fe
fa
fd
fe
6
0
fd
4
fa
f8
ff
6
ff
3
7
6
3
0
5
ff
fa
1
fa
1
fc
fc
3
f9
7
fa
1
fa
8
7
2
fd
fe
ff
ff
ff
6
8
5
0
4
5
5
fe
3
fe
fd
7
fd
f9
7
3
fd
4
fb
fb
6
4
ff
8
3
fc
1
1
fe
fb
fb
fd
5
3
2
4
ff
1
6
fc
3
1
3
1
fd
7
f7
ff
5
fa
3
2
f8
ff
8
fb
f8
0
6
1
1
0
1
1
0
fe
8
5
fe
ff
fe
2
0
6
ff
8
4
6
3
f9
fc
fd
f8
ff
3
2
f8
fc
fc
fa
fd
ff
1
6
6
3
f9
7
5
fc
ff
7
8
1
fd
1
2
3
4
3
fe
6
2
2
7
3
6
7
fa
7
fb
fc
0
2
ff
3
fc
fa
3
5
fb
8
5
3
fa
3
4
2
2
4
fd
f9
fc
0
fb
ff
fd
fc
fc
fb
1
ff
fa
7
0
fb
3
f9
f9
2
fe
fd
fd
7
fd
fc
ff
ff
fd
fd
fd
4
fb
3
4
fc
ff
6
f8
f9
f9
f9
7
ff
2
1
4
fc
4
6
fd
5
fb
2
fa
fe
fe
f9
fb
fd
4
0
0
4
1
1
1
fd
3
6
ff
fe
2
fa
1
6
fe
3
fd
ff
6
2
fa
fc
ff
6
2
0
2
5
4
6
f9
6
7
f9
6
ff
7
6
4
fd
fc
6
fd
f9
6
6
2
ff
3
fb
fe
4
fa
fd
fd
fe
ff
5
fb
f9
5
fb
fd
2
3
fa
f9
ff
0
6
fd
ff
3
2
4
f8
fe
ff
fb
0
fe
f9
1
6
fd
f9
fb
ff
f8
fc
1
fd
5
1
f9
6
fe
6
ff
4
5
fe
ff
6
fb
5
fd
5
fd
fd
3
fc
fe
fe
2
ff
7
5
7
fb
6
fd
5
fe
6
4
2
7
4
fc
fa
fc
fc
2
fa
5
ff
0
3
fc
fb
5
0
0
f8
7
f7
fc
0
3
ff
fc
ff
5
2
f8
3
fb
3
3
3
0
6
2
2
6
fe
5
fe
ff
1
5
2
fe
2
4
fa
5
ff
f8
4
fd
4
ff
2
6
f8
f9
4
fc
7
1
0
8
6
4
7
ff
fe
fc
fd
3
2
f8
4
f9
2
ff
6
4
2
6
ff
2
8
8
1
2
4
fd
7
fa
3
fb
fd
0
5
3
0
0
3
9
3
fe
fe
4
5
5
fb
fb
3
4
fc
4
6
0
f7
fc
f9
4
f9
f8
fa
4
fa
fb
3
6
fe
0
f9
6
fb
fa
2
4
fa
7
6
3
3
4
fd
2
0
fa
4
ff
1
fa
4
7
fc
fe
1
fc
0
ff
3
6
fa
fc
ff
ff
fe
1
1
fc
2
1
5
f9
2
6
fa
fb
fc
fd
fd
0
fc
ff
f8
1
fc
6
0
fc
4
3
2
1
f9
fe
fc
0
fe
1
2
fb
fa
fa
4
fe
fe
fd
ff
3
8
5
fd
7
ff
3
4
7
1
0
fa
1
fa
4
fa
ff
fe
2
fd
6
fa
ff
1
fb
3
2
f9
fb
fc
fc
0
1
f9
3
fb
1
1
f9
3
fb
7
1
5
fc
2
3
5
4
3
7
ff
fd
fd
f8
1
3
6
2
6
fb
fc
0
ff
fc
3
f8
fe
fe
7
fc
3
fd
fe
fd
ff
f9
0
4
f9
f8
3
5
4
4
fa
7
3
f9
ff
ff
fd
2
fa
ff
2
0
6
fa
fd
6
0
fe
1
6
fc
fd
1
6
fd
fb
fa
5
1
fb
fc
4
fd
0
5
fa
fe
fb
fb
fa
0
0
2
4
fe
ff
f8
5
4
3
2
fd
2
fc
ff
fc
f9
fa
fd
7
fa
3
ff
fc
1
0
fd
fb
3
3
3
ff
7
fa
fb
3
3
fb
fd
ff
2
f8
9
fc
fd
fc
fc
2
0
fe
6
fe
f9
fe
0
fb
0
fb
fd
3
fd
4
2
ff
4
4
fd
fa
5
3
fa
1
fd
6
fa
1
ff
1
5
1
1
fd
1
ff
3
5
4
fe
3
ff
6
3
2
3
fa
fc
f9
1
fc
fa
5
7
fc
6
7
fd
fa
ff
fc
1
3
2
f9
3
4
0
fa
f9
f9
fb
ff
f9
7
f9
0
fa
fd
1
7
fd
fb
1
2
ff
fd
3
6
ff
6
4
fe
f9
fe
1
3
1
ff
fd
3
ff
8
4
4
2
6
fb
3
1
6
0
2
f9
6
7
3
fe
1
f8
f8
5
fd
fd
fc
ff
f9
2
4
6
fb
7
ff
6
6
0
5
2
fc
5
fa
fa
fe
2
fe
fc
1
fe
ff
1
2
0
ff
ff
2
5
fc
1
f8
1
fd
ff
f9
6
6
fb
fb
0
fa
6
fe
2
4
4
fe
5
fc
4
fd
fd
fc
fc
ff
0
fe
5
2
8
fc
fd
fd
5
ff
fa
8
7
0
fd
7
fc
fb
fd
fc
3
0
1
5
f9
ff
7
5
fb
7
7
ff
3
5
6
fa
2
fe
9
4
6
fc
fb
fa
3
fe
5
0
0
fd
5
fc
1
8
fe
fa
fb
2
2
f9
ff
7
2
0
fb
fa
6
1
4
ff
fe
fa
2
f9
fa
fb
1
fd
fb
ff
fc
fe
fe
5
f9
5
ff
6
2
f9
0
fb
6
2
1
3
1
0
0
3
2
fb
fa
ff
0
8
5
f9
4
4
fc
3
6
fc
6
fc
5
fa
4
8
fd
0
fc
1
6
2
3
f9
fc
fc
fc
fd
fb
fe
3
4
2
fa
9
3
f8
4
8
ff
2
8
1
5
8
3
f9
0
5
6
3
fe
2
ff
fe
5
fb
fe
5
1
6
2
fb
f9
fa
fe
0
5
4
5
fa
9
ff
fa
7
9
7
fb
fa
2
fc
3
4
fb
0
fb
0
ff
0
5
0
fe
2
fe
9
7
6
0
4
ff
5
7
ff
5
0
fd
3
6
4
fc
fd
fe
4
1
3
ff
6
fc
1
7
fb
fa
f9
4
fe
fa
fb
fc
fd
8
fa
1
2
ff
7
8
3
fc
1
4
fa
8
ff
5
fd
fb
fe
2
1
6
3
1
1
4
fa
1
8
fe
2
1
4
3
5
4
fa
5
5
6
3
fa
2
5
fa
f9
4
1
2
ff
5
0
8
fe
fe
fd
fd
7
ff
ff
fe
fd
fb
3
fb
fe
2
f9
1
4
fd
fd
2
4
fc
fa
5
fd
fe
5
5
f9
8
fa
6
ff
ff
6
3
fe
5
8
3
4
2
6
4
7
fa
2
fd
3
fe
1
fb
6
fc
5
4
0
2
2
4
0
1
f9
fc
1
fe
fc
2
5
2
1
fd
ff
7
5
5
5
fb
6
4
5
7
2
fa
3
2
fb
ff
fa
fe
fd
fe
fd
fe
4
6
f9
1
6
6
fa
fa
3
7
4
5
fe
fb
3
6
f9
f8
6
fb
2
fc
4
ff
0
ff
4
fc
fc
3
6
fb
fb
fd
fe
f9
fe
fe
fd
6
6
fc
fe
ff
6
6
f9
f8
fb
fd
fe
fe
fd
2
0
3
6
7
1
0
1
fe
fa
6
3
5
1
fb
ff
fb
fc
3
0
fa
fd
0
f9
0
fc
1
fa
5
f8
fb
f8
fd
fb
ff
6
f8
7
3
fe
7
fc
fb
fc
3
9
fb
1
1
fe
0
3
fe
0
fd
fe
fa
fd
2
3
1
5
fc
5
6
fb
fc
4
3
5
fc
1
f8
6
fa
f9
fe
6
fe
fe
4
fc
fc
4
3
fc
ff
1
f9
5
fc
4
fa
fe
fb
fe
f8
6
f9
5
fb
5
fc
fd
2
0
6
2
4
ff
fc
4
4
2
6
7
fb
3
ff
6
f9
3
7
f9
5
fd
fb
f8
0
f9
fb
fc
ff
0
1
fd
fd
3
fe
8
6
fc
1
5
fa
1
ff
7
7
fb
2
fc
0
fb
fe
2
fd
f9
1
4
fe
fb
8
2
fb
1
3
fa
2
fc
5
2
fe
ff
0
fb
fd
0
6
fd
6
3
fd
f9
1
4
0
fc
fb
fb
6
4
fb
7
fb
3
0
4
8
fb
5
7
ff
fb
1
1
3
fd
6
0
1
2
8
f8
f9
6
7
fd
5
5
fc
fb
1
2
3
7
f8
f9
f9
0
f9
fe
1
2
4
5
f9
0
ff
3
fb
fb
0
0
4
2
fc
fc
fc
fd
5
3
6
5
5
6
7
f8
fd
5
5
ff
fb
6
fa
2
6
fd
3
1
fc
1
fc
fd
f8
fd
ff
1
7
6
0
fe
6
fe
7
7
7
0
0
4
6
f8
f9
0
f9
fd
6
3
6
f8
3
5
6
4
5
f8
1
1
3
fd
fb
fa
fe
ff
fd
4
ff
fc
fc
fc
8
fb
fd
fb
fe
f9
0
f9
f9
1
3
fd
1
ff
fb
4
1
1
4
8
fd
6
ff
3
1
f8
1
5
f7
0
2
ff
fa
fd
fa
5
5
fb
5
fc
8
1
f9
f9
fe
5
0
6
0
5
3
fe
7
fd
fb
fd
6
fa
0
fa
1
7
fb
3
fd
2
7
0
2
fd
f9
3
fa
4
fb
1
0
4
ff
fe
f8
5
f8
fe
fd
fc
1
3
3
3
2
fa
fc
2
5
fb
2
2
0
fa
7
fb
fd
2
fd
6
5
0
5
f9
fa
fb
f9
4
3
6
5
5
1
fb
fe
fb
f9
3
7
3
7
ff
fa
ff
0
5
a
fd
fb
fe
2
fc
3
fd
3
fb
fc
fe
3
5
fc
fe
3
ff
9
2
5
1
3
fa
7
fb
ff
fa
1
4
4
fe
4
4
fe
5
1
f9
0
fb
2
fa
fe
f8
fa
ff
7
fd
4
5
5
fc
1
fa
3
2
fb
ff
6
6
f9
3
fb
9
1
5
6
fe
1
ff
3
f9
fb
1
2
3
6
1
0
8
8
fc
6
ff
5
9
7
f9
7
2
7
1
fe
fc
ff
ff
fc
fd
0
fd
fb
3
4
fe
fa
7
4
fc
0
8
4
3
5
1
fe
4
4
5
0
fd
fb
2
5
2
2
fb
2
0
1
5
5
2
5
2
ff
fc
ff
3
fe
8
0
ff
5
6
fc
5
5
fd
ff
4
8
2
5
fd
1
fb
fd
1
fe
2
0
2
7
fe
fc
0
fb
ff
3
1
fa
fe
fe
5
fb
fc
3
0
fb
6
f9
4
3
5
4
6
f9
5
fe
f9
1
1
fd
7
3
0
fb
6
5
fc
7
3
fd
2
fa
ff
0
fc
1
1
0
fe
fb
1
fd
1
f8
7
ff
fa
fc
fb
ff
7
5
fd
ff
6
fd
7
8
1
fe
7
9
ff
fc
fd
fd
0
fc
7
4
fe
fe
5
fa
2
fb
ff
3
5
6
3
fb
5
fe
fe
fe
f9
5
6
7
fe
ff
9
1
6
fc
0
5
fd
fd
fc
fc
fb
fa
ff
0
5
f9
fb
2
fb
fa
3
fa
7
5
fd
0
4
6
3
fa
4
fd
0
fd
fd
fb
fb
4
1
1
3
fe
0
fd
4
f9
0
fb
fc
ff
fe
6
5
fa
1
fe
fa
5
6
0
5
6
f8
fe
fa
3
3
fd
fb
fe
fd
fa
1
1
2
3
fd
6
fb
fb
fd
fb
2
3
5
ff
fb
6
ff
2
6
1
fd
2
0
f9
0
fa
2
fc
6
1
1
fa
8
fd
fe
0
2
2
4
f8
fc
ff
2
0
2
ff
fe
7
fc
2
7
2
8
fe
8
fc
2
8
ff
3
7
fe
fc
8
1
3
fb
3
0
4
fe
fa
5
fa
fc
fd
6
0
7
6
fc
4
1
fb
f9
f9
ff
fa
fd
fc
1
fc
8
3
4
6
5
4
1
0
ff
fa
fb
fc
3
6
fe
fe
0
4
5
fd
0
f9
3
fc
fd
6
7
6
1
1
2
fc
2
0
5
4
4
f7
fe
fd
0
f9
8
4
fb
1
f8
3
fa
fb
fe
0
2
fc
3
f9
ff
0
fc
fc
5
3
fd
4
0
f8
0
1
f9
fd
2
6
6
f8
7
7
1
f8
8
fe
ff
fe
6
0
fb
fc
4
5
5
0
5
2
3
1
0
8
4
fb
fe
ff
7
3
4
3
fe
fb
f9
2
1
fd
4
ff
7
fc
0
fd
2
2
3
fd
fb
5
3
5
3
7
ff
2
fb
4
4
fa
ff
5
f9
5
2
4
5
fc
fd
6
5
f9
fe
0
fd
fd
f9
fb
2
ff
5
3
fd
fe
4
4
fb
5
1
fd
6
6
fe
3
6
5
fa
4
4
6
f8
f9
fa
fb
7
f9
fa
0
1
0
f9
f9
3
7
0
6
2
fc
2
f8
fd
0
fe
fd
7
0
3
fd
fe
8
4
7
1
fe
fb
ff
fd
7
fd
fb
ff
f8
6
fc
fe
fe
0
5
7
fb
1
fb
4
3
f9
fe
fb
f9
1
fb
2
2
f8
f9
fe
3
f9
4
fa
0
1
fc
6
2
6
ff
f9
f8
fc
4
fb
fe
fe
2
fe
1
fa
0
2
fd
ff
3
4
1
fd
fd
fe
4
fc
7
6
fc
2
2
fc
fe
fb
3
fc
ff
1
3
5
4
3
ff
3
3
4
f7
5
fb
7
1
fe
fe
fc
1
fc
4
5
f9
fd
3
3
fb
fc
fb
7
fd
0
f9
fa
7
fc
ff
f8
f8
0
fb
7
1
5
fa
fd
6
1
0
0
0
6
2
6
fe
fa
2
ff
fd
5
fb
2
5
f9
5
7
ff
f8
f9
0
6
0
7
0
f8
5
0
fd
f8
7
fd
ff
0
fb
fa
fc
5
ff
8
6
0
fb
fb
3
fd
0
fb
4
fd
0
fb
fe
2
4
fd
5
fa
6
1
0
5
fd
1
fe
4
fa
0
5
3
3
6
fb
fd
5
ff
fe
1
fd
fc
fa
fb
fc
3
f9
3
fc
4
fa
2
0
ff
7
5
fe
fc
ff
fd
5
fc
4
fe
fb
ff
2
4
fc
1
0
fb
5
3
1
fa
6
1
5
1
8
6
ff
5
fe
2
4
ff
fa
fd
fb
1
0
5
fd
fe
fe
f8
2
fb
ff
3
fd
0
f8
f9
ff
1
2
fd
fe
5
4
fb
fd
2
fb
fa
ff
6
2
7
1
f8
ff
3
5
7
ff
6
fd
4
6
5
ff
4
fc
2
5
f8
2
fd
fa
4
fe
6
3
0
2
1
fc
7
7
fb
6
f9
0
2
fa
fa
fe
fe
4
ff
4
5
6
fc
2
fc
fe
f9
6
f9
fd
ff
2
fc
fa
0
f9
4
fa
fb
0
f9
f9
f8
4
1
4
3
3
4
7
fe
5
0
fb
fa
fb
fa
0
2
1
fb
ff
5
7
fb
1
fa
6
f9
fc
7
ff
fe
4
6
fd
fb
1
fb
fd
3
f8
fe
5
5
0
0
2
6
4
f9
fb
7
fe
fd
7
1
7
fb
fb
3
6
fe
f8
fb
ff
2
fb
2
2
f9
2
0
fd
2
0
ff
fe
f8
3
1
0
f9
5
ff
0
f9
fa
6
fd
4
fe
4
4
5
8
2
6
0
fa
fa
1
fb
fc
fc
fa
ff
4
4
fe
fe
fa
f9
3
2
fe
fd
fa
fe
fd
fb
1
1
fd
4
0
0
2
4
7
7
fd
6
5
3
fd
5
5
7
0
fe
2
fc
fc
3
fd
5
f9
0
6
3
6
fa
6
5
6
ff
fa
5
4
1
ff
fb
f9
4
1
fa
4
fd
3
fa
3
ff
2
ff
5
fc
4
fc
fc
2
fa
1
5
1
fd
6
fa
8
ff
fc
fe
fa
8
fd
1
1
fc
fd
8
ff
1
ff
fd
5
fa
fb
fa
f9
6
fe
fa
fe
5
5
4
ff
5
fe
fb
fa
f9
ff
fb
3
5
4
7
fb
8
fc
4
fc
fe
fc
3
2
ff
fd
fd
4
fe
ff
0
2
fe
fc
ff
5
fb
4
fa
f9
6
fd
3
2
3
4
fd
fc
fc
fa
f7
fe
ff
fa
2
4
2
6
8
7
fa
0
4
6
5
fe
fe
5
4
4
fe
fe
fd
fe
2
f9
1
f9
1
f9
6
ff
f9
2
2
0
3
6
fb
3
6
4
5
fe
8
fb
8
fd
ff
fa
1
fb
fd
fc
6
fc
2
f9
fe
0
ff
0
fb
8
1
f8
0
3
7
2
2
6
fc
f9
6
fe
fd
5
fb
f9
7
fc
f7
f9
fb
0
2
2
3
1
6
0
ff
ff
fb
5
fd
8
fc
1
ff
fa
5
5
3
ff
0
2
f8
ff
4
fb
5
4
ff
9
fd
f9
6
3
ff
ff
fe
fc
7
6
fd
3
5
fd
ff
5
fa
4
fb
ff
4
1
ff
f9
3
1
0
fa
1
3
0
fd
fb
f8
0
fe
fa
fe
4
7
fa
7
fe
4
fd
2
fd
ff
f8
4
fa
2
0
1
9
fb
fe
0
fd
fb
4
ff
fd
1
fd
fd
0
fb
fd
6
ff
ff
3
3
5
6
fe
f9
5
6
3
2
4
f9
fb
4
2
f9
2
fe
0
4
7
ff
fb
fd
fb
4
fb
fc
fe
fa
3
fa
fc
6
2
fc
fa
fd
3
fa
fa
2
1
ff
fb
2
5
1
2
fa
ff
6
4
fe
f9
f9
f8
fa
fd
fe
7
fb
4
5
1
fc
fa
f7
fc
8
8
fc
fe
5
f8
fe
5
3
0
3
fc
2
0
fe
fd
1
1
4
fd
fc
ff
fc
5
0
ff
fd
6
2
4
fb
6
1
fa
6
0
fb
4
4
4
fb
ff
2
5
3
7
fe
4
f8
ff
3
6
fc
0
1
fe
6
1
0
fc
3
7
5
2
5
6
fb
1
5
0
0
fb
1
3
2
8
fe
6
2
0
5
fb
fd
3
2
f9
5
7
0
fd
3
5
f9
fb
fa
3
6
6
fd
fd
6
f9
7
fe
7
5
ff
fc
2
3
1
fe
7
fd
fe
f9
fe
1
fa
ff
ff
0
fa
7
4
fc
7
4
2
f9
fc
fc
0
fd
fe
5
fa
6
ff
6
2
fc
f9
0
5
0
fc
fb
fd
5
2
fb
4
fe
fc
7
fb
4
fd
fa
f8
0
ff
9
ff
fe
8
f7
7
5
3
6
1
5
fb
fe
2
f9
f8
5
6
2
6
ff
2
7
ff
4
fe
ff
3
5
1
fd
fb
2
5
2
6
fc
3
2
1
4
1
f9
ff
3
f8
1
7
f9
1
fc
ff
0
fb
3
6
4
2
4
fb
fa
4
fd
7
fd
5
8
6
fa
fa
f9
7
fb
fe
0
0
fd
fc
fe
1
fa
3
0
0
3
5
1
ff
ff
4
ff
fc
2
f9
4
2
fb
fb
fc
fe
fd
fd
fe
4
fe
fe
4
ff
4
4
f8
ff
ff
fd
5
2
7
2
ff
fe
1
fc
fd
2
7
f9
ff
4
fc
5
3
fb
4
8
3
fd
fc
3
fd
1
fb
fc
6
f9
5
0
5
1
6
5
fa
fb
fa
fa
fb
1
fc
0
fd
0
6
0
6
fa
0
fe
5
0
2
1
4
fe
ff
ff
8
9
4
5
fc
fd
f9
2
2
fc
4
f9
f9
6
1
0
3
fb
6
9
8
8
ff
f8
fd
fc
fa
3
f9
fb
fc
ff
3
fb
f9
7
fd
4
5
ff
0
8
4
2
fd
ff
fa
0
f9
8
3
ff
fb
fd
fc
fd
7
3
5
fb
fc
f8
5
ff
fb
fc
fc
4
2
6
0
1
fc
5
3
2
fa
f9
5
f9
4
fc
1
4
f9
ff
1
3
4
4
fb
2
f9
fd
2
4
4
3
7
f9
fd
f9
4
3
4
0
fb
4
5
fa
5
7
0
8
5
fc
0
0
0
7
7
fd
4
3
0
8
5
0
6
6
6
2
f9
0
2
3
fb
fd
0
3
2
fe
fc
5
fb
fd
3
fa
f8
fd
5
1
6
1
fa
fe
0
6
fa
3
8
fd
fc
1
3
4
fd
ff
ff
ff
fc
3
f9
4
fe
1
5
0
fe
7
fb
0
7
2
8
fe
4
f9
4
fa
1
5
1
fd
5
4
6
4
fe
fd
ff
6
4
fb
fc
1
fb
5
6
fe
fc
fe
5
fb
5
fd
3
fa
4
fa
fc
0
fd
fa
7
fd
fd
4
1
6
4
2
5
fb
ff
1
2
fc
6
5
4
8
4
fb
5
fd
6
0
0
a
fb
3
fb
fe
6
fe
fb
6
f6
7
1
2
2
1
f9
ff
0
ff
4
fd
fa
0
3
fb
fa
fc
ff
3
5
7
fd
7
ff
4
3
7
4
fe
fd
2
6
fb
fe
fd
fb
7
ff
f8
0
6
6
2
3
fa
2
5
fc
ff
f9
ff
0
0
0
fc
f9
f9
f8
4
fa
fd
5
8
fa
fd
fb
ff
fb
fb
1
3
fd
fe
1
3
3
ff
0
ff
1
fe
2
7
fa
0
fc
fa
fc
fd
fe
fb
fd
f8
fb
5
5
0
ff
fa
f9
f8
0
7
fa
fd
fd
f9
fa
fa
7
fb
0
f9
fa
fb
fe
ff
2
fb
0
fe
fd
5
fd
0
ff
0
4
7
7
1
3
7
1
fd
5
0
2
fb
6
4
f9
fd
0
7
fb
fd
fc
6
1
0
2
fc
0
2
9
fa
3
4
fd
fe
fa
fc
fd
ff
0
3
0
1
1
fd
7
fb
4
fc
fd
7
9
0
1
fd
6
fc
f9
fc
fb
fc
2
f9
fc
5
4
6
2
3
ff
7
1
4
2
2
4
6
fa
fd
f9
4
fb
ff
fc
1
5
7
fd
fc
3
ff
5
1
1
6
f9
f8
0
6
3
2
1
4
5
ff
2
6
fa
8
7
fd
fe
5
2
f9
4
3
fb
fd
4
fb
fa
6
fa
5
fa
6
5
fe
fe
6
5
f8
f8
fb
5
1
7
3
fd
7
fd
fe
3
3
ff
ff
4
fb
fe
0
7
f8
fe
6
fc
4
4
4
fb
0
fe
ff
7
fa
4
5
6
fe
fd
7
f9
6
fb
3
fc
fc
f9
6
fa
4
fa
7
ff
0
5
fa
fa
6
fa
fd
ff
6
f9
2
1
fe
1
fa
fe
f9
f7
4
6
6
1
0
fa
4
1
5
6
fa
fb
fa
fd
fb
fd
4
fb
2
fd
3
fc
5
fe
3
fc
fb
fd
6
7
fb
6
2
1
1
2
f9
3
5
fc
fb
fd
0
fe
5
3
0
fa
0
fe
1
3
6
5
3
2
fd
fd
3
fe
fc
5
fc
2
ff
fd
0
fe
fa
f9
fb
6
fb
4
fc
ff
1
fb
3
5
f7
fd
5
0
fb
fa
4
fd
2
0
7
3
fa
4
ff
4
fb
fd
8
fb
fa
fd
fb
fc
2
fb
0
0
2
fc
9
5
1
0
fe
7
7
3
ff
ff
fc
fb
f7
fa
6
5
3
7
fd
3
f9
fb
0
3
6
fb
f9
fc
fa
4
ff
fd
fc
fa
fe
3
f7
1
fd
f6
4
ff
fd
f9
fb
f8
5
2
fb
4
3
fa
1
2
4
4
7
fb
3
1
7
5
fe
fd
f8
ff
f9
fa
fc
7
7
9
fe
fa
fd
f9
5
4
fe
5
3
0
ff
5
5
2
fd
fb
f9
3
2
ff
fd
1
5
7
6
6
5
ff
8
fb
0
1
4
4
5
1
3
fe
fe
2
8
1
4
ff
4
3
f9
fa
f9
3
fa
fb
4
fe
3
2
6
fe
fd
2
7
8
4
8
fc
3
0
3
ff
fe
fb
ff
fb
1
fd
3
ff
ff
6
fa
f9
fc
4
7
0
fd
1
fc
5
f8
ff
fb
3
ff
0
2
fc
7
0
fe
fd
fe
fb
0
fe
fd
0
5
1
fc
0
f9
3
fa
6
fc
3
fa
fc
fd
ff
0
ff
fd
7
f9
fd
fd
4
5
fa
fc
6
fc
fe
0
1
fc
f9
f9
fb
fc
5
fa
fd
3
2
1
fd
fd
5
4
5
fa
fe
fa
6
5
fb
2
fa
1
fc
fc
0
2
1
4
fe
0
f7
fc
5
3
3
1
5
7
2
fd
ff
1
f9
5
fb
fc
fa
fb
1
f9
ff
0
f9
fe
5
f9
fb
5
3
ff
0
6
fa
fa
2
fc
7
8
ff
fa
fe
5
3
ff
0
4
fa
1
f9
6
fb
1
6
4
0
fd
f9
2
1
f8
4
1
fd
fa
0
fa
4
4
6
1
f9
fe
7
fb
3
6
2
7
3
fe
3
f9
fe
fb
0
1
ff
fc
fb
2
fd
fb
5
f9
4
fa
7
1
6
6
3
2
6
fe
4
fa
1
1
5
ff
fe
fb
3
fb
7
fb
ff
fc
5
6
fe
3
6
7
f9
4
fa
fc
5
4
0
fd
f7
f8
2
fe
4
0
5
7
2
2
fc
1
ff
fa
ff
1
5
fd
fe
f8
fb
fc
fd
fd
0
1
1
5
ff
2
1
3
6
f7
fb
fe
4
2
fa
fa
6
f9
fa
fd
4
fd
4
7
3
a
fb
fd
7
fa
f8
fc
2
4
2
fc
1
1
fc
f9
fe
4
3
4
4
7
f9
fa
3
3
fb
5
0
8
fa
fa
fc
4
fd
8
fb
6
ff
3
fe
5
fe
3
f8
f8
f7
ff
fa
4
fd
2
2
3
fb
fe
fd
5
3
5
fb
0
fd
fb
fb
0
6
fb
fc
f9
6
f9
8
f8
fe
5
f8
fa
ff
5
4
1
ff
1
ff
6
4
fe
6
fa
fd
4
fb
fb
fa
fb
f8
5
fb
2
6
3
0
0
1
5
0
3
6
5
fe
fa
f9
fd
5
ff
6
5
1
fb
7
4
0
fd
fd
3
0
f7
1
4
fc
ff
5
fc
fb
1
4
ff
f9
6
1
f9
3
6
0
1
8
6
1
f9
7
1
fc
2
f9
ff
fe
2
fb
5
fe
f9
0
3
f8
4
1
7
fa
4
4
3
1
ff
fa
fd
fa
4
1
0
f9
9
3
fd
1
fb
fc
3
0
6
4
fb
fc
fd
3
ff
ff
2
fc
fb
ff
3
fe
fc
4
fe
4
fa
fb
0
fb
f9
6
2
f9
1
6
fc
6
fc
ff
3
2
fe
7
4
fc
5
4
fa
fa
4
ff
ff
6
6
4
ff
1
8
0
fa
0
fb
2
1
fe
7
2
1
fb
1
7
fa
1
4
fe
4
4
6
fd
f8
4
ff
0
2
4
5
6
f9
fe
6
fe
fd
2
fa
1
fa
5
fb
fd
ff
fa
4
0
ff
fd
7
9
fe
fd
0
1
ff
f9
fb
fa
fa
2
fa
3
3
fe
6
4
fb
7
4
f8
fd
2
1
fc
5
1
3
fd
3
1
fc
fb
fc
ff
1
1
5
0
6
fa
f9
fd
5
2
4
7
fd
3
f9
fe
fe
6
fa
1
2
fe
0
fb
fe
6
0
5
f9
f9
8
fc
fc
f9
0
4
fa
fc
fd
ff
f9
1
4
8
0
6
fc
0
fd
7
4
4
fa
fc
5
6
7
1
fd
5
3
fe
1
3
6
7
5
5
f7
4
1
5
ff
fc
6
f8
3
f8
2
fb
fc
fd
ff
6
fc
fe
7
8
3
5
1
fa
6
8
fc
ff
fa
0
5
4
fe
fb
fb
3
fb
5
f9
fe
fc
3
6
fc
3
5
2
fd
5
9
0
ff
8
0
2
6
fa
3
fc
fd
0
fe
3
5
fb
ff
4
7
fb
6
fe
fa
fb
4
fb
fc
fd
ff
fd
fc
1
7
4
fa
3
1
fa
6
ff
5
fb
ff
fb
fc
fc
f9
2
fc
fc
8
8
8
fd
ff
5
4
fa
fc
fa
f9
5
0
4
1
f8
fd
f9
4
2
ff
fa
6
2
5
5
3
fd
ff
fd
fb
5
3
fc
fd
8
fa
fe
7
5
7
7
6
2
fc
4
f9
4
7
fb
2
fe
8
5
0
3
fa
fc
6
3
fa
6
fe
fb
2
f8
2
5
4
7
f8
fa
fd
6
7
fd
fe
3
fd
1
2
f9
ff
2
fe
fd
5
fc
fe
fd
fe
5
0
6
fb
5
1
fd
4
f9
fc
ff
0
f8
6
2
fa
fe
7
fc
fb
4
fe
fe
1
1
fb
7
1
4
4
fd
fe
9
7
fb
ff
ff
0
fc
fe
0
fe
ff
6
fc
0
0
f8
1
f9
5
1
f8
7
1
f9
1
5
0
fe
0
1
fa
fe
f9
ff
7
7
5
fd
3
4
fd
fd
5
fa
5
3
fc
f9
2
7
2
fc
fe
8
fe
2
5
8
3
9
fc
6
0
6
0
8
8
6
2
3
fe
4
fa
3
fa
fb
1
0
6
7
ff
5
1
5
fd
ff
fb
ff
1
fd
f9
fa
5
fc
6
6
1
2
fd
0
ff
fd
3
1
ff
8
3
fd
fe
fe
fc
1
fb
fc
2
2
3
fa
8
3
5
ff
ff
2
2
0
5
fe
fc
f9
ff
fd
fe
fd
4
2
2
2
3
fc
fd
3
1
1
fc
fb
0
3
fe
5
f7
2
3
fc
fc
ff
fc
3
fc
ff
2
4
4
6
2
fc
7
3
1
fd
fe
fe
1
fe
2
fb
5
fa
fe
f9
fa
3
ff
ff
fc
fc
5
0
0
3
fe
fd
fc
fd
7
0
2
0
fa
8
2
6
fe
fc
fa
6
8
2
7
4
fd
4
3
fc
7
7
ff
4
fe
0
fc
fd
2
8
6
ff
fd
4
fb
5
1
6
fa
fe
f9
fd
8
0
3
6
fa
fa
fe
fe
fb
fa
0
ff
ff
fd
fb
7
3
fd
fc
fc
fb
fa
1
5
1
2
fb
fc
fc
fd
2
fd
fe
5
f9
f9
fc
0
fe
fc
fa
5
0
7
3
3
fc
fc
4
f9
fe
ff
4
1
4
fa
2
f9
5
6
4
fe
fe
5
f9
8
ff
1
fb
0
fb
fb
2
4
fe
2
0
6
3
fe
0
5
6
3
6
fe
4
9
7
0
ff
fb
2
7
3
9
fd
6
1
2
ff
6
0
fb
fa
fc
ff
5
ff
ff
3
4
fb
9
fe
3
1
f9
7
6
fe
6
fe
fa
f9
fe
2
fd
ff
3
2
fd
5
fe
fa
4
0
4
3
ff
4
7
fa
fd
3
8
0
fa
fb
fc
ff
6
7
ff
fc
2
2
fb
7
3
6
fd
5
fe
1
fb
fc
4
1
ff
5
fa
7
fa
6
fc
fc
ff
2
7
fc
fe
fa
4
6
fb
0
f8
5
1
3
6
fe
ff
fe
1
fb
f8
fe
4
fd
6
4
fe
0
2
6
fb
4
1
2
1
4
fd
fa
7
f8
4
7
fd
4
0
fa
ff
fa
4
2
4
ff
fd
f8
ff
5
1
ff
6
6
fa
5
1
fd
fd
f7
4
0
5
3
6
fd
1
5
6
0
2
5
6
4
4
6
f8
fd
5
7
fe
ff
f8
2
4
f8
fa
7
6
ff
ff
1
fa
fd
fe
fd
fb
6
1
6
4
fb
fd
fa
fd
0
ff
5
fd
fa
4
f9
fe
3
fa
3
1
fb
fc
fa
fe
f9
fd
2
fd
8
0
6
3
a
1
fb
fc
0
fd
fe
1
3
7
5
1
ff
fa
f9
f9
fa
fc
0
3
7
4
1
fe
3
fc
5
fa
fa
1
1
4
ff
fd
4
4
ff
fb
ff
0
fa
f9
f9
2
ff
fc
f8
6
0
6
5
3
5
1
4
fe
ff
fb
fe
3
3
7
fd
0
fa
5
f9
2
ff
ff
7
3
fa
fb
2
fe
fb
7
fa
0
1
3
4
fe
6
fd
3
7
0
0
5
fe
fa
2
fe
fb
1
6
3
3
0
6
5
4
0
f9
5
3
fe
f9
fe
2
5
5
2
fa
fd
5
1
2
0
1
6
fd
3
fc
5
fb
9
6
2
7
3
2
f8
6
fc
1
f8
fd
fa
ff
7
1
fb
fc
1
3
2
f9
2
3
3
2
ff
2
4
3
fb
2
0
2
0
3
1
5
4
7
ff
fb
fb
fc
fd
ff
6
5
2
1
fe
4
3
2
3
5
6
fd
fd
fe
fd
f9
4
3
7
fe
ff
1
fe
3
5
fa
5
4
6
1
0
ff
fa
fa
0
fe
fa
f9
fe
6
fc
fb
fc
fe
fc
2
5
f9
2
2
f8
1
fb
5
ff
fb
ff
0
fe
fc
3
4
1
7
6
1
1
f9
fd
3
2
4
fb
fe
f7
fc
5
fe
3
4
ff
fc
4
fe
fe
ff
fb
f9
2
3
fa
8
f9
fe
8
fc
6
fc
7
8
0
3
fc
fa
4
5
fb
2
f9
8
6
fa
7
f9
fb
fb
fe
fd
fc
5
6
fb
6
fa
4
0
2
2
8
ff
5
fd
4
fc
1
6
f9
ff
fe
2
1
5
0
4
2
ff
5
5
f9
0
3
fc
6
7
4
8
4
fc
fd
fa
6
fa
f9
2
0
fc
fe
f9
2
2
6
0
fd
fa
fe
fd
2
6
fe
ff
fe
fe
6
fc
0
fc
1
5
fe
2
fd
6
fc
fd
fe
fa
fb
ff
fd
4
fa
fc
3
2
fd
4
f9
fa
2
5
f9
fd
8
5
4
f9
4
fe
fe
fe
f9
f9
0
ff
fe
fc
ff
6
5
0
4
1
fa
ff
5
2
fe
4
fe
7
0
f9
6
0
fd
fc
f9
fa
f9
6
ff
7
0
4
1
f9
fa
fc
6
6
ff
0
ff
fc
ff
4
fc
4
fe
fa
0
2
7
3
fc
1
4
2
3
2
fe
0
fc
7
6
fd
0
3
8
1
0
fc
4
6
fd
0
1
ff
fe
fa
3
fd
2
7
fa
3
fc
f9
1
fb
fc
3
4
ff
7
fe
fe
0
4
fc
fa
8
6
f7
fd
7
ff
1
0
fb
7
4
2
f9
fb
fe
3
f9
2
0
8
8
7
3
5
6
0
fd
fd
ff
2
0
ff
fe
1
2
2
1
fa
7
fe
2
ff
fb
3
7
fe
7
1
fc
4
2
fa
fb
8
fc
1
8
5
fa
fb
7
fb
0
5
fd
6
0
ff
fe
fd
fa
6
fc
f9
0
fb
3
2
3
fd
3
f8
fb
f9
fe
4
4
1
7
fb
0
f7
fd
f9
0
5
fb
fd
fa
0
5
7
fb
3
f9
f9
f9
7
4
fa
f8
0
fc
fa
f9
3
2
4
fe
5
fb
4
6
fe
fc
f8
fc
ff
fa
3
fb
fc
3
3
6
fb
5
ff
1
3
7
4
1
5
fe
fa
fe
fd
fb
6
fe
0
7
0
fc
fb
6
3
5
3
3
ff
5
4
fe
2
6
f9
fa
fb
0
0
4
2
ff
4
5
4
2
0
fe
2
ff
ff
fc
fb
fc
8
4
4
fb
6
0
fb
1
4
4
fc
0
fb
fc
0
f9
fd
fe
ff
fe
ff
fd
f9
4
4
fd
4
6
5
5
8
3
fe
4
4
2
ff
fb
fe
5
5
1
4
fa
7
0
1
8
fb
f9
fe
ff
4
fc
fc
3
0
3
2
2
5
8
5
1
f9
4
ff
ff
6
7
f8
ff
fd
0
2
6
5
7
2
8
4
fd
fc
fd
1
5
fd
ff
1
fa
5
ff
f9
fc
f9
fd
fb
7
3
4
8
1
6
ff
4
2
2
6
fb
ff
4
8
0
8
ff
0
f9
fe
2
ff
ff
4
fa
fc
fd
2
5
3
ff
5
5
7
fc
7
2
fb
fe
7
fd
4
fc
1
4
1
2
4
fb
2
4
5
fd
ff
ff
fd
5
4
2
fc
f9
1
0
2
fc
fb
fd
6
0
fa
0
1
9
5
fd
2
5
f9
fa
f9
fa
4
ff
f8
fb
fd
fd
fc
f9
ff
fb
5
2
5
fa
2
0
ff
fc
fa
5
3
5
fc
f7
fd
fc
fd
4
fa
2
1
fe
ff
2
5
4
0
fa
7
f9
6
2
4
6
fb
5
5
fc
1
3
6
ff
fd
7
3
fa
fc
1
3
2
6
fe
fb
0
0
f9
3
f9
1
4
2
0
2
fc
ff
2
1
fd
fe
fe
fc
fb
3
5
ff
3
fb
fe
6
fc
2
6
5
2
2
fc
4
0
7
2
fd
6
fd
0
0
fb
fb
2
2
4
0
0
fc
3
0
2
0
fd
5
fa
3
5
1
f8
6
fb
2
3
5
0
fa
fc
3
fe
fe
fc
fc
ff
4
4
2
f9
fd
0
fc
4
6
f9
0
fd
3
f9
fa
3
fe
f9
fb
fe
ff
3
8
fd
fd
ff
fb
6
7
4
4
ff
2
3
fd
fb
fc
f8
5
f9
2
fe
ff
6
1
fb
1
fa
3
3
4
fa
4
fb
fe
9
7
1
7
0
5
fa
5
fa
ff
2
2
3
7
fc
5
fd
f9
ff
fc
2
3
7
7
fe
fd
fc
1
6
2
fe
ff
fe
5
f9
fd
5
fa
1
4
7
ff
fb
fc
fa
8
3
fe
fd
6
fb
fb
fa
fb
5
fe
a
fc
1
5
fd
fb
1
fe
fd
7
8
0
1
fb
2
0
fe
4
f9
ff
fa
f8
7
fa
2
6
fa
8
4
1
7
0
fe
6
0
fc
6
1
fd
0
fb
9
2
fc
fe
5
5
fb
fe
fa
0
5
fb
3
f8
5
fe
f9
fc
1
0
fe
2
8
4
3
fa
fc
1
1
f8
6
6
fe
4
8
f9
6
6
fd
fd
fd
ff
4
fc
6
6
5
ff
7
fd
5
fd
3
8
7
8
0
fd
fc
5
5
fa
fa
1
3
2
3
2
fc
fe
fb
3
fa
3
fc
4
5
3
4
fb
3
3
fa
fc
9
3
fe
fd
1
6
fc
1
2
8
4
1
fa
3
4
ff
fd
4
3
fc
7
fb
0
5
fe
0
fc
2
7
f9
7
0
fa
fc
5
fe
1
3
5
ff
f9
5
fb
5
4
ff
7
fb
fe
2
fe
3
5
ff
2
fa
7
fc
1
0
fc
2
0
0
4
4
fa
f6
fc
4
0
7
6
fe
fb
6
7
5
7
fe
ff
ff
2
4
f9
0
8
fb
1
fe
8
fd
4
4
f8
4
fd
2
4
6
4
8
fb
fc
8
fa
5
f9
1
1
f9
ff
4
2
8
1
1
6
3
ff
fc
4
fd
fc
0
ff
fa
3
6
fe
ff
fc
4
f9
8
0
0
fb
4
fb
1
5
1
4
0
fd
6
0
fa
7
0
5
f9
fb
ff
1
0
0
6
0
4
3
5
fd
5
6
fa
fb
fb
5
fb
fa
ff
fd
0
6
4
ff
8
2
fa
6
2
2
fd
3
1
4
f9
7
1
7
fd
1
1
fb
fc
7
3
f7
7
fb
0
0
fe
f9
3
fc
fd
fe
1
3
1
f8
fe
4
7
fc
fc
fd
0
ff
8
6
0
fb
fb
6
fe
5
9
fc
ff
7
f9
fd
1
6
f8
4
fb
fc
2
fd
4
5
6
fa
7
2
fa
6
fd
0
2
f9
6
fa
5
f9
fd
7
fe
f9
fe
4
0
3
fc
2
7
fb
1
5
2
4
fc
0
8
1
fb
2
fe
ff
9
6
2
fd
fc
fc
fb
5
f9
ff
ff
f9
3
fa
1
2
fc
7
fc
ff
8
5
fe
4
2
ff
1
6
7
5
6
f9
f9
fd
6
fe
fc
2
8
fe
fe
0
0
8
f9
5
6
fd
7
f9
f9
0
fd
fd
fc
fd
5
6
ff
5
f9
1
1
4
2
fe
5
8
9
2
1
7
ff
8
3
3
3
f9
4
fa
fd
2
fd
5
ff
4
fa
5
3
0
7
fc
3
4
9
8
3
ff
ff
fa
0
fd
f9
fd
fb
fa
fb
fd
3
fc
fa
fd
fc
2
fe
6
fd
fc
3
fd
0
fe
fd
0
4
5
6
fc
7
5
4
f9
fd
0
4
4
fc
f8
6
f8
5
6
7
7
fb
6
0
7
ff
f9
fd
fa
2
5
7
ff
fa
4
fd
7
fe
4
1
fe
0
0
f9
fc
fd
4
7
6
fc
fc
6
3
3
3
fa
fb
fc
6
ff
1
8
0
0
fb
fe
0
f9
5
7
1
6
6
5
fb
1
ff
fd
3
0
1
fa
f9
4
fa
6
f9
4
0
1
ff
6
1
fe
1
fd
3
fe
2
0
7
5
fe
6
fc
4
fc
2
3
5
3
6
fa
3
fd
fb
4
5
fd
6
fb
f9
fe
7
6
fa
fb
6
0
4
fc
8
fd
3
6
1
fb
3
4
7
fa
4
7
6
1
fe
0
ff
f9
5
fe
fc
fc
1
fc
0
6
1
fc
4
fa
3
1
ff
6
fc
fd
fc
fb
fc
fa
fc
3
1
f8
4
0
5
ff
5
f9
4
2
3
2
fa
2
fa
4
4
fc
3
fe
4
7
ff
ff
ff
2
fe
3
fa
fe
4
2
4
fd
fe
fe
6
2
0
3
1
7
fb
fe
f9
fd
4
fa
3
fb
ff
0
fa
fb
f9
fe
7
0
1
fa
f8
ff
f9
7
fe
ff
2
fc
fa
fe
2
fa
1
2
3
fd
fb
f9
ff
0
fb
6
fa
5
fc
fd
fa
3
fc
f9
3
fc
5
f9
0
f9
fd
2
fe
3
4
1
4
ff
0
8
ff
2
5
1
fa
fb
2
fc
4
0
fc
fa
ff
f8
8
2
fc
9
3
fa
6
1
6
f8
1
7
fa
fd
8
0
f9
fb
fc
ff
fa
fa
4
0
0
3
f9
7
1
8
5
4
9
fe
f9
0
4
fd
f9
fe
fb
7
7
fe
ff
0
6
5
f9
fa
fb
f8
fe
fe
3
fb
5
fa
0
4
fb
8
6
fc
fd
ff
5
fc
4
fc
6
fa
4
f8
fa
2
1
fb
6
1
fa
6
fb
0
ff
f9
fa
7
8
5
7
fe
0
fd
fc
3
4
fc
1
fd
1
7
6
7
7
f8
0
4
fb
1
f7
5
4
ff
0
1
0
1
fc
f9
6
fb
2
6
2
2
fa
0
ff
2
3
7
fd
fa
4
fb
fe
fb
1
0
5
2
5
4
fd
1
fe
2
fc
f9
3
f9
0
3
fe
5
fa
6
0
f9
8
ff
fe
3
fe
1
5
fb
fe
fe
4
fa
5
fb
fb
fd
ff
7
fd
fe
fa
3
ff
1
fe
3
fa
3
fe
ff
5
0
2
fd
3
f9
fe
fa
5
6
3
fd
2
4
6
1
fa
fb
fd
ff
4
ff
f8
5
4
fe
fa
fb
0
3
f8
ff
fb
1
2
0
fd
6
0
fc
5
fc
f9
fc
fa
fd
fd
2
fb
fa
fe
ff
fa
3
4
fd
ff
7
0
fb
6
6
fe
5
f9
7
fe
fd
fc
3
fd
fc
fe
fc
ff
8
fb
1
fe
2
fa
fa
6
0
6
ff
6
4
ff
3
fc
3
0
f8
fe
4
f9
8
f9
f9
6
fe
fd
4
0
fb
0
8
f9
fb
6
fc
5
2
1
7
5
0
5
fd
0
8
f9
4
fb
fc
fd
fc
fd
5
ff
5
ff
2
7
6
1
3
1
fa
f8
4
f9
4
4
ff
0
2
fb
fc
fd
fc
fe
fc
ff
6
fe
3
2
2
0
2
4
fc
5
6
7
f8
1
fa
fc
fa
3
5
f9
f9
fd
1
f9
1
5
fb
6
2
fd
fc
2
4
ff
4
f9
fb
4
fc
2
ff
0
3
f9
5
1
8
6
fb
5
ff
6
fd
7
6
4
fd
0
3
fa
5
f9
fa
5
fc
7
ff
3
3
fc
f8
1
fa
fa
1
fb
fc
4
fd
0
3
f9
fe
6
2
5
fa
0
0
fa
4
ff
5
fa
1
3
2
fa
3
fd
f9
7
6
ff
3
2
0
7
0
3
0
fc
3
fb
f8
1
2
fb
fb
7
7
fd
3
6
ff
1
fa
fc
ff
6
fd
1
1
f9
fe
fd
8
2
ff
fc
fa
3
f9
fa
6
fa
fc
3
0
4
fc
f8
2
fb
2
2
fd
ff
5
ff
ff
2
fd
f9
ff
fb
4
fe
fe
fe
6
5
fb
0
1
fa
3
0
ff
6
7
2
f9
fc
fc
ff
0
f9
8
fc
fc
fc
4
fd
fd
fe
2
5
6
fc
fa
1
f9
ff
5
f8
5
fe
f8
fd
fe
4
fa
7
3
fb
fb
fb
fd
ff
fa
f9
7
5
3
5
7
fd
fa
6
5
fe
8
1
fd
fe
f8
2
fb
fc
6
3
7
fe
5
fe
ff
fd
fd
fb
3
fd
fc
6
f9
5
f9
6
8
5
5
ff
fc
5
0
4
fd
fb
3
4
3
0
fe
3
0
4
fd
0
0
3
2
ff
1
6
7
f9
5
2
1
ff
5
5
4
fd
3
f8
ff
7
ff
f9
ff
fe
fa
fd
5
fb
0
fc
fb
fe
2
fa
3
5
fe
ff
7
fa
2
fe
fe
5
fc
7
5
fe
fa
3
fc
fd
fb
f9
0
0
f9
fb
5
ff
ff
3
3
fc
ff
6
fa
0
f8
fc
4
0
f9
fa
fa
2
6
f9
3
fc
fb
fa
5
fd
6
fa
fa
0
fd
3
0
fb
fc
2
fb
1
5
6
fc
3
5
fb
0
fe
fc
fe
fe
0
f9
f9
f9
1
5
fb
fc
fc
5
fa
fe
4
fb
2
fb
7
0
0
fa
3
7
2
fa
0
fc
2
5
6
0
fb
6
0
f9
1
7
fa
1
fe
1
fb
fe
fb
fa
f8
6
0
fc
1
fb
fe
fb
fc
fa
fa
1
fb
ff
f9
0
fa
fe
3
6
fb
fd
4
1
fb
5
1
2
1
4
3
4
2
fb
3
f9
f9
ff
0
4
fe
fa
6
6
f9
fb
fd
1
0
0
5
fd
6
fe
4
7
1
4
fa
3
3
6
8
fc
3
fe
4
fb
fa
3
6
f7
f9
6
fe
1
3
fe
3
fe
1
2
5
fe
fd
5
6
4
fe
3
fe
fa
fc
0
1
fc
ff
6
1
8
3
0
f9
3
4
5
fd
1
f9
fc
0
5
fe
0
4
4
2
fb
2
fb
7
fd
4
8
fa
6
2
fe
fa
fe
fb
fc
2
4
0
ff
6
0
5
fa
ff
fe
2
ff
0
0
fd
fc
fd
1
fd
f8
0
f9
6
4
fb
3
7
1
fa
7
fd
7
6
0
ff
fb
6
6
ff
5
1
fb
ff
ff
fa
0
2
fa
fd
ff
fd
0
6
fe
f8
1
fc
fd
5
6
5
2
2
0
fc
4
ff
2
fc
0
fc
fa
7
7
6
6
fc
5
4
fd
0
4
ff
f8
fe
f9
fd
5
1
fd
1
0
2
fb
5
3
ff
fd
fd
6
fa
f7
3
7
f9
4
fb
fe
6
f9
ff
1
fd
fa
f9
6
6
1
fd
fa
fa
4
ff
6
4
3
fc
fd
6
fb
fe
4
fa
fa
4
f8
3
fc
f9
2
3
fd
1
3
fa
fc
5
1
1
fc
fd
fb
fd
3
3
f9
ff
5
7
7
0
fc
ff
5
1
fe
1
fb
f9
fd
1
2
fa
2
fa
6
fe
fb
fc
fc
4
fe
0
fe
2
f8
fe
0
fc
fe
fc
fd
fd
3
fd
2
8
6
fc
f8
6
4
2
3
3
1
fe
6
3
ff
7
fd
0
5
f8
3
fa
fa
6
fe
7
6
3
fb
fc
1
fc
5
f9
ff
1
fd
6
2
5
2
ff
ff
fc
fd
4
1
fe
fa
3
4
7
fe
fc
5
3
fc
fa
8
fd
1
0
3
6
fc
ff
3
f9
fd
fe
6
3
6
4
fa
fe
f9
0
fc
5
4
fb
ff
3
0
7
fc
3
1
7
4
4
6
7
4
2
fa
2
3
1
f8
0
7
fc
fd
f8
fd
f9
fa
fa
5
fa
fd
3
fc
fa
6
fb
0
3
6
ff
f9
2
8
4
ff
fb
2
3
fd
fb
ff
fd
5
ff
8
fc
3
fd
fa
fc
2
f8
6
7
fd
fc
fc
5
1
5
fe
ff
3
fb
f9
fb
fb
f9
0
fc
f8
4
fb
6
3
1
0
ff
4
fe
6
fe
4
fd
1
fc
0
fa
0
f7
f9
f8
5
3
fc
fe
fb
6
fb
5
fb
fe
f9
fa
6
1
3
4
3
2
3
5
3
fd
f9
7
5
fb
3
1
fa
5
7
fd
4
6
f9
2
3
fd
4
f8
1
f9
fe
3
6
fe
ff
1
4
fd
7
f9
0
8
6
7
6
fe
ff
0
ff
7
1
6
fc
fc
5
fe
4
6
f9
6
fc
fc
fc
5
1
4
0
6
ff
0
5
ff
2
ff
fa
5
fc
3
fd
3
fc
f9
3
fd
fd
fa
7
4
fc
2
f9
fc
7
f9
fa
fb
fb
fc
3
1
ff
0
4
1
6
fd
fa
fe
1
fe
fd
2
fe
ff
3
fa
0
7
fa
2
ff
6
1
fa
1
fe
4
f8
4
1
6
fb
1
4
fa
0
1
1
8
fd
2
5
f8
fe
1
8
2
2
2
0
6
5
fb
fe
fc
fe
fb
fa
7
0
fc
3
2
fe
fa
6
1
4
fd
fd
3
1
7
6
4
f9
ff
1
3
7
7
fa
6
3
fb
3
fe
3
6
7
8
3
f9
6
fc
2
fe
6
3
6
fa
0
fc
7
2
fc
fc
fa
2
6
1
ff
fa
fc
fa
0
f9
8
4
5
0
7
fb
5
6
fd
f9
5
fd
fc
2
2
1
7
fe
fd
f9
5
fe
2
3
fb
fc
ff
fa
fe
fc
fa
8
f9
fc
4
fe
4
3
fe
4
4
3
1
fe
f9
fc
fa
ff
f8
ff
fd
fc
0
f9
fd
fa
fd
7
2
fe
fd
fe
fa
fb
fb
fb
0
4
7
5
fa
3
ff
0
3
2
7
2
fb
5
3
4
fa
ff
4
fa
ff
6
7
fa
8
5
fc
7
ff
6
2
7
4
fc
4
ff
1
1
6
6
fd
1
0
fd
f9
6
fc
5
6
fd
5
fc
5
fa
0
fc
0
2
fd
1
fa
fb
fe
fc
ff
3
0
0
1
fe
3
ff
fe
5
fd
5
0
fe
fc
ff
6
6
fd
7
5
0
7
3
4
8
fa
6
7
fa
1
6
0
fd
fb
5
6
f9
fb
3
3
7
6
7
5
fc
2
ff
4
f9
f9
fd
ff
0
fb
7
fa
fa
3
2
2
fd
2
0
fb
2
1
fa
5
fe
4
2
7
6
0
0
fb
fc
7
3
fd
8
3
3
fd
f9
5
0
ff
4
fe
fa
6
1
5
5
f9
fd
fd
ff
5
0
fe
7
ff
5
5
fa
fd
fa
7
7
fa
fc
fe
fc
fc
fd
6
fa
0
4
fd
5
3
ff
0
fa
f9
f9
fb
fa
fb
2
3
fe
7
fb
6
8
2
fe
ff
ff
6
7
fd
1
1
0
1
0
7
fd
fb
fa
3
ff
4
fe
3
fc
fa
3
1
ff
f9
f9
fd
fd
f9
4
1
f7
5
4
4
4
fa
fe
f9
0
2
3
7
7
5
5
1
7
ff
6
f8
fc
fe
4
3
fa
ff
4
fc
0
1
fe
fc
0
6
4
5
fe
3
fe
3
fb
3
4
4
fe
ff
7
5
2
ff
0
7
0
fb
f8
7
fc
3
fa
fb
0
2
1
ff
fb
fd
0
1
3
fb
fb
fd
2
6
fd
fb
0
6
2
4
7
fd
fa
5
ff
0
6
fd
ff
fe
6
6
fc
fa
6
5
5
f9
2
f9
3
0
fc
ff
3
0
4
5
4
fe
5
7
8
4
fc
fd
f8
5
fb
3
fb
fd
6
ff
0
8
0
fd
8
2
8
ff
fb
6
2
1
4
0
5
4
ff
2
fb
fe
0
0
5
f9
0
fc
fe
fb
fc
0
5
ff
fa
6
fd
7
2
0
3
6
4
fc
6
2
0
4
3
1
6
fe
ff
fb
5
fd
4
fe
fb
fb
2
3
f8
fc
fe
ff
6
5
6
f9
7
1
ff
7
ff
0
fd
3
fd
6
ff
fa
3
fe
fb
fb
3
fb
fc
1
fd
f9
3
ff
4
3
fe
fc
6
1
3
3
5
1
fe
0
3
3
0
2
fa
0
1
f9
8
4
fb
fd
ff
fb
4
fa
3
3
ff
f9
1
0
fb
fd
3
3
6
fd
fa
2
7
4
5
3
1
6
fb
3
5
fd
ff
6
f9
3
fd
2
2
5
fc
fc
ff
7
f8
5
fd
4
fb
3
fb
fd
f8
fd
0
5
9
3
5
1
ff
fb
1
5
f9
fb
4
fb
6
1
0
6
0
4
0
fc
4
4
9
fb
f8
fd
2
8
fc
f9
5
7
6
8
0
1
f9
fd
fe
f9
4
3
6
5
0
fc
3
ff
2
9
fb
fd
5
fc
2
1
f9
ff
fb
4
2
4
3
5
3
0
3
6
fc
fa
fc
fd
fe
7
5
1
ff
f7
fb
2
fd
f8
3
fe
fc
7
fd
fd
5
6
fe
3
fe
f9
f8
fc
f8
2
fb
4
fa
1
6
fb
f9
5
ff
fa
8
fd
5
7
0
fc
3
f9
4
5
4
0
2
fe
fd
0
3
1
4
3
3
4
fe
8
3
0
fb
6
fc
fa
0
1
4
fc
6
fe
f8
8
0
f9
3
fc
6
fb
3
4
fe
f8
f9
6
fb
6
0
2
2
fd
4
5
fd
5
5
fa
fb
3
0
4
fa
3
1
8
3
6
f9
fc
6
4
4
fd
2
8
fc
5
3
fd
f9
5
2
1
fa
f9
8
fa
fa
3
fe
fb
f9
5
5
fe
3
fd
3
fe
6
1
ff
fe
fe
0
6
fc
3
f9
fc
5
6
4
f9
7
1
0
3
fc
fc
3
1
ff
2
f8
f7
1
fc
fc
7
1
fc
1
fa
2
5
fa
1
fe
fd
7
7
fb
fe
5
2
fa
5
2
0
2
1
fd
fa
6
0
f7
f9
f8
4
4
f8
fc
fb
fc
3
fc
6
fa
fd
f8
fd
2
fb
0
6
2
fc
1
3
fe
ff
8
4
fd
f9
fe
f8
fc
3
fe
fb
6
3
fa
1
6
ff
fd
2
fb
0
3
4
4
0
fa
4
fa
4
ff
5
4
fa
fc
4
ff
0
f9
fb
ff
fd
f9
2
3
fc
f8
fa
ff
ff
6
fe
fe
fc
4
4
fc
ff
1
1
f6
2
1
fd
2
fb
fd
1
1
f8
fa
fb
3
6
1
ff
f9
fe
fc
fe
fe
6
fe
fe
4
8
fc
3
ff
3
2
5
3
0
6
f9
0
f8
0
5
2
1
1
1
fe
1
f9
5
6
0
4
4
0
1
fc
3
ff
fa
ff
1
1
5
fc
3
fe
0
fc
fd
f9
fc
2
6
4
4
7
3
fe
7
ff
ff
1
4
5
4
3
0
fa
fc
1
7
f9
2
7
3
fd
fa
2
f9
fa
2
fe
fe
2
2
4
ff
2
4
3
fe
0
fa
6
6
0
fa
ff
6
ff
fd
3
4
fb
3
f9
9
7
fc
6
fb
1
0
1
fe
7
fa
6
fc
fa
fc
fe
2
2
ff
4
fd
f9
fc
0
ff
fe
5
1
4
1
fa
7
5
6
fe
5
fc
0
f9
fc
2
4
3
1
ff
1
3
ff
fc
7
fe
4
fc
8
fb
fe
6
f9
ff
fc
ff
8
fc
7
5
2
ff
fc
fc
1
fc
4
0
0
fa
0
8
8
1
fd
fd
1
7
6
1
fd
0
2
fa
3
fe
3
fb
1
fb
5
fd
fc
fc
8
0
6
ff
5
f9
fc
2
fe
fc
fe
7
6
ff
6
f9
1
9
0
fe
6
f8
fe
6
6
6
1
0
4
0
7
fd
0
fa
7
7
2
fc
8
3
8
ff
5
fa
1
ff
fe
3
5
3
6
1
fe
ff
5
fc
fc
fb
3
ff
0
0
4
6
f9
fb
fc
1
3
fc
fb
fe
fb
6
2
1
0
1
5
f9
6
3
3
fa
f7
5
4
fc
fb
ff
1
fd
fe
3
0
fd
7
6
4
fa
fe
fa
ff
3
fe
fe
0
2
fc
fd
fc
fd
fc
fe
f9
9
7
7
1
fb
3
3
0
5
fb
f9
6
0
2
3
7
f7
fa
fc
f9
fe
6
3
8
fd
2
6
fb
6
3
3
6
4
fa
7
0
2
6
3
6
fd
fc
fb
6
4
2
5
4
fd
fe
0
3
3
7
3
9
fd
2
fd
ff
7
fe
2
f9
6
fe
7
4
8
6
fc
