5
a
fb
5
f7
f8
fd
4
4
fa
f7
5
7
f8
fe
5
f6
f4
f7
2
b
f9
6
fb
fa
b
fd
a
5
5
3
7
f6
fb
7
a
fe
b
ff
7
f8
0
fd
8
fb
f8
fb
fe
9
4
0
8
f8
4
f6
5
f6
f5
5
ff
f8
9
f7
fe
f5
2
f6
fe
a
f7
f6
ff
1
3
6
fd
7
fe
f5
fa
fa
fb
5
f9
0
3
fd
fc
f6
fe
9
1
fe
fa
a
4
1
fc
fe
a
1
f9
3
5
9
5
2
0
5
6
f7
4
5
0
fa
fd
f9
fb
f5
f9
0
f9
f9
fb
f9
5
fa
3
9
4
fa
4
a
6
4
fb
8
0
7
f6
6
5
9
0
f9
fe
4
7
a
7
fe
1
4
8
3
f7
9
8
c
8
fc
5
7
8
f7
fc
fb
fc
3
4
6
f6
f8
0
0
fc
3
8
4
a
fc
fb
b
f6
fa
9
ff
fd
8
6
fe
5
f6
fb
5
fc
fe
f9
f6
fe
f9
1
9
8
9
1
fe
0
fc
8
b
fa
fb
4
9
fb
f8
f9
2
7
1
f9
b
fc
f6
fb
fc
f6
b
5
8
ff
f4
3
fc
1
fd
b
9
fe
fc
fd
fc
9
fd
f6
5
ff
ff
f7
f6
5
fc
1
fa
5
fa
4
1
9
0
ff
b
2
3
5
6
0
5
0
3
8
fe
f9
5
fc
6
fd
f9
fe
fe
7
ff
2
8
fd
fc
9
f4
fb
f9
a
fe
6
2
9
6
f6
9
5
a
3
2
ff
ff
6
f8
fd
f4
3
fc
3
2
fc
7
4
a
fb
f5
3
0
1
0
2
3
f7
fc
fd
ff
f9
f6
fa
a
2
fd
4
1
b
5
9
f5
ff
3
f7
5
f9
7
fe
7
9
5
ff
2
a
fe
fe
fa
f7
f7
fe
5
a
2
0
f7
fd
fa
fc
fa
0
1
8
f4
8
f6
fe
1
7
d
a
1
fe
fb
9
6
8
ff
fe
9
0
4
fa
fa
fd
fb
fb
6
f5
a
fc
a
fb
8
8
f5
3
a
ff
7
f8
f8
5
3
fc
f7
fb
c
f6
f4
8
fa
3
fc
fc
f5
fa
3
fb
fa
0
5
6
f5
2
2
2
4
fe
8
f5
9
f7
3
3
1
9
fd
f9
f8
5
ff
8
a
9
fb
f8
0
4
3
4
f3
5
fe
fb
6
ff
0
5
f7
5
f5
f6
fb
f7
3
1
fe
ff
2
ff
fe
0
fc
6
5
6
fa
fb
8
fc
7
f8
fa
6
f7
f4
f6
fe
f8
fd
f9
3
4
7
fc
4
fc
7
ff
a
6
f8
fb
2
7
9
fc
2
fe
f9
2
fa
f8
3
9
f5
8
1
fc
f6
fd
fb
f8
1
3
fe
f6
fc
fa
8
ff
6
fc
ff
fa
f8
fc
9
7
fe
a
a
fb
ff
fa
9
1
0
fc
fc
5
f7
f8
a
3
7
fb
7
fe
fc
f5
ff
fa
f5
2
fd
f9
a
f6
4
7
8
f9
fb
a
9
fc
f8
1
f5
fc
fc
fa
0
5
8
6
7
f8
f8
ff
f8
f6
f6
9
4
4
3
ff
fa
fe
2
6
0
1
7
ff
0
3
9
f6
fc
9
fb
fc
fa
fb
fe
b
fd
fd
f8
f5
fc
c
fb
4
ff
1
f9
ff
0
f5
ff
9
7
2
a
f6
fb
c
2
5
4
7
1
6
fa
f6
3
fb
4
fa
f9
6
fd
fc
f7
4
2
3
fe
fe
9
1
1
0
a
5
fa
ff
7
0
ff
f6
5
0
fa
fa
f3
f9
f5
f9
9
fa
9
f4
ff
f7
7
9
fe
f8
3
5
f7
4
ff
6
f8
8
fe
fd
9
fa
fb
1
fc
f6
6
6
ff
5
fe
8
f5
fb
4
fb
f9
f4
f8
f4
ff
f8
3
fe
1
f5
f7
f7
5
6
fd
ff
f5
4
f6
6
9
ff
fd
a
ff
8
7
ff
fd
1
4
0
5
8
f6
fd
a
f4
0
9
ff
f8
fc
5
a
fc
fb
9
fb
8
9
4
2
fb
f7
6
fe
fe
f6
f5
6
4
0
fc
f9
8
2
fd
8
fd
fc
5
1
1
f6
ff
7
9
fa
f7
4
8
7
f8
a
f5
fe
2
3
6
5
b
ff
fe
6
fd
0
fc
3
fc
f9
fc
f9
a
9
f8
f6
f6
4
1
a
5
fb
7
a
0
4
f7
8
1
9
f7
ff
f8
fd
f9
fc
fb
1
b
f4
fc
f7
fd
4
7
fe
fb
0
fc
5
7
3
f8
c
5
fc
fe
8
fd
f7
f8
fc
7
fa
9
f5
9
fb
fe
f7
f6
b
0
8
8
7
8
f4
2
4
2
b
f6
f4
3
0
7
5
8
f9
f7
6
1
b
f7
6
7
6
fa
3
fa
1
f8
8
0
fc
1
fa
4
f5
a
3
1
f7
9
f9
4
ff
5
6
1
a
fc
fe
fa
2
fb
fc
f8
5
f7
0
0
fd
fe
fc
fa
a
0
fe
f5
fc
5
fe
ff
0
7
f8
9
ff
ff
ff
4
f8
f6
1
f6
9
fa
0
3
f9
fb
f6
a
c
f9
5
ff
1
a
b
0
f9
f9
f9
f7
7
9
fd
b
9
3
5
f8
f7
a
5
2
f9
2
6
5
a
fe
ff
fa
4
ff
4
0
ff
9
5
9
fd
7
f7
5
fd
fc
fc
8
f4
8
7
fd
3
9
7
9
6
fa
f5
ff
f7
8
8
2
6
fb
5
7
7
7
7
fb
9
fa
a
f9
5
fd
3
fb
9
2
f6
f6
4
ff
9
c
f8
9
fd
3
f9
ff
5
7
a
f8
f3
fb
fb
fb
fc
6
4
fe
ff
f5
5
f8
4
fd
f5
4
f5
fc
6
fe
fe
6
f5
f7
9
fe
f5
fe
7
ff
1
fb
6
fa
8
fe
4
f6
4
f9
f7
f9
f7
a
0
fa
fb
fa
f5
fa
f8
f5
f8
4
7
f9
fe
3
fb
9
ff
8
0
f8
fb
fc
5
0
0
f5
f8
fa
3
6
f9
8
7
3
7
f8
fa
ff
fa
fd
9
3
5
f8
7
8
f5
b
9
f7
f9
f7
6
f9
5
fa
f5
f7
f7
9
fa
fa
fe
fd
8
3
f9
f6
f6
7
6
fc
fc
a
f8
5
5
f4
8
fc
f7
f6
8
8
4
3
9
ff
7
fd
f9
f5
c
fe
fe
4
a
2
c
8
4
fa
7
fe
f6
2
f6
fa
fe
8
f9
fd
fd
f7
1
b
5
5
9
7
fd
f9
fe
2
fa
a
5
8
3
fd
fc
fa
9
5
fd
fa
f7
3
5
b
f6
f9
8
a
8
f8
4
1
fb
b
ff
2
f9
8
6
f4
f9
f5
f8
3
1
0
a
fc
6
f7
ff
1
5
2
7
a
3
7
fd
4
fc
1
ff
f6
6
7
8
0
6
8
ff
fe
f8
fb
8
fb
3
b
7
9
ff
fc
9
1
0
6
fc
fa
a
f9
4
f8
7
7
fc
a
6
c
5
f6
fc
fd
f7
3
f6
a
1
9
fe
4
fd
2
3
f6
4
1
3
2
7
4
f8
3
fa
fc
3
fb
fc
0
8
0
ff
fc
4
f9
6
5
fd
fd
fd
f6
8
3
7
fe
3
fc
3
7
f5
f8
0
5
a
7
6
f7
f8
fa
7
fa
fa
fe
7
4
b
b
fc
fd
3
0
4
f7
f6
2
3
fd
6
fe
fa
2
9
fa
fd
f9
fb
f8
fa
ff
ff
ff
f5
5
4
fb
4
2
b
5
f8
0
ff
3
1
fc
6
fc
fb
b
f5
fd
7
a
9
1
1
a
c
fe
fe
4
6
3
0
ff
6
f8
a
fc
9
8
fb
f7
7
3
4
fb
ff
fc
b
f7
3
5
b
fd
0
a
6
fc
2
d
6
ff
3
c
fa
f9
ff
8
8
ff
f7
a
fb
9
0
b
fc
4
1
1
f8
2
6
fc
fb
f9
6
7
fd
fe
fc
fe
fd
fb
6
1
b
6
fc
fa
f5
f8
fb
8
3
3
fc
fc
7
1
4
fe
7
1
c
3
4
3
fe
fa
4
fa
fd
4
b
0
f8
5
f9
fb
5
f7
a
a
5
f8
3
fe
f9
8
f9
ff
f7
4
a
f9
fa
fa
fd
fc
ff
6
7
c
f5
3
0
5
f9
5
f6
5
7
f7
f8
ff
4
fd
b
f6
f7
fd
6
fc
f8
f7
a
fb
7
4
f8
9
f5
9
4
fb
fd
9
b
fa
fa
5
fa
ff
f8
f9
0
f7
c
fc
fe
f5
2
c
1
9
f8
7
4
1
ff
f8
8
4
3
9
0
f6
0
6
2
fb
fb
9
b
9
f8
fb
fe
6
7
4
2
7
3
2
f9
b
ff
fa
f9
1
5
8
f7
6
fd
f9
4
0
3
f9
a
0
1
fc
5
6
7
5
fa
ff
fa
fe
f9
4
fb
f7
fd
4
f5
f7
fc
2
7
c
f9
ff
5
a
a
2
b
7
8
5
f6
fa
fe
fe
fe
f8
fd
1
f9
fd
ff
f6
fd
3
0
fb
fd
6
7
fb
b
8
ff
f8
5
f8
7
fb
fe
2
b
fd
ff
3
f5
ff
0
0
f6
4
0
f9
fd
f8
6
fb
fa
4
f5
4
f7
f8
6
3
ff
ff
7
5
fe
f8
0
1
3
f6
5
fa
fd
fc
0
5
3
6
c
ff
9
fc
2
2
fe
9
f8
7
fd
3
f7
d
ff
c
8
fa
a
fd
9
ff
1
9
6
fd
8
f9
b
4
f8
fc
4
1
6
fb
8
f8
fc
f9
fc
9
9
3
fc
fe
f8
f8
f6
0
f8
5
f6
fa
a
9
7
6
4
fe
7
5
fc
fb
1
3
f8
fd
fc
1
1
1
7
fa
f8
2
3
1
5
9
fe
f8
3
7
fe
0
7
f4
5
f9
fd
3
f9
fa
5
f4
a
f6
7
3
fc
2
fd
fb
0
2
9
f6
5
f7
fa
2
ff
f5
a
4
fb
7
2
2
1
4
f5
4
a
7
3
b
2
fa
8
8
9
f8
7
6
fc
2
a
0
9
2
0
fd
0
ff
fb
fc
5
fb
2
ff
fc
3
f7
ff
fa
f7
ff
3
a
fa
1
f9
a
0
0
4
fc
4
0
fe
a
f9
ff
fa
2
fc
f9
1
f7
4
f8
fa
7
2
8
fb
6
f9
6
fc
2
fd
fb
6
0
fe
3
0
fc
6
5
2
8
0
9
fc
fe
f8
8
ff
5
fc
ff
3
f9
2
ff
f9
ff
fe
9
fe
8
a
9
fa
2
f6
5
fe
5
f9
9
f6
fa
3
fd
5
c
fe
4
4
0
6
1
f8
a
fa
f7
6
b
2
2
5
8
a
f8
9
0
f8
6
f7
0
2
f6
f9
a
1
a
f6
fe
5
f7
4
7
fe
f8
4
f7
fe
f8
f6
f9
f7
a
b
fe
f6
f7
8
6
5
fa
4
ff
2
d
fc
ff
2
ff
4
5
fd
0
fc
9
3
f9
2
ff
fc
a
4
f9
7
ff
4
fd
6
fa
fa
fc
b
a
fa
fd
fd
2
9
f8
fa
fa
5
8
f6
fb
a
fc
f7
5
f6
fb
a
9
9
fb
fa
3
fa
fa
1
f8
6
1
0
0
c
fc
ff
f5
fb
fc
3
f9
4
ff
2
ff
7
1
fe
fd
4
f7
2
f8
8
3
f9
8
f5
5
ff
fb
5
fe
fb
4
3
0
f6
a
3
f4
9
7
fa
fa
f5
1
5
0
7
4
0
f9
fe
6
4
f5
0
0
7
3
fc
fd
7
8
fd
fc
a
f8
f7
f6
2
f8
ff
f6
f7
8
f4
a
4
fa
f7
f6
fc
f6
4
ff
2
fe
fb
1
4
3
f9
0
6
fd
5
3
0
8
fd
0
a
0
6
fb
0
8
f8
b
fb
7
fb
f6
fa
f8
4
f6
f8
8
fb
7
f8
fc
3
fa
f9
fa
5
fe
fc
9
f7
3
f6
8
9
f9
fd
fe
fe
1
4
0
fd
b
ff
5
3
2
4
3
fa
2
fb
6
5
3
f8
f9
f6
5
fd
f9
1
f5
6
f6
2
fb
9
b
1
4
9
f8
4
ff
b
3
8
b
b
8
fa
fc
ff
4
6
fd
fe
5
ff
b
fa
2
7
fa
f9
fd
2
1
0
1
2
fe
fa
a
f7
5
9
fe
c
f7
fb
b
fa
9
fb
5
f9
f7
c
fe
1
fd
1
3
ff
fe
fb
f9
f8
fc
f8
7
ff
9
f7
a
8
fe
6
ff
f5
f6
a
b
fd
b
ff
a
2
fc
1
fc
8
a
c
a
1
f6
8
6
5
fb
8
f6
6
8
fc
f7
8
f4
8
2
1
fd
1
f7
6
6
b
b
a
c
f9
7
9
4
4
b
3
0
9
fd
f6
f9
6
fd
f8
5
f5
f6
fe
f7
6
fb
9
a
0
5
ff
0
7
fd
0
a
fb
8
fe
fa
f7
4
6
ff
fc
3
f6
f6
fb
f7
fa
fe
f6
fc
4
4
f5
a
fe
f9
f8
0
fb
fc
f7
fe
fd
fc
2
9
fb
2
fb
fb
6
7
fb
6
f9
9
8
fe
fe
8
fb
a
fd
a
9
4
fe
fa
0
fc
fc
fb
fa
5
fd
f4
f6
5
6
b
1
f9
0
fe
b
1
fe
a
2
a
fe
b
f5
f9
7
2
9
f8
a
fd
fe
f5
fe
f8
6
8
0
ff
ff
6
a
fd
7
2
0
2
b
fe
f5
9
fb
b
6
7
f9
1
2
7
ff
5
1
5
f9
5
8
fb
fb
4
f8
8
3
f8
ff
5
8
f7
f8
f7
c
7
0
a
f9
f7
fd
7
6
8
f4
5
a
9
4
fb
0
fb
ff
f8
6
fd
1
f9
b
0
3
f6
6
1
f9
3
5
f9
f6
ff
5
fb
7
1
ff
0
a
5
2
a
5
f8
fd
f9
1
f6
f8
f8
5
7
f7
7
fc
2
3
fd
fb
f4
a
0
fb
9
6
f7
5
3
f9
2
6
5
7
f7
f8
1
0
fe
fc
b
b
fb
b
4
1
f4
fd
fc
5
fe
f5
f9
6
f6
a
1
fa
f5
3
fc
2
5
3
f7
8
fa
3
ff
1
7
a
a
fb
9
c
fb
4
ff
f9
3
fc
8
7
9
f6
9
9
fa
f8
6
3
3
3
a
fe
8
fc
ff
ff
fa
f7
a
6
a
fc
0
fb
fb
2
f7
f6
3
fd
8
5
6
2
0
f7
f7
fa
f8
a
c
b
fb
4
fc
fc
f6
3
f8
9
f5
f6
b
b
fe
fb
fb
fe
f6
0
f6
fb
0
fb
f8
fe
2
3
f9
7
1
6
0
0
4
ff
3
6
fb
9
fe
fe
fd
f9
4
fa
f7
b
f6
fe
f8
7
fb
5
3
f7
6
8
6
f8
fd
fb
fd
fc
f8
0
fb
fb
fe
fa
fe
8
fa
7
f6
f5
b
3
6
f9
f9
f8
7
1
3
1
8
5
8
fd
8
f9
6
fd
fa
fa
3
5
f9
fb
fb
1
7
0
0
f8
f7
f5
6
2
8
f6
fe
fb
a
4
9
f4
6
f9
ff
5
fa
8
8
9
6
fa
8
f6
f7
9
fe
0
3
1
7
1
2
3
fb
fe
9
4
3
9
a
fb
7
3
4
9
f4
6
fb
f5
0
2
0
f7
8
5
8
4
fc
a
1
f7
fc
1
f8
ff
fb
9
6
c
1
b
4
f8
6
fe
fc
fc
3
fb
0
9
0
fa
fc
1
f6
2
a
f8
7
f7
fa
f8
f6
f7
fc
1
0
7
f8
4
f7
4
f6
b
ff
f9
8
fb
fa
6
fc
6
fc
1
4
f9
3
0
f8
4
9
2
fe
fd
4
7
c
fe
fa
8
8
2
f7
b
f5
fb
f6
1
6
5
b
fd
2
8
0
3
9
c
ff
1
6
0
1
2
3
f6
f6
f9
fc
0
fc
9
9
9
f6
fc
f5
a
3
f9
5
fa
2
fc
7
d
2
fc
b
8
3
0
f7
6
a
6
3
f7
5
fd
9
8
fe
c
4
4
8
7
fa
f4
fa
0
fa
f5
f9
6
9
1
4
4
9
f8
4
8
3
9
7
6
f5
fe
f8
f6
9
fa
1
c
fb
0
f4
fd
8
f9
8
fe
5
8
8
6
fd
fe
9
f8
fe
fe
7
4
3
a
fc
1
fa
1
f6
4
5
ff
f8
4
fe
b
fc
f7
3
fd
4
5
fb
fd
f8
ff
5
0
fa
c
3
b
fe
fd
2
2
fd
f8
9
c
f5
1
f8
0
fe
fc
f9
3
fb
7
5
4
f8
fe
3
fc
2
fd
f6
7
fc
8
fa
fa
2
4
f7
f8
3
fd
7
fd
1
f8
f5
fd
fb
2
f6
f4
f8
4
fe
fb
4
f5
fc
fc
0
fe
b
fa
f7
f7
f7
b
fe
f8
0
0
fe
f7
5
a
fb
fb
f9
8
5
f8
f9
f7
f8
1
3
f6
3
7
b
4
f6
f9
fc
6
f5
2
fe
6
2
fb
ff
1
fd
7
2
3
2
1
7
fd
2
7
f9
b
8
fe
3
fa
5
f9
6
3
8
1
1
fe
fd
2
fc
1
2
fe
7
fe
0
f7
2
fa
a
fb
fd
8
7
8
0
0
2
f8
1
7
0
fc
9
fd
6
0
6
6
5
2
9
fe
f9
fc
fa
4
f7
9
f8
b
fc
a
8
fa
4
fd
ff
5
3
1
f8
4
f8
fb
4
4
2
3
fb
1
ff
fc
f8
3
fd
fe
fb
fa
4
fe
f8
9
6
f8
9
fb
b
f7
9
7
7
1
f7
0
6
fd
9
fe
fb
f7
f9
f5
f7
9
7
f7
1
fa
f9
3
f6
7
fb
fb
9
fb
ff
f8
5
f9
c
0
8
7
a
2
9
fb
a
fa
f7
4
ff
8
8
6
f8
8
fc
b
f8
f4
f5
7
f8
fe
fa
f7
6
0
fb
ff
5
fa
fb
fe
7
fd
0
fb
fc
fd
5
5
fa
fe
0
8
f8
a
4
4
f5
fb
4
fe
0
8
7
fd
1
3
fc
4
f7
fe
3
b
8
6
fe
fb
f8
f9
8
fe
4
fd
1
f9
5
0
8
b
f7
f6
9
fb
f9
f7
4
6
0
9
9
b
5
ff
fd
1
5
ff
c
a
2
8
0
f8
fa
8
2
4
9
ff
9
7
a
9
2
fa
f9
ff
fb
fb
8
0
3
1
3
9
fd
5
fa
f9
1
7
1
fe
f7
1
fb
8
a
2
f5
5
f7
1
fe
fa
f9
9
f8
fb
ff
fb
7
f8
2
8
f9
f6
3
9
9
5
f8
3
9
f8
fe
7
3
ff
7
a
fe
fd
2
7
9
5
f8
6
f5
3
8
1
1
5
fd
4
fb
fe
f8
0
9
b
2
f6
fb
2
a
8
f7
5
2
2
f8
8
fb
8
fd
2
ff
4
fa
9
5
2
f6
b
f5
fa
7
1
f8
4
8
8
f7
fc
b
4
a
5
4
4
fc
fc
1
a
ff
1
3
f5
f9
1
7
2
0
3
f9
3
7
5
fb
f4
f9
f8
c
1
fd
4
1
4
8
3
1
f7
fe
0
4
fd
5
9
f6
3
fe
0
ff
9
1
fa
5
3
7
0
fa
f9
9
c
b
2
9
f8
ff
0
8
a
0
a
8
8
f6
7
f4
6
fa
f5
9
fb
fc
f6
4
5
ff
a
f6
f8
4
c
4
0
a
f7
3
fd
fa
fb
fa
f6
0
3
f8
9
0
f8
f9
fa
fb
5
f5
a
6
f7
f8
3
0
f9
ff
8
f7
fd
fe
fd
f8
fc
fb
ff
fc
0
fa
1
f7
b
f4
f8
2
5
f7
f8
fb
1
4
fe
a
6
fd
f9
f7
f4
fb
fe
2
9
6
fd
0
a
1
fb
6
fd
4
fe
f7
4
f7
3
fe
7
7
f6
f6
9
f8
fc
f4
f9
f8
fc
fe
5
5
fc
f5
7
a
5
f9
f9
6
fd
f8
f8
f5
b
2
f9
fe
fc
a
5
f6
1
fb
fe
ff
f5
b
4
f5
f7
5
f8
4
fb
fb
8
6
2
f9
8
a
fe
f6
fc
f6
fb
fd
a
f8
fe
fb
3
ff
8
3
4
f6
6
f5
0
fe
fa
7
5
2
0
fe
4
b
0
9
8
9
5
2
5
0
b
0
6
fc
4
7
fa
fd
4
9
f9
fa
b
f6
1
7
ff
f8
0
4
3
7
f5
fe
ff
7
6
fb
fd
b
fa
2
f9
fa
8
6
fd
fe
1
f6
f6
4
fc
f7
fe
fc
7
f7
b
4
fd
9
f7
fa
f9
4
3
5
f6
1
1
c
fa
9
5
a
0
8
ff
3
c
fa
fe
f6
f5
a
2
7
fd
4
7
fe
fc
7
fa
f9
f9
f6
8
f5
0
ff
1
f9
3
8
1
0
f4
b
fc
1
fe
7
4
f9
fc
9
f6
fb
ff
7
9
fd
f7
fa
f6
b
fc
fc
6
fb
3
7
8
3
4
9
fd
0
7
f9
7
9
f8
6
3
b
8
fc
b
fc
f7
3
c
f8
4
f8
f9
0
1
2
5
0
7
ff
6
5
1
2
f5
fa
0
fa
f6
f6
f9
fc
8
f7
f9
f8
7
fb
a
f7
a
5
f9
7
f8
f5
fd
8
4
f5
f8
5
1
9
fc
fb
f6
fd
ff
f7
b
4
2
f9
6
0
4
9
f8
8
9
f9
0
f8
4
5
3
b
9
9
6
ff
a
7
4
f5
6
a
fa
fd
b
ff
d
7
8
3
3
f5
7
ff
7
3
9
fc
ff
2
fc
fd
f7
ff
2
9
8
b
5
4
a
4
f6
ff
f5
a
fe
3
b
ff
f7
f9
6
f8
4
b
9
f6
4
6
0
d
4
b
0
1
f9
f9
ff
f7
b
b
f6
f7
f7
5
fa
2
fb
5
7
fb
c
f7
f9
2
2
5
1
ff
8
fb
7
1
ff
8
f9
a
1
f6
ff
fa
5
ff
f7
9
1
1
f9
f5
0
5
5
5
f5
fb
fe
f8
fb
fe
3
f4
0
b
6
fd
fb
a
7
f6
fe
f4
f8
f6
1
f8
fa
2
b
f7
fe
fb
3
f7
fd
f8
fd
fb
9
1
4
3
9
fd
fc
6
fe
f5
b
fb
0
5
f9
2
b
ff
9
5
f9
f6
a
b
fa
3
7
5
f7
3
3
f8
a
a
f7
0
ff
fe
7
9
f8
fb
0
a
9
f5
7
ff
a
fb
2
8
ff
f6
3
f9
0
3
6
1
8
3
f7
0
4
1
a
a
1
a
8
f6
2
6
2
f8
f5
0
fc
1
fa
f8
fb
fc
9
b
3
3
f8
fb
fb
fd
f7
fc
5
4
6
fe
fa
ff
8
b
8
3
f5
2
fc
f7
fd
8
5
c
4
f7
0
9
7
b
8
fb
f5
f8
5
ff
ff
3
fe
8
0
4
fb
9
6
3
ff
ff
5
fe
0
fc
f6
8
f6
0
fc
1
9
0
3
9
f7
f8
2
9
3
4
5
ff
ff
fc
2
f7
fd
f5
f5
1
0
fb
5
0
0
1
3
c
2
f6
fa
1
fc
6
fa
f6
1
fa
fe
fd
9
fa
1
2
f8
3
f7
0
6
f8
1
9
f5
c
8
fc
3
fa
7
fd
5
fa
3
ff
3
ff
6
4
f8
7
fc
fb
fb
fc
0
f5
7
f8
f9
ff
b
f8
fa
7
0
f8
a
ff
1
5
fd
f2
0
f7
6
9
fa
ff
f9
4
5
f9
fc
2
1
fd
f8
4
f9
fb
f9
a
4
7
fc
1
fe
f9
fd
4
4
fb
1
2
f6
f4
f7
1
4
6
3
f5
ff
f7
b
f8
fc
7
0
f4
f7
fd
6
9
fa
fa
4
fc
4
4
f7
5
fd
fa
b
3
2
f6
f5
8
6
6
fd
fb
3
a
fd
6
8
0
f6
f6
f9
0
9
3
fc
5
ff
b
8
2
9
ff
3
9
f8
f5
f9
8
f8
0
2
5
3
fe
5
fb
fe
a
0
f8
fc
fd
f6
2
2
c
fd
4
0
3
4
4
0
fa
f5
a
fa
6
fa
3
b
fe
fa
fc
fa
7
3
f6
fc
ff
fe
fb
4
f6
3
1
3
f9
fb
f8
f6
8
f8
f7
f9
fe
f7
a
f6
fc
3
3
a
f6
1
5
ff
f7
5
2
f7
f6
ff
5
8
f6
4
5
f5
f6
fe
fc
7
f6
9
c
fb
4
f7
fa
1
6
5
f9
f4
f8
fe
fb
f8
f7
fa
8
fe
fe
fa
fb
f6
3
4
8
4
4
fe
1
8
3
0
5
9
ff
3
f4
fc
8
6
fe
b
fa
fd
f7
f9
4
5
0
1
f8
f4
f5
b
9
5
9
f7
f6
f7
7
6
fb
f5
f8
fd
0
f7
3
f8
6
9
a
fd
f5
f8
7
f8
f7
f6
f7
1
fb
9
a
fe
a
2
1
2
ff
fc
8
f6
9
1
fe
fa
3
b
fd
2
9
3
7
6
f7
f6
f9
2
f7
f5
8
f7
a
fb
f6
8
fe
7
f6
fa
f5
f5
f6
f7
f9
fb
f5
ff
fe
f7
f5
4
fe
fb
f7
fe
fc
f9
f8
4
f8
fc
fa
9
f7
3
ff
0
fc
6
fd
b
7
f6
fd
fa
f9
fa
f8
fa
b
f9
fa
fa
f7
9
f7
f5
0
9
b
f8
0
f8
fc
7
6
9
8
9
9
7
fc
fd
f7
f7
c
fe
f9
6
fa
7
ff
4
f9
f7
4
7
fa
f7
2
2
5
fd
ff
8
f8
7
b
fc
0
fd
fc
4
6
f7
f6
6
1
fb
fc
7
f9
f7
f9
f7
f9
0
3
a
9
fa
1
8
8
b
f7
7
9
8
fd
2
fa
fe
ff
1
0
f8
1
f8
6
1
3
2
0
7
ff
5
f8
fc
8
f6
7
f8
4
8
a
c
0
f9
b
6
6
f6
fe
a
f7
fa
b
b
0
8
fe
fb
5
9
fb
f7
f6
fa
fa
fa
fd
fb
1
a
f8
2
9
9
1
6
0
fd
f4
fd
fa
f9
f8
6
f6
0
f7
f9
fc
3
9
f7
7
5
5
5
6
ff
fa
f8
2
f5
fe
f7
fb
2
f5
0
fe
0
fd
9
2
fa
b
ff
f8
f5
f8
7
f9
fe
f8
1
fc
0
f7
5
fe
fd
f6
0
f8
3
6
8
0
3
b
fb
f8
f8
8
a
f9
1
0
fe
fa
1
3
5
f9
4
ff
7
f3
fa
f9
ff
6
f6
c
0
f5
4
1
6
7
a
0
f8
f9
1
a
4
4
a
a
6
f9
fc
6
f6
f5
7
fd
5
f7
fb
fb
fe
0
fd
8
f9
fa
fb
f9
fb
9
a
8
6
f9
f8
7
7
fd
f9
b
fb
fc
2
f8
fb
6
f7
b
8
b
7
fa
f8
d
4
4
f9
fe
c
5
b
ff
fc
fa
8
f7
f7
3
7
a
7
f6
f7
fe
6
2
fc
f9
8
8
fb
fc
8
2
2
3
8
3
fb
0
0
0
fa
f6
8
ff
f8
f6
f8
f6
6
f8
9
fc
fd
fb
fd
7
5
fe
b
7
1
7
9
f8
fc
f9
fd
7
fc
ff
3
b
7
4
0
9
f9
3
9
5
9
f6
f8
a
1
ff
fd
f8
1
fb
f5
f5
5
0
f8
8
2
f5
4
fc
f5
9
c
fd
9
9
f8
f9
8
f6
6
8
fb
fa
fe
fa
fe
f9
fc
fb
f6
4
8
4
ff
8
3
ff
2
5
f8
f7
fc
0
0
ff
fc
fa
1
4
f8
f9
2
1
9
fa
7
f5
ff
4
a
ff
ff
f9
f8
9
f7
f7
fa
fd
1
f9
b
f8
f5
0
1
f7
4
fb
6
fd
2
8
ff
fe
8
fd
b
f7
fe
0
6
f6
f5
f9
4
9
1
0
6
8
2
9
fb
9
0
fe
fb
fe
fb
8
4
f6
6
7
f5
4
8
1
6
5
8
f9
f8
f9
7
a
7
f7
ff
5
f4
fe
f4
1
5
f9
f9
1
7
a
9
3
fb
7
a
ff
a
9
fe
f5
b
4
9
f8
3
4
6
f5
f9
4
fe
2
6
1
8
4
fe
a
fb
a
f6
a
7
f8
fb
fa
f9
ff
5
2
f3
fd
fc
1
9
4
5
fd
fe
fe
7
f6
fc
9
fc
3
f9
5
a
3
f8
ff
0
9
fa
8
8
f8
4
f6
fb
f8
6
4
9
fe
fd
fb
7
f9
f5
5
4
fe
4
f8
f4
1
f7
3
3
2
f7
2
f8
fc
0
fa
5
fa
f7
1
8
fa
5
0
f8
f8
1
0
0
2
1
f8
8
1
1
ff
2
f8
5
7
f8
2
0
3
fd
ff
f5
f5
0
6
6
0
fc
5
1
b
f6
fa
fc
7
3
f9
1
f6
2
4
fd
f6
2
f7
f4
7
f7
4
f7
fd
4
f8
1
a
4
f7
b
9
fd
fe
6
2
f8
3
fd
6
3
7
b
fb
4
c
f6
9
f8
9
f9
f6
8
5
b
3
7
b
7
5
f5
f7
fe
1
8
6
7
ff
f9
0
fc
7
f7
5
fd
6
0
0
7
7
0
4
4
f8
6
3
4
5
3
8
f7
fa
a
fd
fe
b
fb
5
f6
7
1
f9
c
f6
7
0
4
7
9
b
fb
fb
fc
f7
f9
fb
f8
fc
fb
fb
5
1
1
f5
f6
9
e
ff
4
f8
b
ff
1
2
7
9
3
f7
fe
7
1
2
fa
2
ff
ff
ff
5
f5
f8
5
7
fe
f9
f9
f6
fd
7
fb
ff
fa
ff
fb
fc
2
8
ff
3
f9
8
f7
6
f4
f7
f9
fc
5
6
fd
2
ff
f7
b
f7
ff
0
5
4
b
4
ff
f8
f9
1
f6
ff
9
5
f9
fa
fa
3
7
f8
1
8
f9
0
a
2
1
8
8
fd
fb
a
a
4
f5
1
fb
5
5
5
b
fa
5
fc
f7
fa
f8
6
6
0
a
2
9
fe
1
f9
0
8
f4
9
ff
a
b
fb
f8
fe
5
f6
8
f9
f8
2
9
fa
2
0
fa
fa
9
f6
fe
7
5
fd
5
c
a
f7
8
fd
9
1
f8
3
5
ff
f8
2
fe
6
2
fa
f9
6
f8
a
fb
f5
3
4
3
1
ff
2
fd
a
f6
4
2
fc
fb
0
fe
5
2
7
0
6
f7
f5
3
b
f5
fd
3
fa
f8
2
4
b
fe
fc
2
fb
f9
f6
a
b
2
4
fe
9
fb
8
c
f9
3
f8
fc
f7
fc
f9
7
f9
3
f7
7
c
9
9
fa
4
f7
ff
fb
b
b
fa
0
0
4
2
f6
fe
f7
f9
3
2
b
a
f7
1
fe
fc
1
1
2
9
f7
fc
f6
9
f7
ff
fd
fc
b
1
a
2
6
ff
a
5
a
0
f7
0
f9
fe
fa
7
0
f7
8
ff
5
ff
4
8
f7
f9
f6
9
4
5
fb
a
3
2
f7
fa
f6
f9
4
fc
9
f8
fc
6
b
fa
fe
c
4
b
0
f7
0
b
6
9
fc
6
f7
5
b
fc
a
f9
f9
f9
9
9
1
2
fa
fb
3
7
a
8
a
0
fb
0
fd
4
f7
fa
f6
f8
fd
ff
1
f7
b
4
0
f9
4
9
fd
9
2
fa
8
3
7
b
8
1
6
fd
8
3
fc
fa
2
3
9
4
f7
0
ff
f8
b
2
8
fa
ff
f9
f7
fb
fb
8
2
fc
1
f6
4
3
e
a
4
ff
3
f9
fb
fc
ff
4
fe
3
5
9
4
fc
fe
fa
b
9
fc
2
f8
6
c
6
4
fe
fb
9
3
f8
8
f9
f7
5
c
7
7
1
5
fd
0
7
f9
fd
fe
fa
f7
fd
f7
f7
5
fd
fc
6
2
fe
2
fb
c
a
5
1
4
f8
1
7
ff
8
5
fb
2
ff
fe
f6
f8
3
b
1
6
9
fd
f4
fc
fe
f9
ff
fa
b
ff
7
a
7
0
ff
fe
4
fd
f6
6
1
f7
fe
f8
c
f4
5
f6
f5
7
2
0
f9
f9
fc
9
5
4
fb
7
7
5
fc
a
9
f6
7
9
f6
fb
fd
3
f7
6
5
f6
f4
7
fe
f7
7
fd
1
8
9
fb
fa
fc
3
f5
2
4
fa
0
5
f7
f6
9
fc
6
fd
6
fa
4
f8
ff
c
6
6
fe
6
ff
0
7
5
4
7
a
6
fa
fd
9
ff
f6
5
ff
3
c
b
ff
0
fd
6
a
f6
fc
f6
fb
2
a
6
7
0
8
f5
8
5
a
fa
f7
fe
6
1
8
5
a
f7
0
f9
9
3
fd
6
3
1
ff
0
ff
fc
8
4
3
fe
fc
a
2
1
6
f7
8
3
1
fb
4
fc
5
f8
5
2
2
a
3
ff
fd
6
5
3
4
9
c
fd
f8
0
f9
fa
f5
1
f7
a
6
9
fb
f9
f9
2
2
f9
b
ff
6
f9
f6
f8
3
9
f9
f6
fa
1
f7
fc
f8
0
0
2
7
9
f7
f5
0
6
f9
f5
fa
5
7
a
d
fa
6
a
fa
f7
fc
f4
0
3
f7
1
4
f6
f9
9
ff
fd
fe
1
5
fc
fc
6
9
7
9
a
4
7
9
b
2
fa
3
5
5
f7
fd
1
a
1
7
fb
8
a
fd
9
fd
f4
fb
fb
a
ff
0
fe
fa
4
6
a
6
fc
8
0
6
fa
f7
9
fb
1
ff
3
fa
c
fa
ff
9
a
3
f9
fa
a
f7
1
5
fb
ff
f7
1
8
3
2
f9
fb
fb
3
fc
6
8
9
fe
2
5
f4
8
fc
f6
f7
2
b
f6
f7
f7
fe
f9
f5
b
f5
3
5
7
fe
5
fd
5
ff
ff
f8
9
0
0
0
2
fe
5
f6
a
f9
fa
9
f5
1
9
6
fe
f5
ff
9
6
1
f6
f9
fa
5
5
fa
fb
fc
8
fe
f9
a
9
5
fd
3
a
2
f4
fc
2
6
0
7
0
f5
9
ff
4
9
a
f9
3
8
fb
8
f4
f3
f8
f9
6
7
f5
fd
fe
8
9
0
fa
fa
f9
2
fe
f4
3
9
f6
f9
fe
2
fc
b
f9
7
f9
fc
fb
2
2
fb
8
5
b
f9
7
fa
f4
b
7
fd
2
3
3
fd
fa
ff
2
f8
1
3
f8
ff
a
f7
a
6
f7
3
f4
2
f4
7
0
5
f8
fc
0
fd
2
2
4
f8
a
3
c
8
f7
fe
5
4
0
f5
a
f6
fb
f8
2
fa
0
fc
fc
2
a
a
0
fa
f6
3
f4
2
f6
4
6
f6
fe
4
fc
f8
3
b
2
1
f7
4
f5
6
9
9
4
ff
2
2
a
fe
a
9
4
2
4
b
0
3
f5
5
a
f5
f9
fb
1
fa
5
0
9
f8
5
fc
b
8
7
f5
4
4
7
8
1
9
fd
9
fb
f9
7
7
9
fa
f9
2
f7
fc
0
f4
f8
f9
8
4
a
f9
f8
f6
f6
b
f5
f9
f9
0
ff
fa
fd
f4
4
fa
f7
6
9
a
7
f8
1
f6
8
6
8
fa
b
2
f9
f8
1
3
5
fc
f6
5
fd
f4
a
fc
8
f6
8
6
fe
fc
f8
f6
4
fd
fe
2
1
f6
f5
f7
fe
7
fc
f7
a
9
ff
fc
8
5
f5
f6
f7
2
fa
fd
0
9
fd
f5
ff
0
fe
fd
f8
9
6
ff
f8
f5
fb
f7
fc
fe
7
9
f8
0
4
3
fe
8
1
f5
fb
f8
f9
fe
a
5
9
9
8
4
f7
3
fd
fc
fc
f9
4
fb
fb
1
8
fb
1
f8
f7
f7
f8
a
7
ff
f8
5
f4
9
3
6
f5
2
f8
f5
fc
f5
b
f8
b
f5
a
fa
fb
f8
2
6
3
0
2
1
b
fe
8
f8
fb
fa
fc
f7
f6
9
6
b
8
4
fa
a
fb
fb
f9
fb
f5
f7
fc
f4
fc
fd
f7
1
f8
fd
fd
a
a
3
a
4
2
fd
fd
f8
b
fa
f9
fb
7
f5
f7
fa
f5
2
fa
c
8
0
8
f8
ff
b
2
fb
0
f6
f5
fe
f9
1
fd
f7
2
5
9
fd
b
fa
fe
9
b
3
f8
fa
fe
fa
9
4
3
6
9
fa
4
b
6
f6
a
9
ff
f9
a
f9
fb
f6
f7
fc
a
fe
f6
fe
fa
fd
f9
0
fe
fd
9
ff
8
ff
b
fd
f7
fb
a
fc
6
fb
7
4
8
f8
a
fb
0
3
2
4
f8
f7
fc
fa
4
5
1
1
f6
2
ff
fa
fb
b
0
3
ff
ff
6
5
fb
1
f9
fb
ff
7
f5
5
f7
c
f6
2
3
fb
fd
fe
ff
5
1
fb
ff
fe
8
8
8
ff
fa
fd
1
fd
5
9
fd
9
2
b
8
a
f9
fe
9
fe
1
fe
f7
9
fa
5
fa
7
fd
fd
b
2
2
f8
fd
8
fe
fa
fb
f5
f6
4
8
4
9
0
2
0
4
1
f7
0
9
9
5
2
fe
7
ff
f6
ff
4
4
9
f9
ff
f6
fe
0
fe
f9
ff
2
a
fe
2
5
fc
4
6
fb
fd
5
a
fd
7
d
0
1
f4
c
1
6
fa
fa
b
a
f9
f7
4
8
fd
3
f5
fa
f6
5
f5
3
5
fa
ff
9
0
fc
fb
a
fc
fc
7
fd
1
f9
3
b
f7
3
3
5
ff
fd
fe
f7
8
0
8
0
9
9
4
fc
f7
f7
1
fd
9
f8
ff
7
a
ff
a
f9
fe
4
9
1
8
8
1
b
7
2
7
f8
9
3
3
7
fa
fb
f7
9
fb
f5
a
2
b
f9
ff
8
f6
fd
a
f6
8
5
8
6
b
4
6
2
f9
5
1
f7
a
f9
6
5
fa
f7
2
a
ff
0
f7
8
4
a
a
fa
fa
f9
fd
c
9
fe
1
5
f9
f8
fd
2
8
4
2
f7
4
f8
2
fe
8
1
f7
a
6
1
fc
2
f9
f7
fb
fa
f7
2
f9
3
b
3
5
4
fa
7
f6
2
b
ff
fc
fd
a
9
f7
0
1
fe
fe
b
f6
ff
1
f5
9
f7
6
f9
b
f7
f7
4
4
b
6
fe
fb
9
9
f9
fb
c
f9
ff
2
fb
f6
f6
5
8
fe
1
f7
5
1
a
9
f8
a
a
f5
3
fd
f6
9
f8
6
6
a
8
8
9
4
3
0
a
f8
fa
9
6
4
9
7
2
2
f8
fc
f7
5
9
6
fb
fc
3
c
2
fa
b
f9
fe
5
fe
fb
fd
a
6
fd
f8
9
f7
1
a
d
f7
3
2
f6
fd
5
fe
f8
9
f8
2
3
fb
1
4
f9
7
3
fd
7
f7
fe
2
fc
fa
3
b
1
fb
6
4
fd
6
f7
0
fb
8
5
fd
c
0
c
fb
7
3
3
0
0
0
3
fa
2
fd
fa
b
3
fc
f8
a
a
8
6
0
a
1
6
fd
f5
fe
7
6
2
1
f8
4
f7
8
7
f6
5
fa
fd
fb
1
1
c
a
fb
fb
fe
ff
fe
0
f6
9
f7
a
f9
ff
b
b
f9
8
0
fc
fa
0
f8
6
3
f7
fb
fc
f5
f7
fc
f5
fd
f8
fb
7
a
2
a
a
8
fb
4
9
8
8
7
6
f7
7
7
7
7
3
fe
f7
6
fa
4
f5
f9
b
ff
0
f9
f6
f4
8
c
fd
f6
fd
f7
6
fb
1
6
8
fb
0
7
ff
f9
3
fb
fb
1
2
f4
fb
fc
f7
f6
4
6
fa
fb
0
fb
ff
1
0
1
1
ff
fa
f6
f7
f6
fb
0
fc
9
5
0
f7
4
a
1
fa
8
f7
0
f7
9
1
a
a
fe
5
f8
2
ff
5
fd
ff
fc
fd
fd
f4
0
f7
fc
a
3
3
4
2
8
f6
f7
fb
1
fd
fd
f6
4
4
c
fb
f9
3
4
fc
fe
4
6
c
f8
fd
fe
9
0
1
f8
1
fd
fd
fb
f9
f6
1
4
4
1
8
7
ff
f7
f9
f4
f9
f5
fd
3
fd
fc
fc
fe
ff
fc
3
8
5
1
7
7
1
2
b
fa
4
8
fe
0
fd
f6
fd
7
fe
f8
3
fd
fc
f5
2
fb
0
fe
f7
8
8
f5
6
f4
f9
fd
f9
8
fd
7
1
2
fa
fe
4
fa
a
fc
fc
a
8
7
fd
fa
ff
2
2
8
4
8
fb
f6
8
f9
5
4
2
1
fa
f6
ff
9
8
5
f6
4
fd
3
f8
c
ff
6
fb
f9
fc
b
fd
f9
a
fd
9
7
fb
4
4
4
8
fb
fd
f6
fc
5
f5
a
2
fa
fa
fe
fa
c
2
f6
5
4
9
3
9
b
0
f7
fb
f7
ff
fd
f3
fb
f5
fe
f8
3
7
f8
a
f6
1
6
9
7
fb
f5
1
4
9
f9
8
a
f4
fb
6
2
fd
8
0
3
3
f7
7
a
0
0
4
fc
a
fa
0
f7
f4
3
fc
5
fb
5
4
7
fb
1
7
7
5
f4
3
6
0
7
f4
3
4
5
f9
8
fe
4
0
1
7
ff
4
fe
fc
f4
fa
fc
fe
fe
fe
fb
f8
fa
4
f3
fc
f7
f6
f5
3
fa
f5
fb
f4
fe
f7
ff
5
0
3
f8
7
f7
8
f4
f5
fe
1
fd
f5
f4
f7
1
fc
4
fc
2
fc
3
f6
f5
f9
f6
f5
ff
fb
2
f8
9
fa
5
1
0
4
f5
0
7
1
0
fc
9
ff
f8
fc
6
1
fe
fe
4
9
0
f9
3
0
f7
fc
7
7
8
8
a
5
fb
fe
0
5
fb
3
a
fc
7
2
f6
fd
fe
fd
fa
fb
ff
7
f8
6
f8
f7
f8
fa
f9
6
1
6
2
5
2
f7
2
9
f7
a
6
8
9
2
2
ff
1
2
0
9
5
fc
6
fd
f7
0
1
9
fd
f9
1
7
fd
9
8
fc
f7
f5
f6
fb
7
f6
f9
f8
fc
9
f6
7
f7
8
f6
fb
b
9
b
f9
f5
fd
f9
a
8
f6
2
f6
fb
fd
3
f5
f6
3
8
9
f5
9
fe
fd
7
6
5
f7
c
fa
6
ff
f6
fd
1
a
8
8
fc
4
4
5
0
2
fe
ff
5
f8
1
f6
fb
a
f7
a
fd
3
f6
fe
a
ff
2
fc
a
5
0
f8
f9
8
f9
fe
fd
f6
5
f8
9
0
f5
fb
fe
f8
f7
fb
fc
f8
f9
a
f8
fb
fd
fd
f8
3
2
9
4
f7
0
f9
fa
b
1
b
fb
fc
f8
fb
f9
0
f6
2
fa
a
0
ff
0
f6
3
a
fd
9
f7
0
9
fc
a
0
3
4
7
f7
1
8
8
fe
8
fa
7
f6
ff
4
f9
fc
fd
c
f9
fd
3
a
7
a
3
2
f5
fc
b
fd
0
f5
8
4
ff
fd
7
6
b
