fb
4
1
3
fe
4
1
0
4
4
4
fd
1
fb
5
fe
fc
ff
ff
4
fb
fb
fc
fc
fe
fc
4
fc
1
fc
fe
fc
fb
fe
5
fd
fe
ff
3
ff
fd
0
4
fe
4
fb
fb
ff
5
0
fc
4
fe
1
5
2
5
0
1
fd
4
0
2
2
4
fe
fb
4
fe
fb
fa
0
1
fd
4
4
3
4
fa
fb
0
1
fa
1
fe
2
0
fd
5
fb
fc
fe
1
1
ff
3
fe
0
0
4
fa
1
0
fd
fe
fe
ff
fd
0
3
fa
5
4
fd
1
ff
ff
ff
2
fd
3
1
3
1
fc
fc
5
fd
1
fe
ff
fd
ff
1
3
ff
fe
0
ff
fc
2
2
1
5
3
0
fc
2
4
1
5
ff
fd
1
0
3
4
1
4
4
5
4
ff
0
fb
2
fe
3
4
2
fe
fc
f9
fd
fe
ff
fc
fd
3
fd
2
1
fc
2
2
fe
ff
fd
fa
0
fb
2
0
fe
fe
0
4
0
fb
3
fc
2
1
fa
fd
4
1
3
0
fb
fe
2
2
ff
fd
3
fb
ff
ff
4
fd
0
fc
3
ff
fe
fe
1
2
3
fd
0
fe
6
fd
fb
fe
3
2
0
2
fe
3
fc
0
fb
1
fd
fc
5
5
3
4
fd
fb
fe
ff
fe
1
3
4
4
ff
3
1
2
fb
3
fc
ff
fd
fb
fe
1
fa
2
fe
ff
f9
fc
3
ff
3
ff
ff
4
fd
ff
1
fc
2
3
ff
3
1
fd
4
4
1
fc
fa
fe
5
fd
fd
fc
fd
fb
3
2
0
3
3
fe
fc
fe
fe
1
2
4
0
0
0
fb
4
ff
1
2
2
2
fe
fb
ff
0
0
fb
5
1
ff
0
3
fc
ff
3
fd
fc
fd
fc
fb
ff
fc
0
2
0
fa
5
0
fb
3
fd
fe
fc
1
1
fe
3
2
ff
1
fd
ff
fe
fb
0
4
1
1
fe
2
fd
fc
5
1
1
fa
fa
fb
0
4
4
3
fb
2
2
3
3
1
ff
fc
fd
1
2
1
fe
ff
1
0
0
3
fd
fc
fd
ff
3
fb
fd
fd
fd
fc
0
3
fa
fb
fe
fb
fa
fd
3
fe
1
ff
ff
1
3
fc
fd
4
fc
fe
1
1
0
f9
4
fb
fb
ff
3
fe
fe
0
fb
3
1
2
4
0
fe
1
0
3
fd
ff
0
1
ff
fc
0
fa
3
0
fc
4
4
ff
4
fb
fc
2
0
1
2
fc
fb
2
2
2
fa
4
fe
0
4
fe
6
ff
0
3
fc
fd
5
5
fc
4
0
fc
fd
4
fc
fc
fd
5
2
fc
3
2
fd
2
fc
2
fc
fd
4
fb
ff
0
fc
fb
0
1
fc
fd
ff
fc
2
5
fc
3
ff
fb
fe
3
ff
2
fd
3
fb
fc
fc
fb
1
0
ff
fd
3
2
2
ff
0
fe
1
3
0
3
fc
1
fc
ff
4
fc
fd
fd
4
fc
0
fc
fd
ff
fb
fe
ff
1
fc
fd
fc
3
fb
fe
2
1
fe
5
3
fe
ff
fe
fd
fd
fa
ff
ff
1
4
4
ff
2
fd
1
4
0
2
4
1
2
fc
fc
f9
4
fb
1
ff
2
5
4
1
1
fe
1
3
2
4
4
fe
0
ff
5
ff
fd
fc
ff
2
fd
5
1
0
fc
2
3
4
fe
fd
3
ff
fe
1
fb
2
5
fe
3
2
fc
3
2
fd
fc
fc
5
5
fe
4
5
fe
2
4
fa
fb
fe
2
ff
5
6
ff
fb
6
fa
fd
fe
1
fe
2
fc
3
ff
ff
fe
fe
ff
fe
2
3
fc
fe
0
ff
3
2
1
3
5
1
fe
1
fa
4
fa
3
5
fb
fd
ff
3
4
0
fe
3
fe
fa
fe
ff
0
0
ff
2
5
3
fe
2
1
0
fd
0
6
fd
fe
4
fe
fc
fd
4
3
ff
4
3
2
4
4
fd
fb
3
fd
ff
fe
fb
fe
fe
fd
fe
f9
fc
fd
fd
fc
1
2
0
0
0
3
4
6
5
0
4
ff
4
fe
2
fa
1
fa
fd
fa
fc
fa
1
fc
5
1
ff
fe
1
fd
1
2
2
1
fd
3
fe
fc
3
fc
5
1
2
0
3
fe
1
5
fd
fe
3
ff
fd
fc
ff
7
fe
fd
4
1
fc
fd
fd
1
0
ff
ff
ff
0
3
fd
4
0
4
4
0
3
ff
fa
1
3
1
2
fd
f9
ff
1
4
0
fc
fe
4
fc
fc
5
fc
fe
ff
fd
fd
ff
0
fc
fd
2
1
2
1
ff
ff
0
fd
fe
fe
fe
fc
4
5
fe
ff
fa
3
fc
fd
ff
fc
4
5
2
ff
3
fd
2
fc
6
ff
4
fd
ff
fe
f9
5
fa
1
4
0
fa
fd
fa
0
fe
fc
fa
fd
2
5
4
2
ff
fc
1
2
3
2
4
1
1
0
fa
3
1
fb
1
ff
ff
fb
5
4
fd
ff
fd
fc
fd
1
fe
fd
2
0
5
ff
1
3
fe
3
3
3
3
3
fe
4
0
ff
ff
fc
fa
fe
5
fb
1
fe
3
fa
f9
1
3
ff
fe
0
fb
3
fd
4
fe
ff
fe
4
3
fd
1
fe
fc
0
3
0
ff
4
2
ff
ff
5
6
fe
fb
fc
ff
0
fb
4
fc
fc
fb
2
ff
6
ff
3
1
fb
4
0
5
6
fe
f9
fe
6
0
fc
5
3
0
3
6
fc
3
1
fc
fd
ff
fa
fb
3
0
2
4
ff
fe
1
fc
ff
3
fd
2
fb
fb
1
fe
3
fe
1
3
ff
fa
0
ff
1
3
fe
2
2
ff
fd
3
fc
6
fc
4
fd
0
3
0
2
fb
fe
fd
fd
2
ff
0
0
ff
fa
ff
0
fc
ff
2
0
fc
fe
fd
fc
3
3
2
0
fb
1
1
fe
5
ff
0
ff
1
fc
ff
fe
4
fd
4
f9
4
0
fc
4
fe
fe
ff
ff
5
fe
4
0
fd
0
0
5
4
0
fc
5
fd
4
fb
4
fc
2
2
fc
5
5
1
fc
5
fc
2
fb
fb
fc
2
fd
1
fb
fe
0
2
3
fb
fc
0
4
fd
3
4
fe
fc
3
0
7
3
0
fb
0
0
1
fc
fe
1
4
1
3
2
0
fd
fb
2
fc
fb
fd
fd
fc
2
0
0
fc
3
ff
fa
fd
3
ff
fd
1
6
fe
fd
fc
fd
6
3
1
ff
3
ff
0
1
1
fc
fc
fd
ff
0
0
3
3
fe
3
fe
0
1
fc
3
ff
5
2
3
4
6
0
1
fb
1
2
fe
fc
4
5
4
4
ff
fe
fc
1
ff
2
0
fd
3
3
0
5
2
ff
ff
4
4
fd
fe
fc
4
5
fe
0
fb
3
ff
fe
fd
2
fa
0
4
fe
1
4
fd
5
fe
3
2
fe
fb
fa
fd
ff
3
2
0
0
fa
0
0
ff
fc
4
5
fc
fc
fc
4
fd
4
fd
fc
fd
3
0
3
3
4
3
fe
1
ff
0
1
3
fd
5
4
4
4
fe
fc
3
2
3
fe
3
fe
1
0
4
ff
2
4
5
5
ff
fc
1
1
3
4
fb
fb
fc
3
5
fd
2
0
fe
fb
0
ff
fd
fe
fe
ff
2
2
fd
4
ff
fc
ff
fe
fc
5
fc
ff
0
1
2
3
fc
fd
2
fc
ff
fe
fc
fd
4
fe
ff
fe
3
ff
4
6
fd
ff
2
ff
ff
fc
4
3
fd
fd
0
0
fe
5
0
6
4
fd
5
fd
5
ff
0
fc
0
2
3
4
fd
4
fb
fa
fd
0
2
4
fe
4
fd
0
0
3
5
0
3
0
4
3
fd
3
fe
0
ff
1
fe
4
fb
fa
1
ff
3
ff
fe
ff
fe
0
4
2
fc
5
ff
1
1
fb
fe
1
1
1
1
4
1
3
0
5
fc
3
3
2
fe
3
fe
4
fe
fe
4
2
fb
3
0
fc
6
fe
5
3
fe
4
6
5
5
0
fe
ff
ff
fb
fd
fe
3
3
0
fc
4
fd
3
3
0
2
ff
fc
3
fa
fe
fe
2
ff
fd
0
5
1
fb
0
4
fd
1
1
ff
fd
fe
ff
fd
ff
fb
ff
fb
4
fe
4
fd
fd
fc
fe
5
fd
fe
4
fd
4
ff
3
fd
fb
fe
fe
2
2
3
fe
2
2
3
0
fd
fc
fd
0
fe
3
fe
1
4
ff
3
fd
4
1
2
0
fd
2
4
5
fd
fc
2
4
4
ff
fd
4
3
3
fd
1
ff
fb
3
2
fe
1
5
fc
fc
ff
fc
fd
fe
3
0
ff
fd
fd
fc
3
0
3
fb
0
3
3
3
fd
1
ff
3
1
fd
fe
fb
4
6
fb
4
fd
fc
1
fb
fd
2
fe
3
fe
2
ff
0
5
fb
5
0
fb
fe
4
1
1
4
ff
fe
0
fb
fb
1
4
fe
fe
ff
0
5
ff
0
fc
fc
0
1
ff
3
5
6
3
6
fe
2
fd
fe
1
1
fe
2
fb
fb
f9
4
4
2
4
4
ff
fd
5
ff
4
fe
fd
fc
1
3
fe
0
fe
2
fc
0
4
fd
2
fe
1
fc
ff
3
5
1
ff
fa
5
ff
fb
fc
4
2
fe
6
1
fb
ff
fb
1
ff
3
fb
fb
4
5
ff
6
2
ff
ff
5
0
ff
6
fc
fc
fd
fc
fe
ff
0
2
fc
2
3
6
3
ff
ff
fd
fb
fc
ff
4
ff
fb
2
1
0
0
3
3
fa
0
4
fd
4
0
fc
1
4
fc
0
ff
4
fe
4
1
ff
fe
fb
fe
fc
2
fc
4
fd
ff
fd
fb
3
5
fd
0
1
0
0
fc
1
fb
5
1
5
0
2
ff
fd
3
fe
fc
5
2
fc
fe
1
2
fc
2
3
4
5
ff
fc
fd
4
6
1
fe
0
fd
fd
5
4
4
2
3
4
0
fe
fc
fd
fe
4
4
4
fc
fd
fc
1
3
1
fd
fd
fc
fe
2
ff
1
3
fd
ff
4
2
fc
fd
2
3
ff
ff
ff
2
3
5
fa
1
fc
fe
fe
5
0
5
fb
5
ff
fb
2
fc
0
fe
fd
5
fc
ff
0
3
4
1
0
3
1
0
fd
fc
0
fe
0
0
2
5
0
5
fd
1
fc
fb
4
4
fd
fe
1
5
2
1
2
5
2
ff
2
fe
2
4
4
1
4
fe
3
2
6
4
ff
fa
5
ff
fc
0
5
fc
5
fd
fd
fd
fe
4
fc
1
6
3
fd
5
3
fe
fb
1
3
2
1
fb
0
ff
ff
fb
fa
0
1
1
2
fd
4
1
ff
4
0
1
fe
3
0
fb
0
ff
5
5
4
4
3
fe
2
3
2
4
1
5
fa
2
ff
0
fb
5
fb
ff
1
ff
fe
2
fa
0
1
2
fd
fd
fd
fb
fb
ff
4
fa
2
fb
fe
1
3
fb
fc
2
0
fd
fd
fd
6
5
1
fe
fd
3
0
fe
0
1
ff
ff
5
fd
fd
0
fe
fc
ff
5
fe
fd
4
2
0
3
fb
ff
fe
2
ff
ff
2
fb
fa
4
fa
0
fa
2
1
3
fc
5
4
1
5
0
2
4
fd
fe
ff
1
fe
0
4
fd
ff
ff
0
3
5
3
fd
3
fd
ff
ff
1
ff
0
3
ff
4
fd
fc
fb
3
ff
fc
4
3
3
1
fc
3
4
fb
1
1
fa
1
2
fb
4
fe
5
0
2
1
2
ff
3
1
1
0
fd
0
fc
fb
fd
5
fa
1
fc
4
3
0
fe
fe
0
fb
2
fc
ff
4
fe
fe
ff
2
fb
3
fe
6
fe
3
0
fd
4
3
ff
0
fc
3
fe
3
fe
1
fc
6
fb
fd
3
0
3
ff
fe
0
1
fe
5
2
0
fc
fc
4
1
0
fc
1
fb
ff
3
4
0
1
1
ff
fc
1
fc
fd
1
ff
fb
2
ff
1
fd
1
fa
fd
ff
fc
4
fd
3
0
3
2
fd
4
ff
1
fe
6
7
2
ff
2
1
3
4
3
ff
ff
fd
2
3
5
3
ff
1
0
fd
ff
4
fb
0
ff
fb
fb
6
2
1
3
1
fe
3
3
3
1
2
5
0
ff
fe
1
3
ff
1
2
ff
0
5
5
3
4
0
3
fc
2
2
3
2
fd
4
2
fd
fd
3
4
4
0
0
6
ff
4
4
fb
2
2
2
1
6
fb
fc
fd
fc
ff
0
fd
fc
3
3
1
fb
2
fd
0
fb
fe
1
3
ff
5
fe
6
1
ff
0
fc
5
2
ff
1
ff
fc
4
4
4
fb
ff
4
6
fe
3
2
fc
0
fd
4
1
3
2
1
0
fb
4
4
fe
4
0
ff
fc
4
2
4
2
0
1
3
fe
1
fd
4
0
0
3
1
3
4
fb
4
2
ff
fe
fe
3
3
1
3
fd
2
3
2
0
ff
3
4
fe
fa
2
4
fd
fb
fb
3
3
ff
0
3
5
5
0
fb
1
2
2
ff
fe
2
5
fd
fc
fe
ff
2
fd
4
0
1
fa
5
fb
fd
fe
fd
2
fd
fc
4
fe
fd
fe
3
2
3
1
3
3
2
4
fe
fe
6
1
6
fd
0
0
fd
5
fc
fc
0
fd
4
fb
0
2
5
1
ff
ff
ff
fd
fc
fc
fd
0
fe
ff
5
ff
2
fe
ff
fb
fe
3
4
fd
fe
4
ff
5
fc
ff
4
ff
3
2
ff
fc
fc
fd
fc
4
0
fb
fc
fb
2
5
0
2
fd
fd
2
5
1
ff
6
ff
6
2
2
fb
fb
fb
fd
ff
fd
fe
3
fc
ff
4
fe
fb
fe
fd
fd
fc
1
4
2
1
2
5
fe
fd
fe
0
fc
4
2
2
fd
ff
3
fe
fb
fa
6
fd
2
ff
fb
2
fe
fa
fb
5
fc
fd
5
3
2
3
3
fc
f9
fb
0
2
0
3
2
1
4
fc
fe
4
5
2
fc
0
6
1
fc
2
fc
fd
0
3
3
1
0
1
fd
2
4
2
fe
2
fc
fc
1
3
fb
fd
fe
fe
fe
3
2
4
fe
4
4
3
1
fc
fc
4
fe
fe
5
3
4
ff
fd
fa
3
4
fc
fb
fb
0
fc
fc
4
fc
0
fb
fd
0
fe
4
fc
0
fe
3
3
fc
0
3
3
ff
fe
fd
4
fc
fb
fc
fb
2
ff
2
fe
ff
4
6
4
5
0
3
fb
ff
fe
0
1
5
1
4
6
fe
fc
1
ff
ff
0
4
fe
2
fe
2
fd
fb
fe
1
3
fd
fd
6
0
ff
2
ff
3
ff
4
4
2
4
fc
ff
fd
3
fb
fe
ff
fd
0
ff
2
ff
fd
fb
1
ff
fe
1
4
fd
fe
1
fb
fd
4
fd
0
ff
4
fd
fd
5
7
6
5
ff
6
0
2
2
4
fc
5
1
3
5
0
ff
4
3
fc
4
fe
fc
5
5
fc
fc
5
3
2
2
fe
fe
4
4
fe
ff
ff
2
1
fd
1
1
fb
fe
fb
fb
fe
fb
0
ff
2
1
3
3
6
fd
fd
4
1
ff
0
fc
fe
1
fd
2
ff
2
fc
fc
3
ff
5
4
4
1
2
ff
1
fc
fe
1
fc
1
0
fb
ff
4
0
fd
1
fc
fe
fc
2
fc
fa
1
5
5
fc
1
fc
fc
ff
4
ff
1
0
fc
fa
fe
1
fc
fa
fc
fb
fb
fc
2
4
fd
fe
4
5
fc
2
ff
fe
5
ff
fe
fb
fb
2
1
ff
fb
0
3
0
fb
0
2
4
3
fe
4
fe
fe
ff
2
5
fc
fb
1
0
fc
fd
3
fd
6
3
fb
fd
fe
ff
2
ff
fc
4
ff
fc
fd
3
fd
ff
4
1
3
fd
3
fc
fc
0
5
ff
1
fa
fc
4
fe
ff
1
2
0
2
fd
4
4
4
fc
fe
1
2
fd
2
fe
fe
5
fd
ff
2
fe
4
5
fc
fc
0
ff
1
fc
fb
2
4
2
3
2
2
fe
ff
0
2
5
fe
fd
1
2
1
fd
3
4
5
fd
ff
fc
3
2
fb
1
fc
fd
fa
fe
ff
ff
2
1
4
4
fb
2
fc
fc
fd
0
0
2
1
2
fb
fe
1
ff
fc
4
fd
fb
0
4
4
3
fd
1
fd
fc
fb
ff
fc
0
2
fc
3
2
fc
5
ff
fe
fb
fe
fc
ff
fa
fa
fe
fc
fa
2
fe
2
fc
3
1
2
1
6
fd
fb
fc
3
fa
3
1
fd
1
0
fc
fb
1
2
fa
1
0
fc
4
1
fe
fc
fd
3
0
fa
fb
ff
1
fb
0
fb
4
ff
1
2
fb
fd
fd
ff
fe
2
1
5
1
2
2
fe
4
3
fd
fe
fe
5
3
fa
3
fc
fe
fd
ff
3
fe
fc
fc
1
0
1
1
ff
fd
fc
fe
0
4
fc
fc
1
fa
1
5
fd
3
2
1
1
3
0
3
fd
fe
fb
0
6
0
0
4
ff
fc
2
3
5
fe
4
fc
0
fb
fd
4
fe
fb
4
fb
fd
4
4
1
4
fc
3
fe
fc
ff
2
4
5
1
fb
0
0
1
fb
fd
fe
fb
fa
4
fa
fc
fe
1
fb
2
fe
2
0
5
fb
1
fe
fd
3
0
4
3
3
fe
fd
fd
fc
3
fb
4
fd
ff
2
fb
3
2
fe
2
ff
ff
0
fa
fc
0
4
ff
fd
fe
fc
2
fd
fb
0
1
fc
fe
4
1
0
0
3
2
fe
ff
2
1
1
0
1
fe
ff
3
fe
fd
0
1
5
0
fd
0
4
ff
5
2
ff
fe
1
fe
fe
fc
fb
3
fd
2
4
0
1
4
fc
fd
fd
3
1
ff
2
2
2
2
ff
1
fe
2
5
fa
fe
fb
fb
fc
0
fe
ff
fc
fd
0
2
0
1
fd
0
fd
2
0
fc
6
1
fe
fc
fa
fc
1
4
fb
fb
fe
2
fe
fd
fb
ff
2
fe
fc
fb
ff
fc
fd
ff
0
0
fd
5
1
4
2
fc
fd
4
0
0
fd
fc
fb
fd
2
3
0
fc
3
4
fa
1
1
ff
fd
5
fb
fe
0
fb
2
5
f9
0
fd
fc
4
fd
3
fe
fc
5
5
1
ff
3
fe
fe
2
4
fd
ff
0
0
fb
fc
3
2
fc
fe
fc
3
3
ff
6
3
fc
3
1
ff
fb
3
1
fa
fd
0
3
2
2
4
4
1
4
1
4
fe
fa
fe
2
5
0
fe
3
fc
2
fe
2
ff
fe
4
1
fe
fe
0
fe
ff
fe
2
1
1
fa
1
ff
2
fd
1
1
3
5
fd
ff
fb
5
2
fb
3
0
fd
0
0
3
fe
fe
3
3
1
3
0
fe
fd
1
ff
1
6
3
3
0
1
fd
fb
fc
fc
0
1
4
fa
2
5
3
3
6
fe
fa
fd
fc
fc
1
2
3
0
2
ff
0
0
fa
fb
5
ff
3
3
0
fb
1
3
fe
0
1
fc
0
fc
fd
5
0
0
fc
2
fc
fe
fc
1
fa
1
fe
fa
4
3
ff
fe
4
1
4
fb
2
6
6
fc
4
2
4
fc
fc
fe
fb
2
fe
5
4
fc
fd
fb
1
fc
fe
fc
5
fd
4
fc
3
4
fc
fa
0
ff
ff
fe
fd
fe
2
fd
fd
fd
ff
ff
fb
fc
ff
fe
ff
0
0
3
0
fd
fc
2
fb
3
2
ff
1
1
5
4
fe
3
0
ff
ff
fc
fe
3
0
fd
fc
fc
1
fd
2
fe
fc
fc
fe
5
2
fd
4
ff
1
2
3
fc
fb
2
4
fc
fc
fc
fc
fa
fb
ff
ff
3
5
1
2
2
fd
1
2
ff
2
5
fd
5
fc
fd
3
2
fd
fa
0
fe
3
3
fd
1
fc
fd
fb
0
3
fd
3
3
3
ff
fd
fd
fb
ff
fd
5
5
1
2
fb
1
fd
fd
3
2
fd
fc
2
fc
5
4
0
fb
1
fd
fc
3
5
2
fe
fd
fd
5
fd
5
5
0
1
3
fc
6
0
1
fa
4
ff
fe
fe
1
0
fe
0
ff
fe
fe
ff
0
fd
1
4
fd
0
fd
2
3
fe
fb
fd
fd
4
fc
0
ff
ff
2
4
fc
ff
fd
fc
4
0
3
fa
2
2
fa
1
4
fa
1
ff
2
fb
6
4
fd
2
2
fe
fc
3
fe
2
fc
fa
3
3
1
fb
0
fd
3
ff
0
4
fe
fb
2
0
fc
ff
2
5
2
1
3
4
fc
0
2
5
fc
fc
4
3
4
4
fb
fc
4
3
5
fa
5
4
0
fd
0
0
ff
fe
2
ff
4
4
fe
3
2
fe
fb
fe
fe
ff
ff
ff
fd
0
3
ff
fe
fb
5
2
2
fe
0
1
fb
fa
ff
fc
0
fb
1
0
fd
4
fc
fd
3
ff
2
fc
fd
2
ff
fe
0
0
6
fd
6
5
0
ff
1
1
fc
3
fd
1
4
fe
fd
0
fc
fa
2
fd
3
fe
fb
fd
fe
4
fe
ff
1
5
fc
ff
fd
fe
3
0
4
fc
1
5
ff
fc
2
0
fb
0
2
fb
4
fd
4
fc
fe
1
1
fc
4
fe
fe
fe
fb
0
4
fc
ff
4
1
fe
fd
fb
2
ff
fd
1
4
3
2
1
1
2
fc
fd
fd
0
ff
5
3
4
4
3
ff
0
fc
ff
fe
fd
fe
0
fc
fc
2
3
fb
0
3
4
fc
1
2
1
fe
fe
fc
2
5
2
1
3
fe
2
fe
fb
ff
ff
ff
2
ff
1
4
fb
0
fd
4
ff
5
0
3
4
fc
fc
fe
fe
fe
5
fa
fe
fd
1
0
fc
fa
3
4
4
fd
4
1
fa
2
3
fb
fb
fb
fe
fd
fd
fd
fd
1
fc
fe
fc
0
fd
3
4
fb
0
fc
4
5
4
fe
1
0
fc
f9
fe
fb
fb
fd
2
fb
ff
ff
1
4
fb
fa
fa
4
2
ff
0
0
2
ff
1
ff
0
0
fd
fd
fa
1
3
fd
3
5
5
4
1
3
1
ff
5
0
2
3
ff
fe
fb
fc
1
2
2
5
fa
4
5
ff
ff
fe
4
1
4
4
3
fd
fe
3
5
fc
fe
2
fa
1
3
ff
1
5
2
fd
fd
4
ff
5
1
fe
1
fb
4
2
5
0
3
3
fe
fe
5
0
3
fe
3
fd
0
5
fb
5
6
fd
4
2
1
fb
fc
2
5
fd
0
3
0
3
ff
ff
5
fb
3
4
ff
fc
2
2
1
ff
1
fe
2
fc
fd
ff
fd
fd
2
4
fa
1
4
ff
0
fb
2
4
fc
1
fc
4
1
fc
fc
fe
fc
2
2
fc
2
fd
3
2
0
3
3
fc
fc
fd
3
fc
1
fe
fd
fc
2
2
2
4
2
5
fc
0
1
3
3
4
5
0
1
1
1
fa
fd
3
2
3
fb
3
fd
4
1
2
fc
5
ff
ff
fd
fd
fe
ff
3
fb
fe
2
0
4
0
fe
2
ff
0
fd
4
ff
2
5
4
fe
fd
fe
5
fb
0
fd
fd
4
ff
fc
0
fd
fb
3
3
fe
3
fe
1
2
3
fa
3
2
fb
fc
1
fc
fb
fe
2
1
4
ff
2
fc
4
0
5
0
1
fb
fe
4
2
4
fa
2
0
5
1
1
1
fc
fc
2
fe
fd
fc
fe
fa
fd
2
1
5
0
3
1
fe
1
fb
5
fe
fb
2
1
ff
fd
fa
fb
ff
2
1
0
2
0
f9
fc
4
ff
1
2
fb
4
fe
ff
fa
1
2
2
fc
fe
3
ff
fe
2
5
1
ff
3
fd
0
0
0
4
fb
0
3
1
0
ff
4
5
4
ff
fc
3
4
fd
0
ff
fa
4
2
fd
ff
4
0
fe
0
4
4
0
fc
3
fb
fb
f9
fb
fa
3
2
fb
fe
fd
fb
3
2
0
3
fe
3
0
fe
3
fd
0
fb
4
fb
fb
fb
2
4
6
1
4
fe
fc
ff
1
ff
0
1
1
2
4
fe
0
ff
1
1
1
2
3
4
6
ff
5
ff
fb
4
4
fd
0
0
fd
0
2
ff
fb
5
3
1
3
4
fc
1
1
ff
fd
4
1
0
fe
fd
fe
5
ff
fd
fe
2
0
2
fe
1
fd
4
1
1
fe
3
0
1
1
ff
2
3
5
0
fd
fd
5
fe
ff
3
ff
fe
0
3
0
fd
fb
fe
0
fe
ff
2
fe
0
fd
4
fc
2
5
4
3
fd
0
fc
ff
4
fe
2
fa
fc
fe
fb
fb
fe
1
fd
3
fd
4
fe
5
fe
4
4
fd
fd
0
fb
ff
6
3
2
4
fd
6
0
4
4
0
5
1
fb
ff
fd
ff
0
1
ff
1
fc
0
1
0
fa
fc
1
ff
2
3
4
4
0
6
4
6
1
2
fc
3
fd
0
fc
fd
ff
fb
fd
1
4
1
3
5
fd
1
0
fe
3
ff
4
4
1
3
1
0
fd
3
fe
5
4
0
0
fa
3
3
ff
fc
fb
3
f9
0
1
0
5
2
ff
5
5
ff
4
fd
6
fe
4
6
5
fe
2
fd
ff
0
fe
6
2
1
5
2
fe
fd
3
1
1
4
fb
fc
fb
fd
3
4
1
fc
1
fb
ff
1
fc
fe
1
fe
0
4
fd
2
3
0
3
fc
1
fd
fc
0
0
fc
fa
0
4
fe
fd
1
fc
fe
fd
fc
fd
fd
4
fc
fe
1
fe
0
fa
0
fe
fc
ff
2
fd
fc
0
ff
fc
2
3
fc
4
4
1
2
4
1
6
fd
1
1
ff
fa
fb
0
fe
fe
fe
fb
3
3
4
fc
1
fd
5
fd
3
0
0
6
fb
2
2
3
fd
2
fd
ff
4
6
ff
fe
1
0
3
0
3
3
1
ff
fc
0
fc
1
4
3
3
ff
1
3
3
fd
ff
1
1
fd
ff
2
fc
fe
fc
4
1
3
ff
fc
2
ff
3
fe
ff
2
ff
4
0
fd
ff
fd
fd
4
fb
fd
fd
3
ff
4
fc
fc
2
1
0
fe
0
3
1
fb
0
1
fe
fd
fc
fc
f9
3
ff
ff
fd
3
1
2
1
fb
1
ff
fb
ff
fa
0
f9
1
1
fa
3
fa
2
ff
fb
1
fa
ff
1
fd
ff
fb
1
fd
fc
4
fd
fa
3
2
1
fd
0
fd
fb
2
ff
3
2
3
fe
fd
0
1
fd
fc
fc
1
4
fe
fe
fc
ff
fe
3
fd
0
4
ff
4
fe
0
fe
0
0
2
0
fa
fc
3
fc
fe
fd
3
0
fc
3
ff
4
0
0
fb
2
0
5
fe
fd
1
fe
3
1
3
3
fd
1
1
fa
fe
6
fc
1
fb
1
ff
fc
3
ff
ff
ff
3
3
4
0
4
ff
fc
fc
fb
fd
fb
2
0
fd
fc
fd
fb
1
fc
ff
ff
0
1
5
3
ff
fa
3
ff
fd
ff
4
3
fc
0
2
fe
fb
4
fd
fe
0
ff
3
2
0
0
fc
1
fb
3
fc
4
1
fc
fd
fc
3
6
0
fc
2
1
fe
3
fe
4
fd
0
fa
fb
0
ff
3
1
2
ff
fe
3
fc
5
6
1
0
fe
fd
2
fd
ff
0
6
fe
fc
fc
0
fe
fc
2
2
3
fd
ff
3
0
0
3
f9
3
4
1
fb
ff
5
fc
ff
3
fe
2
fb
2
3
0
4
5
4
fe
fa
2
fc
4
0
fc
2
5
1
fe
1
fe
3
fe
fe
0
fd
fe
6
fc
fc
3
3
ff
1
2
0
fc
fb
5
0
fe
4
4
4
fe
fd
ff
fe
1
2
fe
fb
fc
fe
0
0
2
ff
fd
ff
ff
fe
fa
fd
0
4
fb
3
0
2
fa
1
fc
fe
fd
2
fa
fb
1
1
4
5
5
fb
0
5
3
fb
4
2
2
fd
4
fb
fc
4
0
fd
1
2
ff
0
2
fa
0
2
ff
fe
fb
1
4
3
4
1
0
fd
3
2
fe
1
3
fe
3
fe
fd
1
ff
2
4
0
1
2
6
fd
1
0
fc
fc
fd
fd
0
4
2
fe
6
fd
2
ff
ff
2
f9
4
fc
ff
0
fb
ff
0
ff
ff
4
1
1
5
2
3
fe
fc
0
ff
fd
fe
4
fe
fd
fd
fc
1
ff
2
fb
fc
1
fa
fe
0
4
fc
fc
3
fd
0
fd
3
fc
fd
3
fd
6
ff
0
fd
fb
fb
fc
0
1
5
3
2
1
ff
0
5
6
fd
fc
5
5
fd
2
fa
fb
3
2
2
fc
fb
0
fd
5
fe
2
fd
0
4
4
4
4
0
0
4
5
0
1
ff
0
0
1
ff
fe
fc
fc
fc
0
0
0
fb
2
0
fc
5
5
ff
0
2
fb
4
3
0
4
0
fc
fc
ff
fe
0
0
5
fe
ff
4
0
3
0
5
ff
ff
fd
0
fe
4
2
0
1
4
fb
1
fb
5
ff
2
3
3
fd
1
3
4
fc
fc
fb
fd
0
4
fb
fe
4
3
1
fd
0
ff
ff
0
ff
2
5
ff
2
5
3
fc
0
0
fc
0
4
1
fb
fc
fe
ff
0
2
1
2
fc
fb
2
fd
2
2
0
fe
fb
0
4
0
fe
0
fe
fe
fd
2
3
fe
fb
fc
1
fe
4
ff
ff
4
4
3
2
fc
3
2
0
4
ff
ff
fe
fc
4
1
0
2
fe
3
5
1
1
0
3
fd
fe
fb
f9
0
3
fc
4
fe
ff
0
0
fb
3
2
fd
5
6
1
fe
fc
fb
fe
ff
fd
ff
fb
3
fb
fc
ff
ff
0
6
0
5
1
3
fc
fe
1
ff
fd
fd
0
4
0
ff
fa
3
3
fc
fc
2
4
2
3
fc
fd
ff
ff
0
ff
fe
fe
fd
fc
6
fe
fc
2
1
ff
6
fe
6
5
fd
2
2
fd
6
6
ff
4
fe
6
4
0
fc
4
0
fc
5
fc
3
fa
fd
ff
fc
3
1
4
fd
ff
3
0
fc
1
4
1
fb
fe
3
ff
fd
4
3
1
4
fb
5
fa
3
ff
ff
fc
3
3
fe
fe
fd
fd
1
1
fe
ff
f9
fd
1
6
fe
fc
1
0
1
0
1
3
fb
2
1
2
2
0
ff
6
7
5
ff
0
fd
fc
4
fb
fe
ff
2
fc
3
fe
0
1
3
fc
ff
ff
1
0
fe
fc
0
fc
fc
ff
fb
fb
2
1
3
fe
fc
3
fc
fd
ff
6
fd
fd
0
6
fc
1
fb
fd
4
ff
fa
0
4
fd
fd
ff
fe
0
3
3
3
fb
5
2
3
3
0
f9
fc
fe
1
fe
0
fc
fd
2
fb
fe
fd
fd
ff
4
fd
ff
fe
4
fd
fc
ff
fc
0
3
3
fe
ff
fc
3
5
0
1
ff
2
fd
4
0
fa
1
5
4
0
0
ff
0
3
0
2
fb
fc
3
5
0
fc
1
ff
1
fa
1
fc
fb
fe
1
3
1
fc
f9
3
fa
3
0
fc
fe
fc
8
6
2
1
4
4
fc
4
1
ff
3
fb
2
ff
3
fd
1
6
fc
fe
3
ff
4
4
fc
fc
0
4
fd
fc
3
3
fe
2
fd
4
fb
6
3
fb
fd
fc
0
5
5
ff
ff
1
fb
2
fd
ff
ff
fd
fb
0
fe
4
3
ff
5
fe
2
1
5
2
0
fe
1
5
fb
ff
3
fb
fb
fe
fb
2
5
3
fb
fe
3
ff
2
fc
5
fc
fd
ff
0
3
fa
fc
fd
fc
4
fe
3
5
fb
fa
fe
ff
fa
5
fd
fe
2
fb
fb
fe
fc
fd
fe
fb
ff
fe
fd
5
0
0
1
3
fb
fe
fb
fc
fe
fb
fc
fd
4
3
1
fc
fa
ff
1
4
3
fd
2
4
fd
1
3
fe
4
ff
3
fd
ff
4
3
fe
1
6
fe
1
1
7
5
fd
0
ff
fd
4
fe
ff
4
5
0
ff
fc
fc
1
3
fb
fb
0
5
fb
4
ff
0
5
fb
fe
2
1
fa
4
4
fd
fd
fc
fb
fc
fb
fc
fd
ff
1
4
fd
5
fe
fe
fd
1
1
fb
4
fe
3
5
fd
fd
2
ff
1
3
3
fe
fe
5
ff
fe
fb
2
fc
3
1
fa
fe
ff
ff
fe
0
ff
4
fc
fb
0
0
fb
2
2
7
fc
ff
ff
fb
1
ff
fb
0
2
4
1
fe
2
3
4
f9
0
fc
fc
ff
fe
ff
2
fc
2
fc
ff
0
1
fb
ff
ff
4
0
fe
1
4
fc
fd
3
1
fe
fd
fd
0
ff
2
5
5
fb
fc
fe
fd
3
4
fa
fd
7
ff
fd
ff
2
ff
2
5
fc
fd
2
fd
ff
2
fa
0
4
f7
fb
1
f8
fe
ff
0
4
fe
fd
fd
1
fd
2
1
4
1
0
2
fd
fd
0
1
0
fd
fd
fa
0
2
3
f9
1
fa
3
ff
fb
fd
fe
0
5
ff
5
fb
fc
4
4
2
ff
0
fe
ff
5
2
fa
ff
fe
fd
fc
5
fc
fd
f9
fb
ff
5
4
ff
2
ff
fd
fb
fe
fc
fc
5
fc
fd
5
3
0
4
3
fd
4
1
0
ff
4
fb
4
0
ff
fb
fd
3
fd
fe
2
fc
fc
2
1
3
3
fb
5
ff
0
0
1
fc
0
5
fb
fc
2
1
fc
5
ff
1
3
4
fc
2
0
3
ff
fe
fc
ff
ff
fb
1
fb
fd
3
0
fd
5
fc
fd
fd
fc
fd
2
fb
4
1
fc
fd
4
4
0
fc
fa
1
6
2
0
2
0
5
4
ff
0
fc
3
6
fd
6
fa
4
ff
3
0
1
1
5
3
3
3
f8
2
3
0
fe
1
1
fe
fb
4
6
6
fc
6
5
5
fb
3
fd
fe
1
fe
2
0
ff
4
fb
fc
4
2
2
1
4
ff
fc
5
5
fc
5
3
1
ff
2
fc
2
4
6
1
fb
0
0
fc
0
0
3
fd
1
3
0
fd
fe
f9
ff
3
3
6
3
1
0
2
fc
2
2
fb
fe
fa
fe
3
fd
0
2
fc
fe
1
5
0
0
1
4
5
0
5
ff
fd
4
1
fc
fe
fe
2
fb
fd
4
5
6
3
5
3
1
0
fd
0
3
fd
1
fc
2
ff
7
fb
ff
3
0
fb
2
2
fa
4
fb
2
fa
ff
fc
fc
3
2
fb
3
1
2
4
3
fd
fd
fd
ff
1
4
4
fc
2
0
fe
0
fd
4
3
fe
4
2
ff
4
fb
ff
5
fd
fd
3
0
5
1
1
ff
3
4
2
1
6
5
6
fd
4
fe
1
2
3
fe
fd
0
fe
0
ff
3
4
5
0
4
1
1
2
fe
fc
3
6
fd
ff
2
fa
fa
4
2
2
2
1
fd
fd
2
4
3
0
1
3
ff
fc
fd
0
0
ff
fe
0
ff
fe
0
fb
ff
7
0
ff
0
fe
fe
3
4
5
5
fe
3
fd
fe
5
1
3
fd
fe
3
1
ff
0
fd
3
3
0
fe
6
1
5
2
5
fc
fe
1
3
3
1
fb
fa
0
fe
fd
fb
3
0
ff
fe
ff
fd
fc
fb
1
4
fa
ff
fc
fc
2
fe
ff
1
fc
0
ff
fe
2
fd
fb
2
fc
5
fe
0
fb
fa
3
0
fc
fa
0
1
4
1
fd
fd
1
2
ff
4
5
fd
fe
4
0
3
fe
fc
3
0
2
1
0
2
fa
3
fb
4
0
fd
1
2
3
3
0
3
3
fa
1
fe
1
ff
ff
fb
1
fd
5
fb
5
0
3
fc
fd
ff
0
fd
fe
1
ff
fe
fb
fe
fc
ff
ff
3
ff
0
5
0
0
4
2
fe
0
3
fe
0
3
1
5
fe
fb
fd
1
fa
1
0
fa
fd
5
fb
fc
fd
fd
fc
fc
ff
fb
2
2
0
ff
5
0
4
ff
ff
3
2
3
0
fd
2
0
1
fa
fe
fd
fb
1
fd
2
fb
fc
3
2
fd
5
2
0
fb
0
1
fd
fa
1
0
fb
ff
3
2
fc
fd
4
fd
ff
1
2
0
1
fa
fa
5
fc
fb
fd
0
0
4
4
fe
0
fc
fc
2
6
fc
5
4
fc
5
1
fc
fd
0
fd
fe
fe
fb
fa
1
0
3
fc
1
2
fc
2
3
2
4
fe
fc
0
3
0
2
ff
2
1
0
4
4
0
fc
1
fd
ff
2
2
2
2
5
ff
fe
5
fb
fc
1
3
ff
1
fe
fc
f9
5
4
ff
5
ff
2
1
fd
fa
0
fc
fc
5
fc
ff
3
2
ff
3
2
3
4
4
2
fc
2
0
fb
5
1
4
4
fd
4
fc
fa
4
2
0
3
5
fd
fd
0
2
fc
4
fc
3
fc
fc
fd
ff
1
fd
ff
fc
fb
1
ff
3
fb
2
fc
ff
fb
fc
ff
4
3
fd
3
fc
1
fe
fa
1
0
3
fe
5
5
fd
2
4
fc
4
1
ff
5
2
ff
ff
fc
fe
1
fc
2
fd
3
2
1
0
4
fe
0
3
8
7
1
fe
2
4
ff
fe
fc
0
2
fc
fd
fc
fe
0
ff
3
2
1
fd
0
4
0
6
ff
4
1
4
0
fe
4
2
0
0
fb
0
0
1
fd
0
ff
0
6
fb
3
fc
fb
4
fe
fe
0
2
fc
0
fc
2
0
0
fd
fd
3
fe
6
2
3
6
3
1
2
fc
fb
2
fc
fc
4
4
0
1
4
fb
fc
3
4
1
2
ff
2
fa
0
fe
fa
2
0
2
fb
2
ff
fc
1
fe
ff
4
ff
fa
5
ff
fc
fd
4
3
fd
5
3
6
fd
1
4
fb
fd
ff
fb
fb
3
5
fd
ff
fb
1
fd
2
fe
ff
1
fc
2
0
fe
4
fc
fd
ff
0
ff
2
fb
4
3
0
5
fd
0
3
3
1
0
0
2
fd
fe
3
6
3
fc
fd
2
1
ff
fe
ff
fe
1
6
5
fd
4
2
6
0
3
ff
0
1
5
0
2
0
3
1
fe
fd
fc
2
4
2
3
fb
2
fb
fb
ff
fb
ff
fb
1
fb
4
0
fc
fc
2
5
4
fe
3
5
fd
5
0
fe
6
0
0
fc
fd
2
fe
1
ff
5
3
0
4
fc
1
4
0
5
5
5
3
fe
4
0
3
3
1
fc
3
fc
fb
fc
fd
1
3
2
ff
fd
3
fb
0
2
fa
fe
0
1
fa
f9
1
fd
fc
1
fb
fd
4
4
1
ff
ff
fe
1
4
fd
1
fb
fc
fe
4
fd
3
3
4
2
ff
0
fa
0
5
3
4
3
1
6
1
fa
ff
3
fa
1
1
5
ff
0
ff
fe
ff
4
1
1
ff
fe
fc
0
1
ff
4
fd
6
5
fd
fd
fd
1
fd
fa
ff
fa
fd
fb
ff
fe
fc
fc
fd
ff
5
fe
fb
fd
fe
0
2
3
1
3
fe
2
fb
fa
1
4
1
fc
fc
5
4
ff
2
fd
0
fd
5
ff
fe
fd
fe
0
fc
2
2
ff
fb
4
2
fd
fe
fc
fc
2
fd
fb
ff
fd
1
3
4
fe
1
1
fe
fc
4
5
2
0
2
4
fc
3
ff
fb
fe
fe
0
ff
fe
0
fd
3
5
4
fd
5
2
fd
1
1
fc
2
1
fd
0
ff
1
0
5
0
4
3
3
5
2
3
fe
0
5
fe
4
fc
fb
3
0
2
4
2
5
fb
3
fe
fc
1
3
fd
ff
4
fe
fc
fe
0
1
2
1
fd
3
fd
ff
2
3
fe
6
ff
fd
ff
6
4
5
0
fb
fe
3
fc
3
2
4
ff
ff
fd
fc
2
fb
fd
fb
fd
1
0
4
fd
4
fe
4
fc
fc
2
2
fd
fd
fe
0
fd
fc
4
2
2
fe
5
0
0
fc
fa
fb
1
fc
fb
ff
fb
fc
0
fe
ff
3
0
fc
1
4
2
fb
fa
1
fe
fd
0
5
0
2
1
fe
5
5
ff
fe
1
5
fe
ff
3
fe
1
5
fe
ff
ff
3
fc
fb
fc
4
3
5
ff
ff
fc
ff
5
2
2
1
fe
4
fd
4
fc
fe
fe
fb
4
2
0
0
5
3
5
0
2
5
3
fb
2
fe
fd
fc
ff
fc
fe
0
3
fd
fe
fe
4
2
fd
ff
2
0
4
4
ff
4
6
3
fc
fd
4
fa
fe
fc
4
1
2
5
ff
0
2
ff
fe
ff
6
fc
fc
4
0
ff
fd
fe
3
5
ff
fe
1
3
0
3
fc
3
fe
fd
1
5
3
3
fe
fa
fd
fc
ff
3
3
fc
fe
1
ff
0
3
1
1
3
0
2
4
5
0
fc
ff
fd
4
fe
fb
1
fc
4
5
1
4
fb
fe
2
0
ff
fe
0
ff
2
fc
fc
fb
fd
fc
4
fd
ff
fd
2
6
5
0
fc
6
3
5
0
fd
6
ff
fe
3
3
3
2
1
ff
0
fc
fd
fe
fc
4
fc
2
4
2
fe
3
5
fd
2
5
0
4
4
1
1
3
2
ff
3
0
fa
0
2
2
4
fe
ff
fd
fd
0
fd
0
1
2
7
3
4
5
3
1
0
4
fc
6
fe
0
7
ff
0
fe
fc
3
3
fe
4
6
2
fd
ff
fe
fd
fc
1
ff
2
1
fe
ff
4
fe
2
fb
ff
fc
4
fe
1
fd
2
fc
2
1
ff
fc
fd
fe
fb
1
fa
fd
4
fe
fc
fe
fb
1
3
0
3
2
6
fe
fc
4
0
ff
3
2
5
2
fc
1
0
5
2
2
fe
ff
ff
2
0
4
fd
fe
fd
6
fd
3
fc
fe
fd
2
2
fb
4
2
fb
3
fc
2
0
6
fe
2
1
2
4
fd
0
1
0
fe
2
fd
fd
0
5
0
0
0
0
4
3
fa
2
fb
fe
fe
2
fd
fd
4
5
1
3
fb
5
1
fc
5
fc
fd
fd
0
0
4
ff
ff
1
fc
fd
fd
fd
3
fb
fd
ff
2
0
2
fe
fe
2
ff
fc
fc
fd
fc
0
1
fe
5
5
2
fe
0
5
0
2
fc
ff
fe
fc
fe
2
5
4
fc
5
0
4
5
4
2
1
fe
1
2
fb
0
fe
fe
0
3
fb
1
fd
fc
ff
1
3
fc
4
fd
0
fe
3
ff
3
0
0
fe
ff
2
3
0
5
4
4
5
fc
6
2
fe
3
4
0
fc
4
fc
ff
5
fe
4
fe
fd
2
5
fd
1
4
1
0
4
3
3
0
0
3
1
6
2
2
5
ff
1
fc
0
fb
fe
ff
3
1
0
4
0
1
fd
4
3
1
0
0
0
0
ff
3
fc
ff
fa
4
1
fb
4
ff
3
1
fe
ff
ff
1
6
3
fd
2
1
5
2
0
ff
f9
0
fd
fb
1
fa
2
fd
2
5
3
ff
fe
0
fc
fe
fe
2
fd
fd
fd
fc
5
1
fc
5
4
2
fb
1
3
0
4
2
5
fd
2
fc
1
2
fe
3
fb
1
fa
2
4
ff
fb
2
fd
fd
fb
3
ff
1
fb
fb
0
2
0
fe
0
2
fd
fe
4
3
fb
fe
fd
2
fe
0
2
4
4
ff
fd
3
ff
0
fe
3
fb
2
3
3
ff
2
fe
2
ff
1
fd
1
ff
fe
ff
ff
1
fd
fc
ff
1
fe
4
3
fe
3
fd
ff
fb
2
ff
3
1
2
5
fe
2
5
4
0
0
0
3
fe
2
fe
ff
0
fe
1
fd
fc
fd
fb
4
fd
fe
5
0
ff
fa
fd
1
fc
fb
4
fe
fe
2
1
fa
1
3
ff
0
0
fd
3
2
fc
1
fa
fb
ff
ff
4
fb
fe
0
fc
3
4
1
2
ff
fe
0
4
ff
fc
fb
0
fd
ff
fd
0
4
2
fe
fb
fc
fd
fd
3
2
3
4
fa
fa
ff
fe
5
3
3
3
2
ff
4
5
6
fb
ff
4
fc
fc
0
fe
5
fc
4
6
fc
4
3
3
fd
7
5
fc
fd
ff
fe
fc
4
2
fe
0
4
1
5
fb
fd
6
fb
3
1
fb
1
2
fa
ff
fb
fb
1
3
0
6
fe
fa
fc
4
fd
fc
fe
1
2
fe
fd
6
ff
3
2
fc
0
fe
ff
fc
fc
fe
0
ff
0
1
2
fd
ff
fb
1
3
0
1
1
fb
fa
1
1
fd
fc
3
0
3
fe
1
fd
4
1
ff
2
fe
ff
fa
ff
3
0
3
fc
3
fd
fb
5
fc
3
0
fc
fc
2
1
fd
0
fe
1
fc
fa
fb
fe
ff
2
0
fd
6
fe
3
5
fd
fc
fd
fc
ff
1
2
fd
fe
1
fb
fd
5
fc
5
2
ff
4
2
ff
0
fc
2
4
0
3
4
1
4
3
fd
2
fb
fc
fb
3
fc
fd
fa
0
2
7
4
fc
5
4
fe
ff
4
3
0
5
fd
fc
1
fd
2
fd
0
0
2
ff
fc
3
0
fd
fd
2
4
fb
1
3
2
1
fb
0
1
fb
fd
ff
3
fe
4
3
6
fe
fe
1
3
fd
0
5
1
1
fc
1
fd
0
3
5
0
4
ff
3
4
0
fd
1
4
2
2
ff
fe
1
4
fe
ff
3
3
fe
1
4
1
ff
1
4
3
fe
3
fd
ff
6
4
0
ff
0
1
ff
fb
5
3
fe
fb
5
fe
5
fe
6
0
fe
2
ff
5
fa
fe
0
fa
2
fe
fd
fa
ff
fb
0
fa
fd
3
fe
4
0
fb
3
0
ff
ff
3
fa
4
ff
2
ff
4
fb
3
2
5
fb
4
fd
fc
fe
0
fe
2
3
fc
ff
fd
5
3
fb
f9
1
fd
fb
fd
ff
4
3
3
1
4
fc
0
2
4
fb
ff
0
1
5
3
0
fe
1
1
0
fc
fa
fe
fa
1
4
3
fe
2
1
fa
fd
fd
4
6
fc
fc
2
fe
fd
fb
fd
fe
0
6
1
2
6
fe
0
6
fb
0
ff
fb
2
ff
fe
4
fe
3
0
2
fa
5
4
ff
4
fb
1
fd
1
fe
0
0
4
fd
5
fc
2
4
fd
fe
3
fd
fc
1
fd
fc
1
fd
3
0
fe
fe
3
fb
ff
0
2
fd
fb
2
3
ff
fe
fd
fd
fe
5
ff
4
1
fc
fd
fe
7
0
1
7
fc
1
fe
3
4
0
0
1
fc
ff
ff
fe
4
2
ff
2
fb
3
1
fc
fe
ff
2
fe
fd
fd
fd
5
0
fa
3
4
fd
0
3
ff
3
5
fe
3
0
4
1
fe
0
fe
ff
6
1
3
ff
5
ff
0
ff
4
fe
6
fd
fa
fe
fd
fc
fd
3
2
4
1
fd
1
fe
fc
3
2
2
fc
0
4
0
f9
fb
2
3
fe
5
ff
fb
6
fd
fb
0
5
2
fc
fd
ff
fd
1
fc
fd
3
0
1
1
fc
0
3
1
fc
4
1
2
2
4
2
0
ff
fe
fc
5
fe
1
fe
fe
fe
5
2
fc
3
fd
fd
4
0
fe
2
fd
fc
ff
fd
fe
0
fd
6
7
1
1
fa
fe
5
5
2
1
fd
f8
fb
0
2
fe
1
0
f9
1
fb
fc
fc
0
2
0
ff
5
6
2
4
ff
fc
fd
5
ff
2
1
ff
0
3
fd
fb
4
f7
fe
3
1
fe
fd
1
fd
fd
1
fd
fb
fa
fd
fc
fb
fe
fb
fe
1
fc
fb
4
0
fd
ff
fb
4
2
5
5
fb
2
fd
3
fd
3
fe
fa
fa
4
fc
fa
fe
5
fd
fd
fe
fe
4
2
fe
fc
fe
3
2
2
4
fd
fe
fc
4
ff
fd
1
0
2
0
2
3
0
fd
fc
fd
1
1
5
1
1
fd
fc
0
4
7
fd
4
5
fd
ff
5
ff
4
fe
fe
fb
0
4
ff
ff
2
2
1
2
fd
fe
fa
fb
2
3
fb
1
f9
fd
3
3
ff
1
1
ff
fb
1
fe
fe
4
ff
fc
fb
1
fe
fe
ff
fe
fd
ff
fc
fc
0
3
ff
0
1
4
ff
fd
fe
fc
6
ff
ff
fa
5
fd
ff
2
fe
3
fd
5
5
0
ff
3
fb
1
fe
fc
fb
2
1
1
ff
fe
1
5
2
fb
fe
3
0
0
3
ff
2
fe
4
1
fc
0
0
fe
1
4
5
fe
1
0
2
4
1
ff
4
0
1
fe
fe
2
fa
ff
4
0
2
4
fd
1
ff
1
2
0
fc
1
0
fc
fb
5
1
ff
fe
0
fb
1
fb
fc
fb
1
4
fc
4
ff
fe
fd
4
ff
4
3
3
fc
fc
4
5
fc
ff
2
3
ff
4
fb
fb
fe
2
0
5
1
2
0
fc
fc
fc
ff
3
5
2
5
fe
4
4
2
3
1
2
4
fe
fb
fd
fd
fc
ff
fb
fd
0
2
ff
1
1
fc
5
fe
fd
6
fd
0
1
6
0
0
ff
5
4
6
fe
4
2
fd
0
fc
4
4
fb
fc
4
3
1
ff
fc
fd
ff
4
fe
4
ff
ff
fd
3
fb
fb
1
fb
2
fd
5
fc
fe
4
fe
0
ff
fd
2
fc
0
2
1
5
fa
1
3
fb
fe
1
ff
0
3
0
6
fd
fc
2
3
fb
fe
f9
fb
fb
3
0
5
4
fc
fd
fe
0
fc
4
1
5
5
4
ff
fb
0
fb
2
fc
5
fb
1
2
0
1
1
fe
fc
fa
5
4
fc
ff
1
fe
4
fb
2
ff
ff
4
0
3
0
2
0
1
2
fd
fd
ff
0
fd
3
0
4
fd
fb
2
fe
0
4
5
5
ff
2
2
fb
fc
3
5
fe
2
fa
3
fd
fe
3
fe
4
0
fc
4
4
fa
fd
ff
0
1
0
fc
ff
fd
fc
2
0
fb
5
4
2
4
3
fc
1
fb
fc
1
4
6
ff
fe
fd
0
fc
2
3
2
ff
4
3
fb
fd
fb
2
1
3
fd
ff
fa
2
fd
1
1
fd
0
1
fc
fa
4
5
2
4
fc
2
0
3
fb
ff
fb
1
fc
fb
fc
fd
2
4
fa
5
fe
0
5
2
ff
2
3
1
1
2
fb
3
5
fd
3
1
3
fc
3
1
2
2
5
3
4
fe
fa
3
0
2
fc
fb
4
fa
1
2
4
1
ff
3
ff
4
fb
ff
fc
fe
fb
fc
2
fc
0
3
ff
fa
fc
1
5
3
fc
2
1
0
fd
4
ff
5
3
0
1
fc
fb
ff
fe
3
0
fe
2
fc
1
ff
0
ff
fc
3
1
ff
3
5
fc
5
3
fd
fd
fd
ff
0
ff
0
fd
fd
fe
ff
3
4
fc
fd
3
fc
3
ff
fb
7
6
ff
2
2
1
3
3
4
fc
1
0
4
4
fc
fd
1
4
2
fd
2
0
fb
5
0
fb
fe
fe
fa
fa
ff
1
3
fe
fd
1
ff
4
0
fc
3
1
fe
2
fe
fa
0
ff
fd
3
fd
fc
1
0
ff
ff
fc
ff
fd
0
1
fe
4
fe
fc
5
fd
2
0
0
ff
3
2
5
ff
6
0
fe
ff
fe
fc
fb
fc
4
3
3
ff
1
fc
6
4
fd
2
ff
0
4
fd
3
0
1
0
fd
1
2
1
fe
3
fd
fe
6
2
5
3
fd
2
2
fc
ff
fe
0
2
5
ff
4
1
0
3
ff
1
3
0
ff
2
4
4
2
2
fd
4
2
0
1
4
5
5
4
ff
4
3
fe
1
2
fb
fb
fe
5
3
4
0
fd
fc
3
5
fb
fc
0
ff
4
ff
0
2
fc
0
1
2
fc
ff
1
ff
fd
4
fe
0
ff
1
3
2
3
2
0
5
fe
ff
ff
2
fe
2
2
fa
fb
0
fd
0
ff
3
4
ff
1
3
4
3
fe
1
7
5
3
fe
0
4
5
fd
fa
5
5
0
1
2
fd
fc
4
6
5
fd
ff
4
0
2
ff
3
fe
0
fc
1
fe
0
fc
fd
fa
fe
4
fc
ff
fd
6
ff
3
2
fd
6
ff
fd
4
fe
2
fe
fe
ff
1
5
2
0
fe
fe
ff
fd
0
ff
2
0
5
0
ff
ff
fb
fd
fd
fc
1
0
5
ff
3
5
5
fd
4
5
fb
2
2
1
fc
1
ff
fb
fe
1
fc
fb
fc
fa
3
3
fe
3
ff
fd
fb
2
fd
2
0
fe
2
fd
4
0
fe
5
4
0
fc
ff
2
4
fe
fc
fd
fe
1
0
fe
2
fd
3
1
fd
fe
5
3
1
6
2
ff
fd
3
2
fc
5
3
fd
fe
fb
fc
fd
4
4
fe
0
4
1
3
fe
5
fc
fe
2
fa
5
fe
fc
2
fe
2
4
6
3
fe
fb
1
ff
2
fe
2
fc
3
2
fd
ff
0
0
fd
1
5
0
4
1
1
fb
3
fb
fc
fe
2
2
ff
fb
3
1
3
ff
ff
3
6
3
fe
6
1
6
2
5
fc
fd
fd
1
fd
ff
1
fb
0
0
2
fe
4
1
0
5
3
0
5
1
ff
2
3
1
fe
1
fe
fb
1
4
3
2
3
ff
4
0
fd
2
fc
4
5
7
fe
fd
fd
3
2
3
3
0
5
fc
4
1
2
fc
1
2
0
2
1
f9
1
ff
fe
3
fe
1
1
fc
fb
4
5
fe
0
fc
6
3
1
1
fb
0
1
4
0
4
fe
0
3
0
3
2
4
2
3
fc
5
ff
0
5
fc
3
0
fc
3
fe
0
2
1
fb
ff
1
5
3
2
2
fd
5
fd
ff
ff
ff
ff
fd
fc
3
1
ff
4
4
3
0
ff
4
1
1
fe
fe
fc
4
fe
1
3
0
0
7
4
0
1
ff
0
2
1
5
fe
1
6
5
0
5
3
fe
fd
4
fb
1
4
2
fe
4
5
2
fc
1
fc
fc
0
fa
fb
ff
1
0
2
ff
fd
fb
fe
ff
5
fb
fc
fe
ff
fd
3
2
4
5
ff
4
fe
2
fb
0
fd
4
fd
3
fd
4
ff
0
4
fc
fe
3
4
fb
fb
fb
fe
ff
2
fd
fb
5
1
0
3
ff
2
ff
2
ff
3
6
ff
2
4
fd
fa
6
fc
3
1
4
fb
fc
fc
fc
ff
5
fb
4
ff
ff
fe
fd
fe
ff
fb
3
6
5
0
0
1
0
fe
3
0
fc
fb
fc
1
2
4
fe
fd
5
fe
4
fa
fe
fa
0
fd
4
0
1
3
3
0
1
fb
1
2
2
5
5
1
3
fc
fd
fe
1
fe
fd
fd
1
2
fc
fe
fd
4
0
fe
1
4
4
3
4
fc
fd
ff
3
fd
fe
0
1
fc
4
0
3
4
1
2
ff
fd
4
3
3
2
5
4
fb
2
2
0
fd
fe
ff
5
ff
fd
2
ff
5
fc
2
ff
0
fb
1
0
fe
fe
6
3
0
fd
fe
fc
ff
2
ff
fd
ff
fe
fa
4
1
5
ff
fe
ff
fe
fc
2
2
fb
fe
5
fe
1
2
3
fc
4
4
fc
3
5
ff
4
1
fd
5
ff
3
3
0
fd
ff
fb
0
ff
2
fc
ff
fc
fe
5
2
fe
1
2
4
1
0
fb
3
0
0
ff
ff
4
fc
2
ff
4
fc
2
5
2
0
fe
fe
1
fe
5
fb
0
fb
4
1
2
0
fe
5
fc
4
5
fe
fb
4
fb
1
fc
ff
fe
fe
fd
1
3
3
ff
1
fc
3
fd
3
4
fe
3
5
4
fe
ff
1
3
3
fc
3
1
2
fd
3
2
3
1
fd
2
fd
0
ff
0
2
fe
4
1
ff
ff
3
fd
0
3
fe
fa
2
2
5
fe
fc
4
ff
5
ff
fc
7
2
ff
fe
fd
5
2
fc
4
6
4
1
1
ff
5
fe
5
fd
6
ff
1
ff
3
5
3
3
fc
fc
fb
fb
ff
3
1
fd
fe
2
fc
3
3
fb
5
fc
fe
fd
4
fc
0
fd
fa
3
1
fe
4
fc
0
fc
fb
fb
2
fd
fa
2
fc
6
2
fe
1
1
2
0
fd
3
fc
4
0
fe
3
fb
1
3
fe
fe
1
1
1
4
fc
4
3
2
3
fe
ff
fe
fd
1
fb
fb
4
3
fa
3
1
4
4
5
fe
3
ff
3
fe
2
fe
fa
fc
ff
1
fd
3
fb
fd
5
0
0
2
1
1
ff
fd
6
0
1
3
4
4
6
5
4
fe
fe
3
0
fc
fb
3
fd
fd
ff
4
ff
0
5
fd
4
fc
fd
1
fc
fb
0
fa
2
fd
3
fb
2
1
ff
2
ff
4
fb
fc
4
fe
fd
f9
0
fb
fa
fc
5
fc
fb
4
f9
1
2
fa
fd
fc
0
ff
5
1
1
2
fb
fe
fc
3
ff
ff
4
2
6
fb
fd
2
4
5
3
fa
fe
0
4
fe
fe
fc
fe
fe
4
4
3
2
4
fb
ff
3
fd
fe
4
4
ff
3
fe
fe
fe
ff
0
ff
fc
5
4
3
4
0
3
fc
4
ff
2
3
2
2
fe
2
fd
6
1
1
6
fc
6
0
4
2
0
0
3
fe
fe
fd
ff
0
2
2
0
fc
fb
fe
fd
fe
0
ff
fd
fe
fd
0
1
0
0
3
4
1
2
fe
2
1
4
fc
0
4
3
3
fe
fc
fb
ff
fc
0
0
2
3
fa
2
4
0
1
fe
ff
3
fb
5
4
3
fa
4
fc
fd
fa
2
0
1
ff
3
4
fd
1
5
0
2
fc
3
fe
fe
4
1
1
fe
2
1
fe
1
1
fe
fe
1
f9
3
4
2
fc
3
2
fd
0
fd
0
0
fc
fa
fb
5
4
fc
fb
4
2
fe
3
fe
2
fc
2
fb
fd
fb
fe
ff
1
fe
4
0
2
fb
fb
3
fa
fe
fd
fe
2
5
ff
fc
1
fd
ff
1
fc
3
fb
4
2
5
5
4
4
2
1
4
ff
ff
1
1
3
fb
fe
ff
0
fd
2
0
2
fe
5
fe
1
2
fe
1
fd
3
4
5
fb
4
fd
fc
5
4
5
3
fd
1
5
0
4
6
4
fe
fb
1
fd
fe
2
0
1
fd
fc
ff
1
0
1
2
1
3
1
fd
fa
fb
2
fb
ff
1
fb
fc
5
fc
fd
fc
1
3
fd
ff
fd
0
3
0
1
fd
3
3
f9
0
4
fb
fe
fc
fe
3
2
ff
1
5
4
4
fb
fc
fe
fa
ff
2
3
fd
4
6
fb
0
5
4
fc
f9
fd
2
fe
2
fb
fb
2
fa
0
fa
3
2
fe
ff
1
0
0
fd
fd
fc
3
4
2
2
1
fd
4
3
1
fd
3
2
fb
4
fd
4
2
fb
3
fd
0
1
0
2
3
fd
fe
fc
fc
2
5
0
2
3
2
0
fa
fb
2
3
fe
fd
1
fe
1
fe
1
fd
fc
fd
1
3
3
fb
fe
fe
ff
fd
2
1
fb
ff
fd
fc
1
fa
fc
fe
3
2
5
ff
4
fe
1
fd
fb
3
fd
2
0
1
fb
0
fe
2
1
fd
fd
fc
fe
4
fd
fc
2
fd
fe
2
fd
1
2
4
2
fe
fc
5
0
2
ff
0
4
0
fa
fb
4
5
fd
3
ff
4
0
3
5
0
fb
2
fc
ff
ff
4
fe
ff
2
0
2
fb
fe
3
3
ff
fb
0
5
fe
1
fd
fe
8
4
5
ff
fb
fc
3
0
fc
0
1
fc
fc
fc
fd
0
fe
2
fd
1
ff
fd
5
1
fe
fd
0
fe
fa
fa
1
5
ff
ff
fc
ff
2
0
fd
3
fd
6
fc
0
fb
4
fb
fe
fb
1
fe
3
2
6
6
fd
ff
3
fd
fe
3
ff
2
1
fd
0
fe
5
4
4
fe
2
fd
0
fc
fa
fd
ff
1
3
fc
2
1
1
0
3
5
ff
4
5
3
0
fe
fc
fc
ff
fd
fe
fd
6
2
4
0
1
fe
1
4
fb
fd
fc
0
5
0
1
3
fd
3
fd
fd
1
3
4
fc
fd
fe
4
fd
1
fc
6
fe
fd
fe
3
fc
fd
0
2
2
4
5
3
2
1
3
1
fb
0
fd
2
ff
2
fd
fd
fd
3
4
ff
2
fb
0
2
fc
fe
fd
1
fa
fd
fd
ff
fe
fc
1
0
fd
1
fe
3
fb
fc
fd
4
1
fc
ff
1
4
fd
fb
4
4
fe
fb
fb
ff
3
ff
0
0
2
fe
0
3
0
fd
4
2
fb
fc
fe
ff
fc
fd
fe
3
2
0
1
5
0
2
fc
3
2
0
fc
4
2
1
fb
fd
3
fe
1
4
4
1
3
ff
fd
fe
fd
3
fe
1
2
fe
fd
0
ff
fd
2
3
3
fc
5
fb
1
fe
fd
4
fc
fd
3
fd
fb
fd
fc
2
fd
2
fe
fc
fe
fe
5
1
fe
5
fe
2
3
0
5
3
fc
fc
0
ff
2
fe
fd
3
5
5
fe
2
1
fe
1
2
5
5
fc
fc
0
fe
1
2
0
0
fe
4
1
5
fd
5
3
fb
ff
fb
fe
5
3
ff
1
ff
fd
1
fd
fe
ff
ff
1
3
3
1
ff
ff
fd
2
fb
fb
0
fd
2
fe
3
5
4
1
ff
fe
3
1
ff
fe
fc
fe
4
fe
fc
1
fc
2
5
fe
2
3
ff
0
1
fe
2
5
fd
fe
3
ff
1
3
ff
1
2
4
fc
1
2
3
fe
0
4
2
fb
ff
4
0
0
2
ff
4
5
5
1
0
fd
1
ff
fa
3
1
fb
fd
3
fc
f9
fc
4
fd
fc
1
ff
2
fe
2
4
fd
4
3
ff
ff
fe
fe
fd
fb
0
4
fe
ff
4
5
3
1
fc
0
2
2
fc
fd
1
1
0
0
fc
fd
fd
fe
2
1
2
1
fe
4
5
6
4
4
fb
fc
0
5
fc
5
fd
fe
3
fd
fd
1
ff
fb
0
fd
fd
fd
fd
fc
fa
ff
4
2
fc
fe
fc
1
3
fd
4
fc
fe
fe
fa
fd
fd
4
fe
3
fa
6
fc
fb
fc
fb
2
2
fe
fa
2
0
1
1
fd
3
fe
fa
fd
ff
1
1
fd
ff
fb
fc
fd
fd
4
fd
4
6
fc
fb
ff
1
2
5
3
2
3
fe
1
1
3
fd
ff
fa
2
ff
0
fc
4
0
fd
fd
ff
fd
fc
fc
2
2
2
3
0
fc
fc
ff
fe
0
4
4
fc
fb
ff
fe
3
1
fd
fc
ff
fc
fa
1
fb
fa
fe
2
4
fc
fb
fb
2
fc
3
fd
ff
2
0
fd
fe
fb
ff
fb
fd
fe
fb
fd
fb
4
3
fc
0
fb
4
fa
4
2
2
ff
0
3
0
fd
0
1
5
4
fb
0
fb
2
ff
2
fb
fd
1
fe
fd
0
ff
1
0
fb
fa
ff
fe
fc
fe
1
ff
2
3
1
3
fc
fd
3
0
3
0
1
fc
fc
5
fe
ff
4
fb
ff
fb
fb
3
fb
5
fb
fc
5
ff
1
3
1
fb
4
5
2
4
2
3
fd
5
5
2
ff
5
3
ff
0
6
fc
ff
fe
fb
4
5
2
fd
1
ff
4
1
fb
3
2
5
fd
fd
fa
ff
fc
ff
fb
0
fb
fa
fe
4
3
1
1
1
fe
3
fd
0
1
ff
0
fb
fd
fd
fe
fd
fd
ff
5
fe
4
fc
fa
ff
0
1
fc
5
4
0
0
ff
1
ff
1
ff
0
fd
3
fc
fb
fc
fb
3
0
fe
3
ff
1
fd
fc
0
1
4
3
4
0
fd
2
0
0
fe
1
1
1
fe
fb
fb
ff
fb
1
1
ff
4
7
fd
fd
fb
0
2
fc
fe
3
fd
1
fe
2
2
fe
fe
fe
fe
2
fd
4
0
4
fc
3
fb
2
4
fa
5
fc
1
fc
4
ff
fa
fd
2
f9
2
2
ff
0
2
fd
fd
2
1
1
fe
ff
fd
0
2
fb
3
2
fc
1
0
fe
0
fd
ff
ff
2
fc
3
fb
ff
fd
2
3
fd
fc
2
3
ff
fc
0
1
fd
4
3
4
3
fe
1
ff
2
ff
fc
ff
3
ff
ff
3
1
6
1
fc
fd
fd
ff
2
fe
4
ff
3
2
2
fb
3
3
0
3
fd
5
fc
fd
3
ff
fe
0
3
fd
3
ff
fb
0
5
fc
fe
4
4
fd
fc
fc
0
fe
6
fe
fd
2
fc
2
3
3
0
fe
4
3
fd
fc
fc
5
3
ff
6
4
5
2
fe
0
5
ff
4
1
fc
fd
fe
fe
1
fc
6
1
1
fe
fc
0
5
4
ff
ff
fc
2
fc
fe
5
fc
3
fb
0
ff
ff
5
ff
1
2
fc
4
fc
3
f9
1
fc
5
fd
fe
5
fd
fe
1
4
fe
fd
fc
fe
0
2
1
1
ff
1
fb
fb
ff
fd
1
0
ff
4
1
fd
4
fb
fe
3
0
fe
5
fc
3
fc
3
fa
3
0
4
3
fc
fc
fc
fd
ff
ff
fd
1
0
1
2
0
4
0
4
fc
1
fe
6
fe
2
fc
6
fb
2
3
4
4
fc
fe
6
ff
fd
1
fd
4
0
fe
2
ff
ff
fc
3
5
fe
fd
fd
1
fb
2
fc
0
fc
6
2
4
ff
fc
3
4
1
ff
fe
4
fb
fd
2
0
fe
2
1
4
4
6
2
1
4
fe
fc
3
fc
ff
fd
7
fd
3
fe
fb
fe
fc
1
1
fb
0
3
fe
2
fd
1
ff
fa
3
4
2
1
fe
fb
fe
fc
fe
fb
1
ff
fc
3
fd
fc
fb
ff
0
fe
fe
3
fc
3
fe
ff
1
4
ff
1
fc
4
fb
fd
fb
fd
4
1
fb
fc
ff
1
ff
0
ff
3
fe
5
fb
0
2
fd
fd
fc
fd
2
fe
3
fd
2
fc
1
0
2
0
fd
2
fd
ff
0
fe
fc
3
5
fd
fe
4
0
fe
fe
fb
0
fe
fc
5
0
fe
fe
fd
2
2
fe
3
3
2
3
4
5
fc
3
3
fb
3
fc
fd
3
1
1
fe
0
4
fc
fc
2
3
fc
ff
1
fe
fc
fd
fc
fc
ff
3
3
fb
fc
0
fb
3
3
2
fe
fd
4
5
4
4
fc
fd
4
0
fd
2
fc
2
2
3
3
1
6
4
5
fb
fd
1
3
fc
1
2
2
fa
3
fe
fe
ff
fe
1
5
3
fd
3
0
fe
2
6
ff
0
3
fd
5
3
fe
ff
fb
fd
3
0
2
2
fb
fe
4
0
fd
fd
2
fd
ff
2
ff
fe
4
4
1
fb
3
3
fe
4
fe
ff
fb
fd
fd
fb
2
4
3
0
0
2
fb
1
0
fb
fd
fe
1
fc
4
2
5
fe
fb
fb
fe
fc
4
fd
2
1
1
fc
0
fb
1
3
6
fb
3
5
3
fc
fd
ff
fe
fc
ff
0
fa
0
6
0
4
5
fc
fc
fb
0
2
3
fa
1
1
0
fc
1
fc
5
1
3
fd
0
fc
fb
6
fd
fc
fd
3
4
1
3
5
3
fc
1
1
1
fc
fd
1
fb
ff
0
ff
2
fe
6
1
fe
4
1
fd
5
ff
3
fb
0
fe
5
fb
fe
3
fe
fc
6
fc
5
2
1
2
fc
3
fd
3
fb
fd
1
4
fe
fc
fe
fc
fe
6
0
fa
ff
fd
ff
fd
3
0
fc
1
0
fc
3
fb
fc
5
3
fb
fe
4
fc
ff
4
3
0
fa
fe
0
1
ff
ff
fc
fd
f9
5
3
ff
5
fd
fd
1
fe
fe
fb
fc
fc
ff
fe
fc
ff
5
4
ff
4
fa
fe
0
2
4
fa
fd
5
ff
fd
2
0
fe
4
1
fe
fb
ff
0
fd
fd
1
4
5
fd
2
2
fb
4
3
ff
0
fe
4
fd
fc
6
1
0
4
ff
7
2
fd
0
4
1
0
0
3
fc
0
4
0
3
ff
2
2
fe
fc
2
fd
ff
1
3
5
3
fd
5
fc
fd
2
fb
4
4
fa
0
fe
fb
ff
5
4
fe
2
3
1
3
fc
fc
2
5
1
fd
fc
3
3
ff
2
ff
0
4
1
3
1
ff
0
0
1
4
0
3
2
fe
fe
5
fc
2
3
3
4
0
2
0
fa
fd
5
0
fd
4
fe
0
0
fe
fe
fe
fb
1
4
3
fc
fd
fd
fc
fd
3
4
fe
3
fc
fc
fd
ff
0
4
fe
6
fb
5
fb
fe
5
4
fd
4
0
fb
fd
fb
fb
0
5
fd
1
1
5
fe
fe
2
3
1
fd
f9
2
4
fe
0
2
5
4
3
fc
ff
5
3
2
4
fd
fb
ff
4
5
2
2
fa
f9
2
fd
fc
fe
2
ff
ff
fc
4
0
5
1
fe
fd
0
2
fd
2
fd
5
ff
1
ff
fc
1
f9
4
0
f8
fe
fd
ff
fc
fa
0
2
fd
ff
ff
4
ff
fd
2
fc
fe
4
fd
fe
ff
ff
3
fa
fd
ff
fe
3
fc
0
fe
0
5
2
fc
fd
2
0
fe
2
1
1
1
fc
fc
fc
ff
0
fe
0
3
1
1
2
fb
fe
fc
1
3
0
6
2
0
1
ff
fb
fb
0
0
fb
fd
3
2
1
2
fd
4
3
fd
1
fe
2
fd
2
5
5
3
0
4
4
3
2
3
4
0
1
6
5
fa
fe
fd
f9
fc
4
4
f9
fa
fc
ff
fd
2
3
5
fd
fa
ff
ff
1
4
2
4
4
fe
fe
4
4
5
1
fb
5
3
0
fe
fe
5
2
4
0
fe
3
3
fb
4
fd
fe
0
3
2
fd
0
5
7
fd
fe
ff
fc
fd
ff
ff
ff
0
3
3
fb
4
fc
0
5
fb
3
ff
5
1
5
3
fc
4
3
fc
1
fe
fe
fd
2
1
3
fb
fb
fb
6
3
ff
5
fc
0
2
fe
fe
4
fd
fe
fc
2
fe
fd
1
0
3
ff
1
3
0
2
3
4
fe
0
fe
4
fe
fb
fc
2
fb
ff
fe
ff
fd
fe
ff
ff
0
3
fb
ff
fc
fe
ff
fd
2
5
2
fb
ff
fb
1
fe
1
0
4
fb
2
2
fa
5
ff
fb
3
1
0
3
0
fc
ff
fe
fa
fe
fe
fc
fb
1
4
ff
3
3
fc
fc
2
fb
1
0
fc
1
ff
4
3
5
0
fe
4
fe
fe
2
fc
3
5
fc
1
fc
0
fc
ff
ff
fb
1
ff
fd
1
fd
0
fd
5
3
5
fe
fb
fd
fd
2
fb
ff
2
fe
ff
1
fc
fd
5
fd
ff
fe
4
fd
0
5
fb
fd
fb
0
fd
2
2
5
4
fd
5
1
fd
5
fd
1
fe
3
1
fc
4
fb
4
0
fc
6
fc
0
fd
fc
4
0
fc
1
fc
2
fb
fd
3
3
5
fc
5
5
fc
5
fe
3
fb
3
3
1
2
2
ff
3
1
ff
0
3
fc
0
fe
3
fe
0
fe
3
4
5
fe
5
5
0
fb
fe
0
fb
fd
2
3
0
fc
ff
0
fe
4
0
fb
fb
fe
4
fb
3
fc
2
4
1
0
ff
fe
fc
fe
fb
4
5
ff
0
6
6
fe
2
2
3
fd
0
fe
ff
5
fc
fd
6
fd
fc
6
fd
4
fc
1
1
fb
fd
3
fd
1
fe
0
fc
3
2
0
fe
fb
2
fb
4
4
fd
fd
fe
2
2
2
fc
3
fd
fd
3
fc
fd
fe
0
fc
3
0
1
0
fc
2
fb
fd
3
fe
0
3
2
2
1
fe
2
3
1
2
5
4
5
ff
fb
4
fb
fb
fe
fc
2
0
3
fc
0
ff
fc
fc
fd
5
0
fb
fd
4
4
5
1
4
ff
fc
4
2
2
0
4
fc
3
fd
1
fd
1
fc
2
2
fd
5
fd
4
fc
fb
3
5
ff
4
3
4
2
fe
3
fe
fc
fc
fb
6
ff
fd
ff
3
4
fe
0
fe
2
fe
fd
4
fc
2
0
5
4
fd
4
6
2
fd
5
1
fe
1
fd
4
3
fc
fd
3
fe
ff
2
fc
fc
2
ff
fc
fe
0
fc
fb
2
4
ff
fd
fd
ff
ff
fc
2
ff
ff
2
fe
fa
ff
3
fd
ff
fe
1
4
fb
ff
3
4
1
3
1
fe
5
fd
0
fc
fd
ff
1
2
fe
1
1
ff
fd
0
3
0
fe
ff
fd
fc
0
ff
0
ff
0
5
5
fd
2
fc
ff
fe
fc
ff
fd
1
2
fc
fd
fd
2
fa
2
fe
0
5
6
fc
2
fc
fb
2
2
fb
fe
ff
4
3
4
fd
0
fe
0
3
ff
0
fb
fb
1
fd
fc
1
fe
fd
0
fb
fe
fc
ff
fd
0
fd
3
0
ff
3
3
ff
fe
fd
4
fd
4
fc
0
1
2
2
5
fc
fe
4
4
fd
3
fd
3
4
0
ff
3
fd
fb
fd
0
3
1
1
4
fc
1
3
f9
fe
fd
fc
fe
ff
fc
fb
ff
fe
fc
1
fa
fd
1
4
fe
7
1
4
4
3
3
3
fe
1
0
f9
fa
2
3
3
ff
0
3
2
2
5
fe
0
0
5
2
5
fc
fd
fc
fe
2
fb
5
1
fb
4
0
0
0
3
ff
5
fc
fe
1
2
1
1
4
fe
fa
0
1
fe
0
f9
fd
fb
0
5
1
6
fd
fe
0
5
4
4
3
3
0
5
4
1
fd
fe
1
0
0
5
fd
fd
ff
0
0
1
fc
1
fd
4
fb
ff
fd
ff
fd
7
6
fd
0
2
fd
2
fd
fa
5
0
ff
fc
4
0
4
3
3
ff
1
4
4
3
fa
ff
fd
5
fd
fc
0
4
1
fc
1
4
2
5
fe
fb
fa
2
fd
ff
fd
2
fe
ff
0
1
fc
fb
3
fd
fb
1
4
fa
2
fe
ff
5
fd
ff
fe
5
2
1
fd
fc
fd
fa
0
ff
f9
fc
1
fd
fc
4
fd
fd
3
fc
fd
2
5
1
ff
5
fb
fe
6
5
fc
fe
fc
0
fb
fd
4
fc
ff
4
0
fb
2
ff
ff
1
2
0
fb
fe
fe
2
fb
fd
3
fe
1
0
3
1
2
fd
fd
0
4
4
1
fe
fe
5
fe
fe
2
fa
fd
fc
fd
3
fe
ff
fe
0
3
fc
fd
ff
2
4
fc
6
2
4
6
fe
fc
fe
ff
3
fe
fe
f9
fc
2
0
1
ff
fd
4
2
3
3
1
2
2
fd
fd
ff
fc
3
2
1
fd
ff
0
5
2
3
4
fb
fe
ff
f9
1
fa
fb
ff
5
5
fc
5
5
ff
4
6
0
fb
fa
ff
2
fd
6
fd
fd
1
fd
fc
fc
fd
fa
fd
fe
3
ff
4
0
1
f9
5
fd
2
3
2
fe
ff
2
fa
fc
fd
ff
fc
fe
ff
0
4
2
4
1
0
ff
fe
fe
1
4
3
fc
2
ff
2
fd
2
0
fa
fa
5
1
fc
5
4
fc
5
fd
ff
1
ff
fa
fc
4
fa
fd
fc
4
3
1
4
fa
fd
0
fd
fd
3
2
fd
ff
2
ff
fd
0
ff
0
fc
ff
2
fd
4
4
1
fd
1
fb
0
ff
0
5
4
fb
0
1
fd
2
4
fe
ff
fd
fe
4
fe
fb
0
2
0
0
fe
4
2
fd
4
2
0
fb
0
fc
ff
ff
2
5
1
3
6
fc
0
6
4
0
5
5
0
fe
0
3
4
ff
0
3
2
3
ff
fd
2
fd
fa
2
0
fc
4
4
4
2
fe
fe
1
1
4
1
fc
2
ff
fd
fe
3
2
f9
ff
4
5
fd
2
fd
3
fd
3
ff
5
5
fd
fe
6
3
5
fe
fd
fd
3
ff
1
fe
0
fb
1
0
2
fc
4
3
fe
ff
0
5
1
0
fb
fe
fc
fd
fb
fb
fb
ff
5
fe
4
fe
fe
3
3
1
fc
3
fd
fb
1
ff
0
ff
4
fc
0
0
4
3
3
ff
fe
3
4
5
1
fe
fb
4
fd
0
fd
3
5
1
3
4
ff
1
fe
3
fd
4
6
0
0
ff
3
2
fe
ff
fc
3
0
fc
fb
5
0
5
6
fd
5
3
1
fa
2
fc
0
fb
fd
0
1
0
2
fe
fe
1
fd
1
fd
3
3
7
0
f9
1
ff
1
fc
0
fd
1
fd
3
5
fb
2
2
fd
ff
fd
2
4
fd
ff
fe
fe
0
fb
0
fd
4
fc
ff
1
fc
fe
fb
6
4
fe
fd
2
6
fd
5
0
fe
3
1
2
2
fe
2
5
ff
ff
2
5
ff
3
4
1
2
fb
1
fc
1
2
ff
fb
1
1
2
1
fe
fd
ff
fc
3
0
ff
0
1
ff
2
0
4
3
ff
3
fb
3
fb
fc
4
4
fd
fd
5
0
fe
fe
fe
fe
fb
fc
ff
fd
ff
4
2
fe
fd
2
fc
1
3
0
3
1
fe
4
0
4
fe
fb
ff
2
fc
fb
fe
fc
fd
3
0
fd
fc
4
fb
4
fe
fe
fe
0
3
fb
1
0
fd
fc
fd
2
fd
fe
fb
ff
fc
3
3
2
fd
4
fc
ff
2
fd
fd
fd
1
fd
fe
fc
fb
fb
0
2
2
0
fe
fd
1
5
2
5
5
fa
4
1
fe
fb
1
1
4
5
fb
0
fc
fd
fc
fb
0
1
fe
ff
1
4
0
fe
3
ff
ff
fe
ff
0
fb
fe
4
fe
fb
fb
fb
3
fa
fe
ff
4
fc
2
5
4
fb
3
fb
fd
1
fd
fe
ff
0
3
fe
ff
0
1
fe
fb
1
fb
2
0
3
f9
fe
0
5
fc
ff
fd
0
fa
1
fb
1
3
fe
2
0
3
1
0
ff
4
fc
fc
4
fe
fc
ff
2
fd
ff
1
3
fb
6
fb
2
fd
1
fd
2
fc
0
fd
2
fc
0
5
4
fe
4
fd
ff
4
1
fc
0
fe
ff
3
4
fc
fe
fe
ff
5
0
1
fd
fe
fd
2
fd
0
4
0
fb
fd
5
4
2
ff
fc
fe
5
3
4
fb
ff
3
0
5
2
2
fa
fc
fd
3
fc
fb
fc
fd
f9
fb
fd
0
fd
fe
0
2
1
fe
1
fe
5
3
fc
ff
2
0
0
5
fd
fc
fd
fd
3
0
fd
fd
2
fc
4
fe
3
2
4
3
fd
ff
fc
2
fb
0
fc
2
0
4
3
fb
fd
4
4
ff
3
1
1
fc
fd
fa
5
0
2
3
fd
ff
1
3
ff
3
fd
3
fc
3
fe
ff
4
2
ff
5
fd
0
4
5
fd
2
4
5
fe
3
fd
4
2
0
4
fc
fd
0
0
5
5
5
fd
fc
2
1
fd
1
2
4
1
fb
fc
ff
fe
3
fa
4
0
1
3
3
fe
5
1
2
2
4
ff
3
0
fc
3
3
3
3
6
0
ff
4
2
fe
0
2
2
1
4
2
3
fb
0
6
fc
fd
1
fc
fe
4
0
fc
fc
2
fe
4
fa
fe
fe
fb
1
4
fe
ff
2
5
0
1
fe
fb
fb
3
4
ff
fd
2
fc
fe
fc
1
fd
4
3
0
fe
2
2
4
2
3
3
0
1
fd
fd
2
fd
4
fd
4
2
0
fe
fc
fe
fd
fd
fd
3
5
fd
ff
fc
4
5
6
ff
4
1
ff
ff
fc
6
ff
0
3
3
fd
5
1
fb
5
fd
ff
1
fc
0
2
fd
3
4
ff
fd
fc
0
fb
fd
0
fc
fd
4
1
3
5
2
4
ff
3
0
ff
1
4
4
5
5
2
2
4
fa
5
f9
4
fb
1
3
fa
fc
ff
0
ff
2
fc
4
3
4
4
1
3
1
ff
fd
3
ff
fe
ff
fe
1
1
fc
5
3
ff
2
fe
2
fe
4
3
1
fd
fe
fe
fb
fc
0
fd
fe
3
3
fc
fb
fe
fc
5
ff
5
fd
fd
fd
fc
1
ff
ff
4
3
ff
fb
3
3
fb
0
5
3
fb
fb
fa
0
fd
5
fd
1
3
ff
0
5
4
fe
1
0
ff
fe
fc
fe
fe
0
1
fd
0
fb
fa
2
fc
2
fe
3
fe
fc
5
4
3
2
1
fe
fd
ff
f9
4
5
fb
4
fe
fd
3
fe
fc
2
fc
4
5
fe
0
ff
1
fb
2
5
ff
3
3
1
fc
fc
0
1
1
fc
3
2
1
4
1
fb
2
4
1
1
0
0
3
fb
fe
fd
4
0
fd
5
4
2
3
ff
5
5
fe
0
1
1
fd
3
2
4
fd
ff
fa
0
1
3
ff
fc
1
fc
fa
6
fe
4
fa
fd
3
fb
6
2
0
4
5
fd
fd
fd
1
1
2
fc
fd
3
3
3
fb
5
fb
fc
2
fc
0
2
2
fe
5
fe
3
fd
fd
fc
4
fc
3
fd
fe
3
fe
0
3
fd
fd
fe
fd
fd
1
2
1
1
fc
fe
0
fe
fd
4
2
fd
fd
3
ff
1
4
fa
6
fe
0
5
0
3
1
1
1
fb
fe
2
fa
4
fd
fa
2
6
fa
0
5
2
fe
ff
ff
2
fe
ff
fb
fe
5
fe
fd
4
fd
fd
5
4
fc
3
4
3
0
3
fb
5
fe
fd
3
fd
2
3
fc
fa
4
fb
2
2
ff
1
fc
0
5
fe
fd
0
3
ff
fd
fd
ff
fc
fd
1
fb
2
6
4
0
0
2
ff
fd
3
3
3
4
fa
1
fb
fe
fc
fb
fb
3
ff
fd
4
fb
5
2
4
1
fb
2
fb
3
2
fe
0
3
2
5
fb
4
0
fd
fd
0
4
fb
fd
6
5
0
fd
6
fe
0
0
3
ff
5
0
0
fd
1
fa
fe
fb
1
fd
3
0
4
1
1
2
fc
fd
0
0
2
5
1
2
ff
fa
ff
fd
fe
fc
fe
ff
3
fe
fc
3
fe
fc
ff
2
3
ff
fd
fe
1
ff
2
fc
2
5
fc
1
fb
fc
2
2
fd
f9
2
ff
3
2
fc
fc
1
fe
fc
fb
2
0
4
3
fd
3
fc
3
fc
3
4
4
1
ff
fb
1
1
0
fd
2
fc
fd
ff
ff
ff
4
5
0
2
fc
fc
2
0
2
fe
0
fc
0
2
0
fd
fd
0
3
1
fb
fb
4
fb
ff
fc
ff
1
fe
fd
fe
0
ff
5
fd
2
fb
fe
3
ff
5
3
6
4
ff
5
1
2
fc
fe
fc
1
fd
5
2
2
5
5
fc
fc
3
5
fd
fd
fb
fc
fb
fc
6
fe
fd
fd
fb
ff
fd
4
5
0
fe
4
fc
3
0
fd
4
0
1
3
fe
fa
0
ff
fe
fd
1
fb
2
1
3
3
ff
1
3
ff
0
fd
ff
fd
ff
3
ff
1
3
4
fb
3
4
3
3
fd
1
1
f9
5
3
ff
4
fe
6
2
2
4
fd
1
1
0
1
1
1
0
fd
0
0
fc
fe
3
0
3
4
fb
ff
ff
fd
3
3
2
fe
2
ff
fe
3
fe
fc
2
3
fe
4
fd
5
fc
5
fd
fb
fd
5
3
2
fd
0
fe
ff
fe
fe
fb
fe
2
fd
2
fe
5
fc
2
fd
2
2
4
fa
4
1
fd
fe
1
fc
1
1
ff
fc
fb
fb
3
0
2
fc
fc
fc
fc
3
5
1
0
1
1
fb
2
fa
f9
fb
2
fe
5
2
ff
fc
fc
fc
fd
fb
fc
0
3
2
fe
4
fd
fd
3
fb
ff
fc
0
4
3
fe
5
4
fd
fd
1
fb
fb
fc
ff
fe
fd
5
fa
0
fa
3
fe
fd
1
4
fe
fd
5
4
fd
fd
1
fd
fe
fe
1
ff
1
4
4
4
6
fd
0
fe
2
fc
1
fc
fd
fc
fa
fa
fc
1
4
3
fb
ff
0
fb
1
2
fc
fe
4
fe
4
4
5
fc
ff
2
3
fa
4
fe
3
2
fe
0
2
0
2
fe
0
4
fe
6
3
fc
fe
1
fc
fa
0
2
2
fd
6
1
5
5
fb
fc
3
fa
3
fe
f9
fd
fa
fe
2
0
4
5
1
5
3
fa
ff
4
3
fa
fc
5
5
fe
ff
2
2
fe
3
fc
0
fd
fe
fc
3
fc
0
fe
5
ff
fe
fd
ff
3
fc
fc
5
fd
2
2
4
2
fd
4
fc
3
0
fd
fc
fe
6
2
fb
fb
4
3
0
fc
fc
fb
2
3
4
0
1
fd
fc
fc
5
fb
0
6
4
2
1
0
5
2
0
fd
fd
fd
ff
fe
0
2
fd
1
3
ff
ff
0
2
fd
fb
0
fe
fe
1
4
5
fe
2
5
0
2
fc
fb
0
5
fc
fe
fe
3
5
fe
3
fc
5
1
1
fe
fe
ff
2
fe
ff
fd
1
ff
fd
1
4
0
fc
fe
5
fb
5
0
2
0
1
4
fd
4
ff
fd
1
1
1
ff
fc
3
1
fd
5
fb
5
2
1
ff
ff
ff
fb
fc
2
fd
ff
3
0
0
fc
2
6
fc
1
0
3
5
5
ff
5
fd
ff
0
3
5
fe
fc
4
fe
0
4
fb
3
fd
7
1
2
fb
3
2
fb
fe
ff
fc
5
fc
ff
fb
fd
1
fe
fe
fa
4
fd
0
3
fd
0
fc
1
fd
6
4
fd
fe
4
0
fd
fb
1
ff
fe
2
3
2
0
2
4
1
5
fe
ff
fb
fc
4
fd
2
4
fd
3
fc
0
fc
5
3
2
2
fa
3
ff
fd
1
3
fe
ff
fe
fc
ff
2
3
ff
fe
fd
0
0
fe
4
0
4
fc
fc
ff
2
6
6
2
fd
4
fe
fe
fe
5
fd
5
fb
3
2
fd
0
4
0
6
4
fb
3
3
fe
4
1
1
fd
6
fd
1
fb
fc
5
5
2
ff
1
5
0
2
4
0
3
5
ff
fa
3
fe
1
1
ff
4
5
0
2
4
fe
5
0
2
fb
2
2
6
fd
ff
fe
5
0
5
4
4
fe
fd
fc
ff
5
fb
2
fe
ff
5
1
0
fa
ff
fb
ff
ff
2
3
4
1
ff
fe
3
2
5
fd
ff
ff
fc
4
2
1
ff
fd
1
fe
ff
5
fb
2
fb
fe
fe
1
2
0
ff
2
1
0
3
0
4
1
3
3
0
4
fe
2
1
4
4
4
3
3
ff
2
0
ff
4
1
2
1
ff
ff
fe
2
1
6
3
fd
4
3
3
ff
fc
1
6
fc
fc
fe
fb
6
fd
2
1
5
5
ff
ff
ff
1
2
4
fc
fb
1
fe
1
fd
4
3
fc
5
3
fc
fb
3
fb
3
fd
fe
3
4
fe
fd
ff
fa
6
fe
fb
3
fd
2
1
5
ff
4
6
5
2
5
3
0
fe
fa
4
fb
1
2
4
fb
0
3
fe
2
5
5
6
0
fe
5
3
0
fb
fd
fd
2
fb
5
fc
3
fe
fe
2
0
1
3
4
0
ff
0
3
fc
fc
1
1
fd
6
fb
0
2
0
fd
ff
fe
5
0
ff
fa
5
fc
0
fd
fc
3
1
fe
fe
2
2
ff
ff
0
3
1
4
3
fd
0
fe
fd
4
2
5
5
0
ff
1
2
4
fa
3
fe
fc
fd
fa
fa
ff
fc
5
2
fd
0
ff
ff
2
fb
ff
3
fe
3
ff
4
4
6
3
ff
fe
5
0
3
3
fe
0
ff
1
ff
3
4
6
fc
3
fc
ff
fc
3
1
fe
1
4
fb
0
5
fe
fe
3
fb
fe
fd
1
fc
ff
3
fd
5
3
ff
fd
ff
5
2
fe
5
3
0
2
fb
5
5
ff
4
3
2
fc
5
0
fd
ff
3
4
fb
fb
1
ff
1
6
ff
1
0
ff
3
fb
fe
fb
5
ff
fa
f7
fc
fc
3
4
4
fa
fb
0
fa
fa
3
fd
0
fc
fe
2
1
4
ff
0
fe
ff
2
3
3
fc
fe
1
f8
fa
1
ff
4
fe
2
4
1
3
1
fb
0
0
4
fd
3
fb
fe
0
fc
5
2
fc
1
0
fe
4
3
fe
fd
4
3
1
fd
0
fd
2
fb
6
1
fc
3
1
fe
ff
3
fb
fd
fd
3
3
fa
5
fd
fd
1
4
3
2
0
ff
fa
6
0
fb
3
fe
0
1
0
fe
fe
fe
fe
3
fc
2
3
5
6
6
ff
5
ff
fa
ff
ff
3
1
fa
6
1
fc
1
3
fb
fd
4
1
1
2
fd
fc
6
4
fa
3
fe
1
fb
3
fc
4
fd
1
0
2
f8
fa
fe
fc
2
3
fb
3
4
fb
3
fe
2
2
fe
2
5
0
4
ff
f9
ff
fb
fe
3
fe
fb
5
fe
fe
3
ff
1
4
0
ff
3
fa
fc
4
fa
fa
5
0
fc
1
fb
fa
ff
1
fa
2
fb
ff
fd
2
fd
1
4
3
fc
fc
3
1
1
fc
3
2
4
1
4
fb
4
5
3
4
3
ff
0
fc
0
fd
0
fa
3
fd
3
2
fe
fe
2
3
3
fe
fe
5
0
fd
4
fc
ff
2
3
4
4
5
1
fe
fd
4
4
2
7
1
1
fd
fc
ff
4
fa
fc
2
2
ff
1
0
fb
2
ff
4
6
ff
fa
fc
1
1
fc
fe
fe
1
4
1
5
4
fd
2
2
fc
0
4
4
fc
fd
2
0
4
fd
fd
4
3
fc
fa
4
2
0
fe
3
fc
fd
1
6
5
3
ff
fb
1
5
3
4
0
1
fd
fe
fd
0
ff
fd
0
1
ff
4
5
fd
4
2
2
fb
3
ff
2
0
fe
fa
fa
3
1
fe
4
fc
fd
f9
fb
3
0
3
5
1
3
3
4
4
5
3
fc
f9
3
fc
fc
4
fe
fd
0
2
f9
0
fc
fb
4
fe
fc
fd
fc
0
5
1
3
2
ff
fd
fd
fa
fd
fe
ff
fc
fc
5
fd
fc
fb
fc
3
ff
fe
fb
fd
4
fd
fc
1
3
2
4
2
ff
0
ff
3
4
ff
3
0
3
fb
fc
ff
fe
f8
3
ff
fd
fe
fb
fc
fb
5
ff
ff
1
6
fe
fc
1
fa
fe
ff
fa
4
fd
fe
ff
fe
4
1
fe
0
fd
ff
3
0
1
4
4
2
0
6
fa
fe
3
fb
0
2
fb
1
2
fd
4
fe
2
0
1
2
3
fa
1
fa
4
1
4
fc
2
5
2
0
2
0
fe
fd
0
fe
fd
2
fa
fc
fc
3
2
fb
0
4
0
1
2
fd
5
ff
1
4
1
5
4
fc
fb
fd
2
fe
0
fe
1
fe
2
ff
fe
0
fe
1
fc
fd
fe
fc
fd
fd
fe
4
1
ff
fd
fd
4
4
2
1
fe
ff
ff
1
fe
ff
fe
fd
ff
fe
fd
0
4
fc
2
3
3
fe
fd
6
fe
2
fd
1
fc
ff
1
fe
2
1
2
2
3
4
3
fc
fc
ff
3
5
ff
fb
3
0
fb
4
3
6
5
fe
ff
0
3
fc
5
0
5
fa
ff
0
1
fc
2
fb
fe
fb
2
4
2
fc
fb
2
fa
0
ff
1
fa
fe
1
fc
0
fb
ff
fb
3
0
fc
0
fc
fc
1
fd
1
fe
fd
3
fd
ff
fd
6
ff
fe
1
3
fb
4
ff
fd
fd
fa
fd
4
fe
3
1
0
fa
6
4
4
1
fb
4
fc
ff
fe
fe
fb
fc
4
0
3
4
6
1
fc
0
5
1
fe
fb
0
fc
5
4
4
1
ff
fa
0
0
3
2
fe
2
fc
fd
ff
3
0
fe
ff
2
0
0
2
3
5
fe
0
ff
ff
4
fc
ff
4
fb
3
1
2
fd
6
fe
2
fc
fd
fb
fc
5
4
fe
5
3
ff
fc
fe
1
ff
ff
2
fe
fd
3
ff
fe
fa
2
5
3
fc
fe
3
fe
1
ff
2
fb
1
fc
fe
fd
3
fc
2
5
2
5
fd
3
ff
ff
fc
fd
fd
2
0
2
fa
fa
fe
fb
fe
fe
fd
0
fc
fd
fc
fd
fc
fc
fb
f9
2
4
ff
fe
0
fd
0
fc
0
0
ff
fb
fd
1
fd
fe
2
0
3
fe
fb
fe
1
1
1
fd
fd
3
fd
fd
fa
3
fa
fe
ff
5
fc
2
fd
2
3
1
2
0
fd
5
3
fe
1
fe
fe
fd
2
2
fd
5
fc
fe
2
fc
1
fc
5
1
0
fa
fc
ff
fb
3
fc
1
fc
fb
4
0
0
3
0
fd
4
6
fd
2
fc
0
fa
fb
fb
fe
ff
fc
3
fc
fe
fc
0
5
fd
4
4
ff
fb
fb
fb
3
ff
ff
3
fd
2
4
ff
fa
fd
3
3
0
fe
2
fe
fc
4
fc
6
fb
6
2
3
1
2
fb
fd
3
fd
2
fe
fd
fd
fe
fa
1
ff
fc
2
3
0
2
fb
1
0
3
fe
fe
ff
fe
2
fc
4
fb
5
0
3
0
fe
5
4
fc
fc
fc
ff
4
fd
4
fe
4
fe
1
fc
fb
0
2
3
fe
fc
2
4
1
ff
fc
6
ff
ff
ff
1
ff
fa
2
1
fe
fc
fc
fb
ff
2
fc
fc
fe
fe
fc
0
0
1
fb
4
fd
fd
0
1
fe
3
5
4
fd
4
0
fc
fe
6
1
2
fd
6
1
4
fe
fd
1
ff
0
fb
2
1
fe
fc
fc
fe
2
4
4
1
4
5
0
4
3
fd
0
fc
4
1
0
1
0
fc
1
1
2
ff
5
6
fb
1
fc
fc
3
fd
4
fe
fa
4
fc
0
3
1
1
fe
ff
fc
4
fb
3
fe
0
fe
1
fc
ff
3
2
3
5
fe
fb
fe
4
fe
4
1
3
2
ff
fc
fe
3
fd
5
1
fd
2
0
4
2
fb
ff
fb
1
fd
2
fb
fe
4
fe
fe
fd
fd
4
4
2
fd
fc
fd
3
fe
2
2
4
4
3
3
fb
2
2
0
0
0
4
ff
4
4
5
5
1
fc
3
2
5
ff
4
3
2
0
fe
5
fe
fc
3
5
5
2
fb
3
1
4
ff
ff
4
ff
3
fe
6
fc
fc
fc
fc
3
ff
1
5
fe
fe
3
fc
2
5
2
2
0
ff
fd
5
ff
5
4
fe
fb
1
ff
fb
f9
0
1
0
fe
2
0
4
2
fd
5
fb
3
4
4
fb
2
1
2
ff
fc
1
fd
0
1
ff
fe
1
fb
0
fc
0
0
5
4
2
0
4
4
fd
fd
2
fe
4
4
3
fc
fe
fe
0
fb
1
6
1
fe
6
3
0
fe
4
5
fe
ff
3
5
fe
5
fb
fc
fe
3
2
fa
fe
fc
1
0
2
fd
fd
fe
6
5
2
2
4
3
ff
fe
fe
2
4
4
fe
0
1
3
4
0
fe
5
fb
fe
fe
1
4
ff
1
3
0
5
ff
0
1
1
3
fe
3
3
fc
fb
fd
fd
5
0
2
4
1
6
2
2
ff
0
4
fd
fc
fa
fe
3
0
0
fb
3
3
fc
fd
ff
4
fd
4
fe
fe
fd
0
4
4
6
4
fc
5
5
fd
4
3
fc
3
0
fd
ff
fb
4
2
fe
4
fe
3
5
fc
3
fb
2
fb
ff
0
0
0
1
5
fe
4
fe
0
fa
1
ff
0
ff
0
0
ff
fe
fe
3
0
fc
6
fc
2
fb
2
fb
3
fe
fe
3
4
1
1
0
0
fe
4
6
5
fd
6
1
0
1
3
6
ff
ff
ff
0
fa
ff
0
3
fd
3
1
5
fe
3
5
2
1
fc
5
6
fc
0
ff
2
4
1
ff
fe
1
fe
fc
3
fd
fd
3
0
fe
ff
fd
fc
ff
3
fb
3
fc
5
3
3
2
3
0
fa
fd
fc
fe
ff
fd
1
fd
1
fe
fe
fe
fe
fb
4
fc
0
0
1
0
2
fc
1
fb
ff
ff
fc
5
fd
3
1
0
fe
fe
1
fd
fe
fd
fa
fc
0
5
fb
4
0
fd
fc
0
1
ff
2
fd
ff
0
ff
2
2
fb
fd
3
2
3
ff
fa
4
fe
fb
4
1
fb
fb
fd
fd
2
fb
1
1
1
0
3
fe
0
4
ff
4
4
0
fb
ff
3
2
fd
0
fe
5
3
5
fb
1
fd
4
0
fe
4
2
fe
fc
fc
fe
fe
fb
ff
fd
fc
fa
fd
0
ff
0
5
fd
3
fd
fe
ff
4
2
ff
fd
fc
0
2
5
4
1
fd
2
6
3
0
fc
fb
4
0
3
0
2
0
ff
3
f9
3
2
fd
fd
ff
5
1
fe
5
fe
3
fe
fc
fe
fc
3
fc
fd
1
0
fb
fd
2
fc
fc
fd
ff
3
fa
4
2
ff
ff
4
fe
4
2
2
0
fd
0
0
1
6
2
4
1
6
2
5
4
fd
5
0
fd
fe
fe
ff
ff
fd
ff
1
2
5
5
1
4
6
0
fe
4
3
fe
fc
fc
4
fe
ff
fe
fe
2
0
0
6
1
2
3
ff
3
2
fb
0
fd
fd
3
2
ff
4
fc
ff
fc
5
0
fc
fe
2
3
7
0
2
fc
4
1
fb
2
fb
fb
1
0
2
f9
1
3
0
fd
4
1
ff
fb
0
5
2
fb
fc
0
5
ff
ff
6
fd
2
fd
4
1
1
2
ff
3
3
3
fd
1
ff
1
fc
1
fd
2
ff
2
2
fc
0
2
3
ff
0
f9
1
fb
3
1
fe
0
fd
5
fe
fb
ff
0
fc
fa
1
ff
1
fa
fc
fc
fe
fa
1
fd
ff
2
ff
3
fd
0
ff
fe
0
5
fa
2
ff
fc
0
3
2
4
2
3
1
fd
3
2
ff
ff
1
fd
2
fa
5
fc
3
fd
fc
2
3
0
0
1
0
2
fe
ff
3
3
2
fe
3
ff
5
4
fb
5
fc
fb
fc
2
fc
fd
ff
fc
0
4
0
fc
2
2
3
3
4
ff
4
0
fd
1
fe
1
1
3
2
0
0
fd
7
fc
1
2
fb
fd
fb
fb
3
fc
0
5
fd
fe
fd
f9
3
fd
fe
4
fd
fe
3
0
4
3
fd
4
2
2
2
3
fb
fe
ff
fd
2
3
fb
fb
ff
0
2
ff
fa
4
1
ff
fe
4
fc
2
ff
3
fb
ff
4
2
fc
fd
fa
ff
4
3
fc
0
fc
2
1
2
fe
0
3
fc
fc
6
0
ff
fc
2
1
fc
3
fb
fb
3
4
ff
ff
2
fc
fc
1
5
0
fb
fc
fc
fb
3
ff
2
fc
fd
3
0
1
ff
3
ff
0
fc
fd
3
fe
fc
2
5
2
4
4
0
0
fa
4
fa
fc
fc
2
ff
fb
4
fd
fb
4
5
1
fc
5
fa
fb
0
ff
3
2
fd
4
4
ff
4
fa
fb
fb
fe
4
ff
3
2
4
ff
3
fc
1
fa
fd
1
fc
0
fe
0
fd
4
2
ff
0
3
1
fe
0
0
1
fd
fa
3
1
2
fa
5
fa
fd
fc
2
3
fd
fd
fe
1
2
fd
3
fa
fd
ff
fc
ff
3
fb
2
ff
0
fd
ff
3
4
3
fc
fd
5
2
0
ff
4
0
2
1
fe
5
0
0
2
fd
0
1
3
fa
1
fc
ff
fb
fc
2
fa
3
2
ff
fa
fd
fe
2
fc
ff
3
fd
1
2
3
6
1
0
ff
ff
1
fd
fe
8
fb
3
3
fe
5
ff
fe
fb
4
0
fb
ff
0
ff
fe
2
ff
ff
1
2
fc
0
4
5
1
fd
1
fa
fa
2
fb
fb
4
5
4
fe
fd
4
1
4
fd
fc
fe
fa
4
4
ff
6
fc
fc
fc
fd
6
fd
3
fb
1
2
4
fc
fe
5
3
fb
2
ff
0
fb
1
fc
3
fc
2
2
fe
ff
fa
fb
fe
3
3
0
fa
fb
fb
ff
1
fb
ff
fb
4
3
ff
4
0
fc
3
fd
1
3
5
2
5
4
ff
fd
fe
4
5
fb
fd
fb
fe
4
1
2
fb
2
fc
2
fd
fb
fd
fe
fc
5
1
1
0
fd
1
fc
0
2
1
fd
fe
ff
fd
ff
1
fd
ff
0
fd
0
3
0
fd
fb
2
ff
0
fb
3
2
fe
fa
4
1
4
4
4
4
fa
2
3
fb
6
3
3
0
0
ff
ff
3
5
2
fd
fc
fe
0
fe
fd
4
fc
5
fe
4
1
6
2
fe
6
fe
2
fe
fe
4
fb
fd
ff
4
2
fd
fe
5
3
fd
fd
0
fc
fd
fc
4
4
3
ff
4
fe
4
6
4
2
6
4
2
fe
fc
2
fe
3
fc
fb
2
ff
1
ff
fa
1
1
fd
2
2
1
2
fd
0
6
2
2
fd
1
0
ff
fa
2
fc
3
0
fd
ff
fe
3
fb
4
fd
fb
fc
fb
fd
1
2
fe
1
ff
fb
fe
5
1
fc
fe
1
6
6
fc
2
fd
fc
fe
2
2
fb
fc
fd
1
ff
fc
fa
fe
fc
3
ff
0
fd
3
fe
ff
3
fb
3
2
2
3
fc
fa
ff
1
ff
fc
fb
fd
ff
2
3
fd
fb
fc
1
5
fd
4
2
0
2
fb
2
fa
fc
fa
0
ff
4
ff
2
ff
1
ff
fa
2
fb
4
1
fe
0
5
fe
0
fe
3
5
4
5
fc
fb
fe
3
ff
fd
fc
ff
1
fb
fc
3
fe
fe
fe
5
0
fc
5
fc
2
2
4
fe
1
4
3
fc
5
4
fe
4
2
1
fe
4
fc
fd
2
2
fb
0
3
fa
4
fd
1
1
ff
fc
0
4
fb
fd
4
fb
fc
fd
0
fe
fc
ff
0
1
fc
4
fd
ff
fc
4
0
fc
1
ff
0
0
1
ff
fe
0
4
5
4
1
fd
2
1
ff
fc
fd
0
0
fe
1
fe
1
4
fc
fd
1
1
fc
3
1
fe
fe
4
3
2
fc
ff
fb
fa
ff
3
1
2
3
0
3
fb
fe
0
f9
2
fe
fb
fc
2
fc
5
fe
fd
5
4
fc
ff
6
ff
1
3
ff
f9
0
4
4
fe
1
ff
3
fd
1
fb
fa
fc
fd
ff
fc
3
1
4
fe
3
ff
0
3
fd
1
1
5
1
fd
ff
ff
1
1
6
2
3
0
6
1
4
fe
ff
4
1
0
fc
fc
ff
fc
5
fa
4
2
fd
fd
4
fd
ff
fa
0
0
1
4
fd
3
fd
fc
2
4
fe
0
3
fb
4
3
4
0
fb
fc
ff
4
fd
fb
fe
fb
2
fd
2
1
2
ff
fb
3
fb
1
fe
fb
2
ff
ff
fe
fe
4
4
0
6
fb
2
f9
5
fa
2
3
fc
fa
4
fb
fb
1
fd
ff
fd
0
fa
4
0
fd
2
1
6
1
0
fe
3
2
ff
fb
fe
2
fc
5
ff
3
ff
3
1
0
fc
fd
ff
fc
1
1
3
5
fb
2
4
fb
fe
2
4
fe
fe
fe
1
1
fd
3
1
fe
0
ff
ff
4
ff
fc
3
4
5
2
6
0
0
0
3
fd
4
fb
fc
fb
0
3
fe
fe
fb
2
ff
5
0
3
fe
4
fb
0
3
fe
fe
fe
2
1
fa
4
3
1
fc
0
fc
4
3
3
fb
0
0
4
5
6
fc
1
4
fe
4
0
fd
fd
fb
2
fb
5
fc
3
3
3
2
fc
fa
fc
fe
fd
4
5
fd
1
ff
fd
1
0
4
4
fe
fc
fe
fe
fc
ff
1
fc
ff
3
fb
2
1
0
fc
0
1
ff
fa
0
ff
4
4
3
3
1
ff
fd
2
fb
4
fa
0
1
3
3
3
fd
2
fc
4
fc
fe
5
0
fc
fe
ff
ff
f9
0
5
1
fd
ff
0
4
0
2
fc
0
0
2
fe
4
fc
ff
0
4
1
ff
6
4
2
3
4
0
ff
2
3
2
5
5
2
fe
3
fd
4
1
ff
2
fd
2
4
ff
fd
fd
ff
ff
ff
fc
fb
2
5
4
1
4
3
4
2
ff
2
2
fc
fe
fc
0
fc
ff
3
fe
fe
0
fe
fc
fd
1
fe
2
0
fd
3
0
1
ff
ff
fe
0
fe
6
0
fc
4
0
0
1
fb
ff
fe
5
ff
fd
fd
1
5
4
4
5
4
5
fe
0
fd
1
fd
fc
2
fb
fc
fe
2
4
fc
4
3
4
5
fe
4
4
fd
fd
2
fd
ff
fb
4
1
0
fd
fb
fb
3
fd
0
fe
4
3
1
4
4
fd
fb
5
ff
fa
3
1
5
0
ff
4
2
fd
4
2
4
ff
1
3
5
2
1
3
6
1
5
0
ff
fe
3
5
fe
3
2
0
4
fc
2
1
4
fc
ff
ff
fe
fc
4
3
fb
4
5
0
0
ff
fe
ff
fb
fc
1
4
fc
4
3
ff
fd
fe
5
2
1
fe
5
0
5
0
fc
3
1
1
4
fe
fe
ff
6
2
4
1
5
4
fe
fd
1
fe
4
ff
0
fd
ff
2
4
0
fc
fb
fa
4
fa
2
1
3
fe
fc
1
2
1
4
4
fc
1
fe
5
2
fc
3
0
0
0
5
4
2
fc
1
1
0
4
fb
fd
ff
5
4
5
3
5
1
fc
fc
7
2
4
0
fb
fe
2
4
ff
ff
1
4
fd
4
ff
3
fc
ff
1
3
0
fc
fe
1
ff
5
3
ff
ff
0
4
fe
fe
4
0
2
2
fe
fd
fd
ff
ff
3
2
0
0
fd
ff
1
fc
ff
fc
5
5
fc
3
fc
3
2
fb
5
fe
2
fe
0
0
fe
3
ff
fc
ff
fd
fc
fb
fa
fb
4
1
fc
2
2
1
4
fb
fa
fb
1
fd
4
0
ff
2
4
4
5
0
2
fd
6
ff
6
0
4
ff
fc
fc
fe
fd
1
0
5
fd
4
1
ff
3
3
fc
ff
fa
5
fd
4
4
0
fc
fb
fb
fa
1
1
fb
fd
5
3
2
fd
ff
fc
2
2
7
0
fc
3
fe
fc
fb
0
fa
fb
ff
fa
3
2
fc
4
1
0
2
fc
fb
2
fd
ff
fd
4
fb
ff
fa
4
2
fe
1
2
ff
0
0
4
fc
ff
fd
4
fe
3
3
2
fe
fb
fc
0
0
0
fb
fb
fe
fa
4
fb
0
fc
2
fe
ff
ff
6
fe
3
fd
0
ff
1
fe
1
3
4
ff
fe
fc
4
fa
fd
fc
6
fe
fe
ff
3
2
6
3
2
0
3
fd
fc
5
3
ff
fe
fe
4
fc
fc
1
2
2
fb
4
fb
fe
fe
0
3
2
3
1
fe
ff
fc
fe
ff
fc
fb
fb
fd
1
5
3
0
fd
0
fc
1
ff
fd
5
2
0
1
0
fc
2
fb
1
fc
fd
1
ff
3
fd
4
1
ff
0
0
fb
1
1
5
fd
4
5
fb
ff
fc
ff
fa
ff
fd
fb
fd
fc
2
fd
3
fe
5
1
4
fb
4
ff
6
fc
3
3
fd
1
1
0
2
ff
2
fd
7
fe
fe
ff
1
fc
3
4
3
1
1
3
fc
fd
fc
2
5
fe
fa
fc
fb
fd
1
4
2
3
0
1
2
1
3
fc
1
4
fb
0
fe
fe
fd
fd
4
4
1
4
fc
1
ff
0
fe
2
fe
fe
fb
0
fb
fc
ff
fd
ff
fb
4
3
ff
fc
2
fe
fc
2
2
fa
0
5
0
1
fa
fd
2
ff
2
fb
fd
2
3
fe
fc
2
ff
ff
fa
2
fe
1
5
fd
1
1
fd
ff
6
0
2
1
fe
5
0
fd
4
4
4
2
ff
4
2
0
3
3
fc
fa
ff
fd
3
ff
2
fc
fc
1
fc
5
1
1
fd
5
1
ff
0
4
fd
6
1
fe
4
1
2
1
1
fe
3
fe
2
fc
0
0
fa
fc
fe
2
fc
fb
fe
fa
fc
2
1
2
1
fd
2
6
4
fc
6
fa
fe
fe
5
4
3
3
3
fa
2
fd
3
2
fb
fb
3
1
fb
ff
fd
4
0
5
2
2
2
0
fd
0
ff
ff
2
fd
fd
4
ff
5
fd
3
fd
1
1
3
f9
5
fd
3
2
fe
fd
4
4
fa
fe
2
0
4
4
fd
fd
ff
5
fd
5
3
4
2
fd
fa
0
fb
2
fa
2
0
0
3
4
ff
4
2
fe
fe
4
fc
fd
2
4
fe
3
fb
1
fb
3
3
fe
0
5
3
fa
6
0
2
ff
1
fd
fe
2
ff
3
2
3
fe
3
fc
5
0
1
5
fc
1
fd
fe
3
1
1
fd
1
ff
2
4
fd
3
fb
fd
fa
3
fe
0
1
fe
fc
1
2
fd
fe
fc
fe
ff
1
4
fe
4
fc
1
5
4
3
ff
fa
3
fc
ff
fc
1
3
fa
5
7
fe
ff
fe
ff
1
1
3
fc
6
5
fc
4
fd
fe
0
1
0
1
0
5
1
0
1
fe
fc
5
ff
0
fc
fa
fd
fd
fe
1
ff
fd
2
fb
f9
0
fc
0
fc
fe
3
fe
fc
2
1
ff
fe
2
fc
4
2
ff
fa
fb
4
1
3
fc
1
0
2
fc
fe
ff
fd
fd
fe
1
0
5
1
0
3
2
1
1
fe
ff
fe
fd
fa
ff
5
5
fb
3
4
3
ff
2
fc
ff
6
ff
0
fd
fd
fb
4
fc
fc
fc
fd
2
ff
fd
fc
4
6
3
4
4
5
4
ff
2
fb
fe
ff
3
fc
2
fc
4
ff
fc
2
ff
fa
ff
4
2
2
3
3
0
1
fb
0
4
2
3
4
1
3
3
4
1
6
3
0
ff
1
fb
fd
1
2
1
fd
fd
3
2
1
fd
1
3
2
ff
fc
2
fd
fd
fc
3
ff
fb
fb
fb
f9
3
fc
fa
fd
ff
5
fe
2
fe
6
1
fd
6
1
fb
1
2
2
5
fe
fd
4
1
fd
3
2
fd
3
fb
fa
0
1
0
ff
fc
fd
4
ff
5
2
fd
3
2
3
fd
4
ff
3
2
fc
2
2
0
ff
1
fa
0
3
3
1
2
3
fd
fc
ff
ff
ff
ff
0
fd
0
fd
fe
ff
0
5
ff
fe
1
4
fa
0
2
fb
fe
0
fe
0
fe
ff
ff
fc
fc
ff
fc
fc
fe
1
fe
4
fc
2
1
fe
3
1
5
fd
1
0
fc
fd
fd
fd
fc
0
ff
f9
2
2
fc
3
3
2
3
fd
fc
ff
fc
5
fd
2
fc
3
fc
fe
ff
2
fd
ff
3
4
fe
1
3
fd
fb
fd
5
1
fa
fb
ff
ff
0
fc
5
5
fc
2
2
1
4
3
fe
3
ff
5
fe
0
4
ff
fe
fe
0
3
4
fa
ff
fc
1
0
ff
fd
1
fc
f9
3
2
fa
fe
fb
5
5
1
fd
4
ff
fe
3
fc
ff
0
fd
0
fc
2
ff
fc
4
4
0
fd
fd
2
1
5
5
fc
fc
4
4
fe
5
ff
fc
2
5
2
fc
6
fd
3
4
1
1
0
fb
ff
fb
0
2
fe
ff
ff
2
fa
0
fb
fe
3
2
fd
1
fd
0
fb
ff
4
fb
ff
4
1
2
5
2
fd
fe
1
3
fd
1
fe
f9
fb
ff
f9
fe
fc
fe
fd
0
1
4
3
5
fe
ff
3
1
fe
fc
fd
2
0
0
fd
ff
3
fc
0
0
1
fc
6
2
ff
5
ff
1
fb
1
fe
ff
fd
fc
4
fd
3
fc
5
fe
fe
fb
ff
5
0
6
fa
fa
ff
fe
fa
ff
fd
fd
fe
1
ff
fd
0
ff
4
ff
fd
fd
2
fa
fe
2
fe
ff
fe
5
fd
fe
0
1
2
2
fb
ff
2
fc
fc
fe
ff
2
fd
2
fb
ff
fe
4
1
fd
fc
0
fb
2
6
ff
2
3
fd
fd
fd
fa
2
2
5
fe
3
0
ff
3
fe
fd
4
3
fe
5
5
3
3
2
fe
fc
5
5
0
fc
6
1
2
ff
ff
ff
0
5
0
5
fa
1
fd
fa
fc
2
4
5
5
4
0
1
5
ff
1
2
6
2
fe
6
3
0
6
0
fe
3
3
2
fe
fc
3
3
1
ff
0
fe
fd
ff
4
3
2
0
4
fb
fb
1
1
fa
3
2
fb
fd
3
fe
5
5
5
fd
fd
0
fc
fd
3
3
1
1
0
ff
1
fa
fd
4
fa
1
5
3
fe
4
5
fd
ff
fd
fe
fc
3
ff
2
ff
3
ff
5
fd
fb
0
2
fb
2
ff
1
fe
ff
fe
4
4
3
3
0
ff
3
2
fe
4
1
1
1
1
3
1
2
fc
4
ff
fc
3
4
fe
3
4
0
0
4
1
4
0
fd
fd
fd
fe
0
f9
fd
1
fa
5
5
2
5
fc
fd
0
0
fe
fe
2
fe
fe
ff
0
2
fb
fc
2
ff
3
fe
4
3
fe
3
2
fc
0
0
3
fd
fb
3
2
0
0
fb
3
3
fc
fa
ff
fd
fd
4
fa
fc
fb
ff
2
fe
1
1
1
1
0
3
1
5
4
2
1
fa
2
fc
fd
fb
ff
fc
6
1
3
2
0
1
5
fc
3
2
2
fe
fc
fe
1
fd
3
ff
fc
3
fd
fd
fd
3
fb
ff
4
fa
fb
fe
0
4
0
2
fe
ff
fc
3
1
3
fe
fd
3
fe
5
fd
3
fc
fe
1
1
0
fd
fe
1
fc
ff
fe
fb
fa
2
2
fd
ff
ff
ff
4
fb
fb
5
fe
1
fd
fb
2
1
4
0
1
fb
3
ff
2
4
4
4
fd
fb
5
fd
fb
fc
2
3
4
3
3
0
3
fe
fc
fb
1
ff
1
3
4
fd
5
fb
2
5
ff
4
6
3
3
4
ff
3
fa
fb
3
fd
2
0
fe
1
fd
2
4
2
2
1
fd
1
2
fc
0
1
0
fc
fc
0
4
fe
3
fb
fa
1
2
1
6
4
1
fe
ff
fc
ff
fa
2
ff
fe
ff
6
fb
fe
2
ff
2
3
ff
f9
2
fd
ff
2
3
1
ff
f9
1
fe
ff
fb
6
0
fe
5
0
fb
0
0
4
2
1
2
3
fb
0
fe
fc
1
0
fd
3
fd
3
0
0
3
fc
2
fa
fd
fe
fc
5
3
fc
ff
1
1
3
5
fa
fa
ff
ff
0
ff
3
3
4
ff
fd
fe
fd
4
fb
f9
fc
7
3
fd
fb
fc
0
5
4
3
fb
3
4
fb
2
fb
3
fd
fd
fd
ff
fd
ff
1
5
ff
ff
1
2
4
0
fc
2
f9
3
2
fb
1
0
ff
fd
fc
2
fb
ff
0
1
3
ff
ff
fc
ff
4
4
fa
ff
fb
2
3
fd
fc
1
0
5
fe
4
2
fc
fd
0
fb
fd
2
4
fb
fb
4
2
1
5
fe
ff
fe
5
2
fd
0
3
fb
2
fe
4
4
ff
fb
fe
0
fa
2
fb
fb
fe
ff
2
2
6
3
2
2
fc
fe
fb
fb
0
fd
fc
4
5
4
4
ff
fe
3
ff
0
fb
0
fc
fb
3
1
fc
fe
ff
fe
1
fe
3
fa
3
fc
fb
fb
4
2
fe
fa
4
fb
ff
fb
4
fd
0
fd
4
2
fe
1
3
fb
fb
4
fd
fe
ff
0
0
0
ff
fc
fc
fd
4
ff
fc
ff
fe
fa
0
ff
ff
fc
0
fd
4
fe
0
1
3
fb
fc
ff
fd
fd
3
3
1
1
fc
fc
fd
fd
5
ff
5
2
4
fd
ff
fc
fd
ff
0
1
fd
5
5
fa
0
4
fe
3
fc
fc
1
5
3
fd
fd
fd
ff
0
1
fe
fe
0
fb
2
5
4
fe
fd
fd
5
fb
0
fc
1
1
fd
fb
fe
fb
fc
2
1
fe
ff
2
fe
fd
2
fe
0
fc
0
4
fc
fd
1
fe
fc
6
5
1
6
fc
fb
fb
2
ff
fc
fa
fe
3
fc
fd
4
0
4
3
fd
0
4
fd
1
3
fc
0
fc
1
3
fe
3
fe
fd
fd
0
3
1
3
3
4
3
1
fe
4
5
fa
ff
0
ff
fd
3
fd
0
0
0
0
5
4
fc
4
6
4
5
ff
fd
fd
2
2
fe
3
fb
2
3
1
2
fb
0
ff
4
fd
2
ff
2
fe
fb
5
2
2
fe
ff
0
2
fb
5
4
ff
4
fe
2
4
2
4
fc
1
fe
5
4
fc
fe
2
5
2
fe
fe
5
fa
3
0
fd
1
0
1
0
0
fe
0
3
fc
ff
fb
fc
1
3
fc
3
fe
ff
fc
ff
fb
2
ff
5
0
fe
fd
5
6
6
6
fd
f9
3
fe
fc
1
4
5
2
fc
0
5
fe
fe
0
ff
3
fe
ff
0
fa
0
ff
f9
5
4
ff
4
ff
fd
4
ff
4
fc
3
ff
fe
5
2
fe
0
1
ff
1
fc
ff
3
0
0
ff
3
1
fe
fc
3
2
6
3
0
ff
fd
ff
0
4
3
fd
fd
4
5
ff
1
2
fc
3
3
fe
fc
1
ff
fa
fe
3
ff
fe
2
1
ff
2
3
ff
ff
fc
5
fe
1
3
fd
2
fe
fc
fc
6
fd
5
4
3
ff
0
0
2
fe
2
2
fe
5
3
fc
3
fd
fe
3
fd
1
fb
1
0
fd
fe
6
0
fe
1
ff
fb
fd
fe
ff
fd
ff
2
fe
fc
2
fe
0
4
1
fd
fb
fb
fe
fd
fd
2
2
7
3
2
4
fe
1
fd
4
fd
fc
ff
1
4
1
fb
fa
4
2
ff
fc
2
2
ff
2
fd
4
fe
0
3
fd
fc
3
fe
fd
3
5
fa
fb
fb
fb
3
5
1
2
2
3
fb
fb
fe
1
fc
ff
1
fd
2
fd
3
3
fe
0
0
1
fe
1
1
2
1
fc
fe
1
fe
fd
fb
2
3
5
0
fd
2
3
fd
0
fb
fb
4
4
5
fd
4
fc
ff
fc
fe
1
fb
2
4
fb
fa
4
fc
5
fb
1
ff
4
5
1
fe
fe
2
1
fc
4
0
5
fb
1
0
4
2
5
ff
1
fd
fc
fe
1
5
0
0
ff
fd
4
0
ff
5
fd
6
fd
ff
1
0
4
5
0
ff
fd
fc
2
fe
2
fc
fd
3
2
ff
3
0
2
fd
0
fa
fb
fb
2
4
2
5
fc
fe
0
4
fb
fa
ff
fb
fc
1
fe
6
4
fd
3
4
4
0
fc
3
1
2
fe
ff
fe
3
fb
fe
ff
ff
4
fe
ff
fd
ff
1
fb
ff
ff
2
2
fd
fd
2
fe
fe
1
4
fd
fd
5
4
4
2
fd
fd
3
3
4
fb
fd
fe
4
fc
2
5
5
6
fd
5
2
fc
ff
5
0
6
4
3
fd
fd
fd
6
4
0
2
1
ff
fe
2
fd
fd
3
ff
1
fe
1
3
ff
fe
3
3
ff
2
1
ff
ff
4
0
2
fe
1
2
fe
fb
fd
4
4
1
5
2
1
ff
0
ff
1
1
5
ff
2
6
2
0
3
fe
4
1
fe
3
3
1
fd
3
fd
1
0
3
fc
1
3
fd
fd
ff
ff
0
1
6
4
ff
fc
3
ff
0
fa
fb
3
ff
ff
fb
fd
0
1
3
fe
1
fc
ff
fc
1
fe
0
fc
6
fc
fd
fb
3
5
fd
fd
fe
ff
5
2
fb
3
1
fe
fe
fe
2
3
fc
fc
4
2
0
fc
4
fd
3
2
3
6
ff
ff
1
2
fe
fc
3
6
0
1
4
fd
fd
fd
5
2
4
1
3
fe
1
3
3
4
fe
ff
fb
ff
ff
6
1
3
0
0
2
fd
4
fc
0
ff
2
2
1
2
1
fe
0
fc
fc
3
5
0
0
fb
1
fb
0
1
fc
5
1
fd
2
fd
1
fe
2
ff
fd
1
2
3
1
1
fd
3
fb
fc
0
fe
0
4
fe
5
fd
1
fe
3
fd
fd
3
fc
2
fe
0
4
3
1
5
2
fc
ff
fc
4
1
fd
fe
1
1
fe
5
2
fe
0
fe
1
2
1
fc
3
ff
ff
3
2
2
1
fb
3
5
0
fb
f9
fe
ff
fe
4
fd
ff
5
4
fd
ff
0
fd
fb
5
5
3
1
fc
0
3
1
4
3
fe
5
3
5
fe
1
0
fd
0
fc
ff
4
2
3
1
4
2
4
0
fd
5
6
4
fd
6
5
5
fd
3
ff
1
6
5
5
1
2
fc
fe
2
5
fe
fb
fb
1
fe
fd
4
3
fc
0
5
4
6
fc
2
ff
fc
fe
3
fd
0
0
5
fe
ff
fc
5
2
4
0
fd
3
fc
4
6
5
fe
fc
3
2
fd
fc
fe
2
4
6
3
fc
5
fe
0
fc
fa
0
fa
3
1
fc
fe
4
5
1
fd
fc
5
2
fe
3
fe
fd
fb
1
fe
ff
fd
2
fd
fd
3
0
fd
5
2
1
1
ff
4
6
1
0
fe
fd
5
ff
fe
4
fd
6
4
fb
fb
fc
2
fc
fd
3
fd
ff
fb
fe
0
fb
fa
ff
fb
0
0
1
6
fe
5
3
0
1
4
fe
0
2
2
fb
3
fd
4
5
2
4
fd
fe
3
2
3
fe
fb
2
1
fd
3
fd
fd
fa
ff
4
0
1
fb
ff
1
0
ff
fd
3
2
1
fb
ff
1
0
fe
5
5
4
fb
fe
0
fc
ff
fc
3
3
fd
0
3
6
fb
fb
ff
fe
5
0
fc
fe
fd
fe
5
2
fb
fe
fa
fd
ff
ff
1
4
0
4
0
fb
0
1
fc
2
4
4
2
fd
2
fe
5
fa
fd
3
fb
ff
fd
f9
ff
fc
2
4
fe
ff
4
5
3
fe
3
0
0
fb
fe
ff
0
3
0
ff
2
fe
3
4
3
3
ff
fe
4
0
0
2
3
4
0
2
fd
5
1
ff
fe
fe
fb
fd
1
fb
fd
fd
fe
ff
ff
1
3
2
fe
4
fd
2
3
fb
4
2
fa
3
1
2
ff
ff
ff
fd
fc
0
1
fe
fc
fb
fc
0
fc
0
fb
3
fa
fc
fa
fd
ff
fb
3
1
2
fc
fe
fc
fe
2
3
0
fe
3
5
fd
2
2
fb
fb
2
2
2
3
f9
0
fe
fc
fc
3
fa
0
ff
fb
fe
4
fa
5
ff
fd
1
1
fd
5
fd
fd
0
3
fe
5
6
2
0
ff
3
4
0
1
fd
fc
0
ff
fd
fd
ff
fd
ff
fc
ff
fc
fd
fc
ff
1
2
ff
fe
0
0
fe
ff
2
1
ff
fe
fd
0
ff
4
fa
1
2
fa
fc
4
0
fa
fd
fd
1
fc
1
0
2
fd
fe
6
2
5
fe
2
0
4
5
fc
fd
0
3
fd
fc
2
fe
0
4
ff
0
1
4
3
fd
5
4
2
2
fa
3
0
2
1
2
1
0
1
1
fc
2
4
fe
fc
3
fd
fe
3
2
fc
3
fb
0
1
3
3
fc
fc
2
fe
ff
fd
1
fd
4
2
1
3
fd
0
ff
0
3
4
fb
fc
2
fe
1
fd
fe
fd
2
2
fc
ff
4
4
fd
3
1
fb
ff
4
2
3
ff
f9
2
1
2
fb
4
2
4
2
fe
fb
fa
ff
fb
1
2
fd
5
fe
1
0
1
2
0
2
4
fd
4
ff
5
4
6
ff
fb
1
fc
fd
3
fb
fc
0
fd
ff
fa
4
1
fd
4
ff
0
fc
3
2
ff
4
3
6
3
fc
5
fb
0
f9
0
2
f9
fe
0
ff
fd
3
2
3
fc
6
0
ff
fc
0
fe
1
1
2
6
2
ff
4
fd
5
1
fe
2
0
3
1
0
fd
1
fc
4
2
fe
fe
2
ff
fd
1
1
1
f9
f9
1
fb
fc
1
1
fd
4
fc
fb
ff
1
4
3
2
fa
fc
1
1
3
1
2
fc
4
3
1
fb
fe
4
fc
fa
4
3
4
fa
fe
fe
4
1
fb
fe
fd
fe
0
fc
f9
fc
fd
0
3
3
1
fe
fd
fe
4
fe
fc
3
3
3
2
fe
5
ff
fc
fc
fa
0
4
fb
ff
4
fd
fc
3
1
fe
fd
fd
6
2
3
3
3
fa
f8
1
3
ff
0
fd
4
1
fe
ff
0
fc
2
5
ff
fe
fc
fd
fd
fd
3
3
5
ff
fb
fd
0
fc
fe
1
0
2
3
fe
1
ff
fc
2
3
5
fb
3
fe
fd
3
fe
fc
1
fd
fc
ff
2
fe
1
fc
3
fc
fa
fd
1
fd
2
3
fb
fd
fd
2
4
fa
0
fd
3
3
fe
fd
fc
3
ff
fa
2
fc
fd
3
fa
fb
2
2
fb
ff
fe
2
2
ff
fd
3
1
fa
2
4
fd
4
4
4
fd
3
ff
1
2
ff
0
fb
3
4
1
4
fd
ff
6
4
5
fd
5
fa
2
3
3
0
fd
fb
fe
fc
ff
3
fb
3
fd
1
0
fc
1
2
0
3
fd
1
3
4
fe
fc
ff
fe
fd
fd
fc
fd
ff
fd
ff
fe
4
2
fe
3
6
4
3
4
1
5
fd
2
fe
2
fe
3
6
3
5
3
4
2
fd
4
ff
5
1
fd
fe
5
fc
0
3
4
5
fd
fb
2
ff
fe
4
fa
ff
3
ff
3
0
ff
ff
0
fc
fc
fc
fa
fe
3
5
5
0
ff
1
1
0
fa
fa
3
5
0
4
fb
fc
ff
ff
fe
fd
0
2
1
1
fe
fd
fb
0
fe
ff
4
2
4
4
0
fd
fe
fd
ff
fe
fc
fc
6
fa
ff
fe
1
0
fc
fc
fd
fe
1
0
ff
fc
fd
0
ff
fd
fd
2
fa
1
fe
3
fe
fd
fe
1
1
f9
3
1
fb
ff
1
fc
4
fb
1
fe
1
4
ff
3
fb
2
fd
0
fd
0
2
fd
fe
0
1
fb
5
4
2
fd
4
fe
fe
2
4
2
fd
fc
1
0
fb
2
2
fc
3
fe
2
fe
fc
2
fd
fd
fd
fd
5
ff
3
3
fb
0
2
fb
ff
4
fb
4
1
1
0
3
1
fb
2
fd
4
4
0
fd
fd
1
2
5
fe
0
fc
1
5
fc
fd
fd
2
4
4
0
2
fb
fd
fc
0
fe
0
4
ff
ff
fd
fd
fb
2
fd
fd
fd
4
fd
0
5
1
5
fb
3
0
2
4
fa
4
fd
4
fb
fc
ff
6
3
2
6
3
ff
0
0
fc
4
ff
3
fe
4
fb
fc
5
fd
ff
4
fc
fe
fb
fb
fe
fb
fe
fb
2
4
1
2
fe
3
1
3
3
fd
fd
fe
ff
fc
fe
ff
2
4
fc
ff
3
fc
1
fd
3
fd
3
fb
3
fd
fc
fe
fd
fc
fd
3
4
fe
1
1
fb
1
fc
4
fd
2
0
fb
2
4
5
fc
fd
3
3
ff
2
fd
2
fb
1
3
1
fb
fe
3
fa
3
fc
ff
3
1
fb
fc
0
fd
1
3
4
fb
5
0
fd
2
fb
3
1
3
2
fe
fd
3
1
2
1
3
fe
5
fb
1
3
4
fc
fd
fd
ff
0
fe
fd
ff
ff
0
ff
4
1
6
ff
fd
5
fc
1
3
2
4
6
2
2
fd
1
ff
2
fb
ff
fd
fe
fd
3
5
ff
2
4
1
1
fe
3
fe
2
ff
fe
fc
0
3
fc
ff
ff
ff
4
3
6
0
4
4
ff
4
0
0
ff
5
1
fb
ff
fd
3
1
1
ff
fe
ff
fe
3
ff
fb
4
fc
2
2
3
fb
2
ff
4
3
4
fe
fd
ff
ff
2
fc
fb
3
0
ff
fa
0
5
5
fe
3
2
fe
5
2
ff
ff
3
fc
1
2
fc
0
3
fb
4
4
fc
fc
3
2
fd
fc
1
1
5
ff
1
4
3
fe
1
fa
3
fa
5
3
0
fd
1
2
fd
6
1
fc
fe
fc
2
5
5
1
3
fb
1
fd
4
3
fb
4
5
0
6
0
ff
fe
fe
5
2
4
4
2
1
3
6
0
0
2
fb
5
fd
fc
6
3
4
fd
3
6
fd
2
fb
7
5
2
2
fb
fc
fc
ff
3
4
3
0
fe
0
1
6
0
fc
2
4
3
0
0
ff
1
1
fc
4
3
2
fa
4
5
3
fd
3
fe
0
fd
3
fb
ff
ff
fb
fc
2
ff
3
fe
4
fc
fe
fe
3
fe
0
5
fd
4
fc
2
fe
ff
fc
fd
3
0
fe
ff
0
fe
1
4
ff
0
fe
4
fe
1
1
fe
fa
3
2
fb
fb
fe
0
5
3
1
4
3
0
1
ff
3
2
4
ff
fd
fb
3
5
ff
ff
5
fd
2
fe
fe
fc
1
fd
3
2
1
fc
6
5
1
1
ff
fd
fd
fb
fc
4
2
ff
4
ff
fb
4
5
3
fc
fd
6
6
fe
0
0
fe
4
0
5
1
fe
0
fb
4
2
fc
3
0
0
ff
2
ff
2
0
ff
fc
fd
ff
fb
1
1
0
ff
1
ff
3
3
0
5
6
fc
fe
1
5
ff
fe
fe
fe
fd
ff
0
fe
3
7
4
4
3
fe
fc
2
fe
0
fd
1
fc
fc
ff
0
0
3
ff
3
4
2
4
5
fb
5
fe
fb
fe
fd
4
fc
fe
2
1
1
fd
0
0
0
ff
6
fd
4
fc
1
fa
2
1
4
1
fb
ff
4
fd
1
fd
fd
2
3
5
2
0
0
2
3
fc
2
3
fc
1
4
ff
2
1
3
ff
ff
fa
1
4
ff
5
fe
3
0
fe
0
fd
4
5
ff
3
5
5
ff
5
fc
fc
ff
ff
5
fd
5
1
fd
0
7
3
6
0
1
fe
ff
fe
4
5
3
fc
1
3
ff
ff
fe
fd
5
3
1
0
fd
3
5
fc
fc
3
fa
ff
5
fe
6
2
0
3
5
fd
1
0
fe
6
6
fd
5
fb
ff
0
3
4
fb
3
5
fe
ff
fc
2
5
fe
ff
7
5
0
fc
fd
fe
0
6
fc
ff
ff
fe
fd
fe
ff
fd
1
1
fc
4
2
0
fc
2
fe
fe
1
fb
0
4
4
1
ff
ff
0
2
0
2
4
fc
fb
3
fe
2
fb
0
4
1
fc
fc
4
1
0
4
fb
fe
4
4
fb
fd
ff
4
3
2
3
fd
fb
1
ff
fe
1
fb
fc
6
fc
ff
2
0
4
4
0
ff
ff
0
5
0
0
fc
7
2
0
3
1
0
f9
0
fd
fa
3
1
fc
fc
fc
1
5
fe
3
fe
5
3
fd
2
2
4
fb
1
fd
3
fa
fd
3
ff
fa
fd
4
0
fc
fb
2
fb
1
fd
fe
3
3
f9
fe
fc
4
fc
0
3
3
fd
2
2
4
fb
fc
0
0
fd
ff
3
0
fc
0
fb
2
fd
0
3
ff
fe
ff
2
3
3
5
fd
ff
fe
ff
fc
6
0
fb
1
0
0
fe
2
1
fd
3
0
0
0
4
fd
ff
0
1
2
0
ff
0
0
fb
1
0
4
fc
ff
ff
f9
ff
fe
0
fc
fb
0
fb
fb
4
0
fb
2
fc
fb
fc
0
4
ff
4
1
fc
5
2
0
3
fd
5
1
fe
0
fc
0
1
5
5
fb
0
4
fe
0
2
1
2
4
fd
3
5
4
6
4
0
2
1
fe
2
fe
4
fe
fb
1
5
fc
fc
1
ff
fc
fa
1
5
fc
fe
3
1
ff
fd
1
3
ff
fd
fd
fc
2
2
fb
4
0
fd
fc
0
1
ff
fb
5
ff
fa
fb
1
2
fe
2
fa
2
ff
4
0
5
fd
fb
2
2
fc
1
2
fd
fe
fe
2
fc
fe
ff
fc
fd
fc
fb
1
4
4
fd
fc
1
fb
fe
f9
1
fc
fb
fe
fd
fe
fd
3
ff
2
4
5
3
4
fe
fd
2
5
3
3
fc
fc
3
0
4
fc
2
3
fb
1
0
fc
2
fe
fb
fc
1
ff
4
fd
5
4
fe
3
fb
fd
fe
6
5
2
4
1
1
5
2
6
fd
3
4
2
fb
ff
4
ff
fb
fc
fd
1
f9
1
fe
2
2
fe
5
4
fa
4
3
fb
fc
3
3
ff
fe
fb
3
4
2
3
1
5
fe
1
4
ff
fb
2
fb
ff
4
fb
1
fc
2
fc
fc
fc
2
0
2
fb
fb
f9
5
5
3
fd
ff
1
2
0
fc
2
ff
fc
fd
fe
2
3
fc
1
2
5
0
3
fb
fd
1
fe
fe
3
4
6
1
2
3
fb
fa
ff
0
fd
fa
fc
fc
5
fd
ff
fb
0
4
2
fd
0
5
4
4
2
1
2
fc
4
ff
fd
ff
fe
3
4
fe
fc
0
1
2
fc
fe
fd
ff
ff
2
fe
3
4
3
fe
fe
fc
0
fc
fd
fd
fd
5
fb
4
4
3
fe
fb
5
5
3
4
fd
5
0
2
fc
0
fd
fc
fd
0
2
fc
3
0
fd
4
fe
3
fc
2
fe
4
0
fb
ff
fd
2
fa
0
fe
fa
fb
1
1
fe
2
0
fd
fe
fd
fd
2
ff
fe
ff
fc
f8
0
fe
fd
2
fc
3
4
4
fd
0
3
5
0
fc
fd
1
1
4
fa
5
ff
fb
5
ff
fd
7
3
6
2
4
3
1
fd
2
3
fc
fb
ff
3
fe
4
4
0
0
fe
ff
fc
ff
2
fb
1
fb
fc
fe
fb
5
fe
fd
3
2
fb
4
3
fe
0
fc
3
4
fd
5
2
1
ff
fd
4
fe
fd
fc
fe
fe
4
3
2
2
2
fc
4
fc
fe
4
1
4
2
3
ff
fc
6
fb
fa
2
3
ff
3
2
1
0
fe
fd
fe
5
fc
5
5
fe
1
0
0
fd
0
ff
2
0
fc
4
fa
2
fc
ff
4
1
fb
0
5
ff
fb
fd
4
fb
fd
fd
4
fc
4
fa
4
6
ff
2
1
1
fe
6
fd
1
fd
ff
fe
ff
fb
0
fc
fd
fe
2
fb
4
fb
fd
2
2
fc
2
2
fc
ff
fe
fc
1
3
5
fe
fe
fd
2
6
fd
3
fd
2
2
4
ff
4
fb
ff
fe
3
1
fa
0
fd
fa
1
5
3
4
5
0
fc
5
0
3
1
fc
fe
ff
0
fd
fc
2
4
fe
fd
fd
0
fd
fe
fd
2
1
3
3
4
ff
fe
6
fe
fc
fe
1
3
fd
3
1
fe
fe
5
ff
fe
1
fc
1
0
fd
1
fd
3
fc
ff
2
fc
fc
fd
4
4
fe
fa
fc
fd
3
fe
4
fb
3
fb
5
fb
fe
3
2
1
2
fe
1
6
ff
fd
0
fe
4
fe
fe
2
1
ff
fd
fa
fc
2
1
ff
fd
6
fc
2
6
4
3
fc
0
4
fb
fd
2
fd
fd
ff
fd
ff
5
fd
4
1
ff
3
ff
0
5
fc
3
1
1
3
3
fb
4
2
ff
ff
fb
fb
ff
fe
fd
fd
fd
ff
5
1
2
fd
2
4
5
fd
fd
1
fe
1
0
1
fd
4
4
fd
3
2
ff
fb
ff
3
ff
1
2
0
fc
fe
0
2
2
4
5
ff
f9
fa
3
ff
4
0
fd
2
1
fd
4
fb
2
4
0
1
fe
1
fc
fe
fd
4
fe
0
fd
ff
fa
0
fb
fc
3
fe
2
3
6
fd
6
fe
0
fc
6
fe
1
2
3
5
0
0
fe
0
0
fd
fd
2
1
fd
fd
ff
1
fd
4
5
3
3
4
fa
ff
4
0
5
2
2
fe
fb
ff
2
fc
fd
0
1
2
fd
fd
5
0
2
0
2
ff
2
2
3
5
2
fd
fb
3
fd
4
ff
fd
3
fd
ff
ff
fe
0
ff
fc
fe
fc
0
4
ff
4
fb
2
4
0
6
fe
fe
0
5
5
2
4
fa
ff
fc
ff
0
fc
f9
4
2
4
4
fd
fd
2
fd
fb
0
fd
0
1
ff
fa
fb
2
fc
fe
6
ff
fb
1
2
1
fd
fb
fc
fe
3
ff
0
4
fe
fc
ff
1
2
fc
fc
fe
fd
2
fb
1
fd
2
0
1
fc
fc
ff
0
fb
ff
1
ff
fe
fe
fb
fb
fd
fb
4
2
0
0
3
fd
fe
fb
fc
fc
3
5
fb
2
2
0
3
fd
fe
4
1
fe
fa
fb
fb
0
fe
1
ff
5
fd
2
2
ff
1
4
1
fe
fe
fc
ff
6
4
fd
5
fc
0
fe
1
fe
ff
6
6
fb
fe
0
fe
1
fc
fc
4
4
fd
2
fb
4
1
fe
fd
1
1
fc
3
0
2
2
3
fd
0
fc
fd
fe
fc
fd
2
f9
fb
fc
fe
0
1
fe
fe
2
4
1
4
4
3
fc
ff
1
5
0
0
1
ff
fd
fd
5
3
fd
fd
fd
0
fd
4
f9
fd
fc
4
fb
fb
fa
3
fb
3
fd
fe
3
4
ff
2
1
fb
0
6
fb
fe
0
4
ff
5
5
4
fd
5
3
fd
fd
2
1
2
fe
fd
6
fe
fc
3
fc
2
ff
1
1
ff
fd
fb
5
2
fb
2
0
fc
3
3
5
fe
fc
ff
fc
fc
fb
fc
fd
ff
0
fd
2
fb
5
fe
5
4
5
1
5
fe
2
fa
4
fd
4
3
fe
fe
fc
5
3
fd
fd
0
fd
1
fb
0
4
4
2
3
4
fd
fc
3
ff
fb
fb
fd
3
1
3
fd
fe
3
2
3
6
3
2
3
fd
3
3
1
fe
2
fd
3
4
fd
fd
fe
5
5
6
fe
3
0
0
ff
1
0
2
ff
6
0
4
fd
fb
1
fc
fd
fe
fd
fe
fd
5
0
ff
fb
fc
ff
fc
2
fa
1
fc
1
2
1
1
fd
3
fb
1
fe
fe
2
3
1
ff
fe
ff
0
5
ff
1
6
ff
fc
4
2
3
fc
5
1
ff
fe
ff
ff
3
4
fe
0
1
1
5
2
ff
6
6
3
0
5
fc
1
ff
fd
3
fd
4
fe
3
3
3
fc
fc
fd
5
0
4
2
fc
fd
6
0
4
fc
1
0
4
ff
6
2
ff
5
3
ff
0
fb
0
fe
5
0
1
fb
4
3
fe
ff
fa
0
0
fb
2
2
2
0
4
fe
fe
2
fa
fb
1
2
2
fd
3
2
fe
2
fd
fb
fe
1
2
fd
2
fc
2
4
0
1
ff
fe
4
0
1
fd
ff
2
3
2
fb
fd
fc
5
4
5
1
ff
0
fc
fe
0
0
2
4
0
ff
3
fc
0
2
0
fb
2
fb
0
fd
0
fd
1
4
6
5
fd
1
5
0
4
fc
fc
0
1
ff
fd
fe
2
1
1
fc
fd
fb
4
1
1
5
3
1
3
4
0
1
6
fe
0
fd
fd
fc
0
f9
fa
f9
fa
0
ff
3
4
fe
fe
1
0
5
ff
ff
0
4
4
0
1
4
fd
fd
fc
1
fb
2
ff
fe
3
1
fc
4
3
fc
5
3
0
ff
ff
fc
ff
4
fe
4
ff
fd
2
2
1
2
fd
fc
fb
4
fe
0
1
6
1
3
3
1
4
0
4
4
fe
2
1
0
fb
fb
fc
fe
2
fc
0
5
fc
fb
4
4
fa
2
ff
2
fb
fe
fc
1
2
fd
fb
5
fc
fe
1
2
4
0
5
fd
fc
4
4
4
fc
fc
fe
0
0
3
1
ff
fd
3
0
5
2
0
0
4
ff
fc
fd
2
4
fc
1
fe
2
fc
1
4
3
fd
fb
fe
1
5
fe
ff
4
5
fe
3
4
5
fb
fe
fd
4
2
1
fd
fb
5
4
ff
fc
2
0
1
fc
1
0
4
3
3
2
ff
3
fb
2
fe
fb
3
2
0
ff
2
fa
3
fe
4
0
fc
fe
5
ff
3
fe
1
ff
fd
4
5
fe
3
ff
fc
0
0
fb
fd
fa
1
ff
3
3
ff
2
4
fc
fd
fd
ff
fc
fe
2
1
4
fc
0
fc
fe
fe
3
fb
3
ff
fc
ff
fc
2
fe
3
fe
2
3
ff
f9
fd
fe
fe
fd
ff
1
3
ff
2
fc
1
fe
fb
5
fd
fc
2
ff
ff
fe
1
fc
fb
0
fb
1
fc
2
2
2
fb
3
0
1
1
0
4
2
fe
3
4
4
0
fe
2
2
0
2
ff
0
ff
ff
fc
fd
fa
2
1
fb
fd
0
fd
ff
fd
4
4
fe
fe
fe
0
4
fe
2
ff
fe
3
2
3
fa
fd
ff
fe
2
4
ff
fb
2
3
0
4
4
fc
1
fb
3
5
4
fd
4
5
5
0
ff
fc
0
4
4
f9
fb
fe
fe
fd
fb
4
fc
fb
2
ff
3
3
fe
3
ff
fb
ff
fe
fe
0
2
1
3
4
3
3
0
fc
3
fb
fe
fb
fb
fc
3
0
0
fc
2
f9
0
fe
fe
3
fe
3
fc
2
ff
0
0
fe
fc
fc
fe
fa
3
2
fb
fe
fc
fb
4
1
fd
fd
fd
ff
2
fe
fe
ff
fe
6
fb
1
4
fb
6
fd
fc
fc
fb
1
5
5
1
fa
2
fa
f9
fc
2
ff
fe
fe
fb
fb
2
2
5
3
4
0
fb
3
3
1
1
fe
4
0
fb
3
fb
1
ff
4
3
2
4
0
3
2
fe
fd
6
1
fd
3
2
6
4
1
6
5
fe
fe
ff
1
0
ff
0
0
3
ff
f9
2
ff
3
4
fd
fc
0
ff
fc
fe
fe
ff
0
1
4
1
fe
fb
fa
0
fc
fc
fc
fb
1
2
ff
1
1
fc
2
fc
fa
fb
ff
fd
2
ff
1
fc
fb
0
1
fb
0
1
2
fe
ff
4
4
0
2
fa
fe
1
2
6
fd
3
fe
fe
6
2
2
1
ff
fe
fb
1
4
1
2
fb
0
4
ff
ff
ff
2
3
0
4
4
fb
1
1
fb
fe
fc
fc
fd
1
1
6
fa
fd
5
5
fe
ff
fd
fe
ff
fe
0
4
fb
fd
1
2
1
fc
3
fe
fd
fe
0
fb
fa
fb
fe
fe
2
fd
3
1
5
5
3
0
fd
4
4
ff
0
fd
fb
3
2
fd
6
4
6
fd
2
fd
5
fe
2
1
ff
3
4
ff
fa
fe
fd
2
5
fb
3
fe
ff
0
0
fb
3
fe
fa
4
fb
4
1
fb
fd
fb
2
ff
5
1
fc
fa
fd
1
fd
2
fc
ff
fc
ff
1
fc
3
4
3
0
fe
3
4
fd
3
2
2
fe
fd
1
4
4
fb
0
fc
2
5
3
ff
fe
fe
1
2
4
fd
4
fd
ff
2
1
2
4
5
ff
0
ff
1
1
fd
1
3
fd
ff
fc
fc
fe
2
1
4
0
4
ff
4
5
1
ff
fe
4
fc
fe
1
2
1
2
0
3
2
fd
fd
fb
fd
2
fd
3
fd
4
4
5
4
2
5
fe
5
4
4
2
4
5
fd
fb
0
2
5
3
0
5
6
fe
3
4
fd
2
2
fd
2
2
fe
fe
ff
ff
4
fd
fe
0
fd
4
0
fe
5
1
1
3
fe
0
4
fd
0
fe
fb
ff
fd
4
fc
4
6
fc
fa
fc
3
2
1
4
1
4
5
fe
5
3
2
2
fd
fe
fd
fe
1
fc
fd
fe
fc
3
6
1
2
5
2
4
2
0
5
2
fd
3
2
1
fc
3
ff
2
fb
5
1
fe
fe
fe
fa
fd
ff
4
fb
5
ff
4
3
fd
ff
fe
5
2
fe
fd
fe
fb
0
3
1
fc
fd
fc
4
0
fd
fe
fb
fd
fb
5
2
3
fb
2
fc
0
fc
fd
0
fc
0
3
fe
4
fc
ff
0
0
4
ff
ff
fc
fc
fe
3
ff
2
1
ff
0
3
fd
2
fb
1
fe
0
3
fd
1
fd
0
2
fc
ff
1
fd
3
fc
1
fb
0
3
3
fc
fb
ff
2
4
3
5
2
2
fc
fd
4
ff
1
2
fb
0
3
fe
fe
4
4
0
1
4
5
fc
fd
fe
fc
fb
0
fc
2
fe
4
5
fc
fe
ff
fd
1
fe
ff
4
ff
3
2
0
3
ff
fc
fe
fa
3
0
0
fe
1
2
fe
fc
ff
2
fb
4
fd
fd
4
4
fe
6
0
4
fb
1
1
4
ff
5
2
fc
fc
fc
ff
fd
0
5
3
3
1
fd
4
2
3
3
3
fd
0
ff
fc
fb
fb
fe
2
fc
2
fd
fd
fb
fe
1
fb
fd
ff
fc
fe
3
0
4
fd
fd
1
fc
5
1
3
fb
fe
fc
fe
4
fe
fb
3
0
2
6
3
3
fe
3
fd
ff
2
fb
fb
fb
5
3
fb
fe
fc
0
fe
1
fa
fe
4
3
ff
fe
2
fe
fb
ff
fe
4
fe
fc
fc
fb
fb
3
fc
fc
fc
4
ff
0
fc
fd
2
3
1
1
2
fe
0
ff
fa
fb
0
fe
fe
fe
fa
6
fe
2
ff
2
fc
fe
fd
0
2
fe
5
3
1
ff
2
fe
4
fb
2
fc
1
fd
1
fc
fc
fb
2
fd
0
ff
6
0
1
5
ff
fc
2
fd
fa
1
0
5
fd
fc
ff
1
fb
fe
5
2
fd
fb
4
ff
5
3
fb
3
0
6
5
ff
2
ff
2
4
0
5
fc
2
0
ff
5
fe
4
fc
fd
fd
6
5
fb
fb
0
1
fc
fb
2
1
2
fd
1
0
fa
1
3
0
4
0
2
0
ff
3
0
fe
0
fb
2
ff
fd
fb
6
2
0
fe
fc
1
0
2
3
4
0
2
fe
1
fb
fb
4
3
4
fc
2
fc
4
fb
fd
0
4
fc
fc
0
ff
2
5
1
2
fd
1
2
fd
fe
fc
0
3
fe
ff
4
fd
4
4
1
fa
3
2
fe
fd
fe
1
fe
fd
3
fd
ff
fd
4
ff
fa
fa
fc
2
fd
0
fe
1
fc
ff
fc
ff
2
fe
ff
1
fb
3
3
6
ff
2
2
1
fe
fc
1
4
2
0
fe
2
1
2
fe
0
0
ff
1
fe
1
4
ff
4
2
4
4
fd
1
fd
fc
5
0
1
6
fc
6
fe
fc
ff
5
4
fd
4
1
fb
4
fb
2
fc
3
3
4
5
fc
4
3
2
fc
ff
4
fc
2
1
3
ff
fb
4
fb
ff
4
f9
5
fc
fd
1
3
0
3
2
2
fc
1
3
fd
0
fa
fd
fc
1
5
3
fa
3
fd
ff
ff
0
fd
fd
ff
2
fd
4
f9
4
ff
1
fb
fd
1
5
5
4
0
fc
2
2
ff
1
3
fd
0
4
3
0
1
2
ff
ff
2
fd
3
5
ff
4
3
0
fe
0
fe
3
1
fd
fc
3
ff
fb
4
fc
5
fd
0
ff
2
fa
0
3
2
f9
ff
0
fe
2
2
0
3
fc
ff
3
fd
3
0
1
fb
1
fb
fb
5
1
fb
0
5
fe
fe
3
ff
fb
5
2
2
fe
fe
fe
fe
5
fe
4
fc
ff
fb
2
fc
3
2
ff
5
fe
6
5
fe
fc
fe
fd
fc
3
fe
5
fe
fd
6
1
1
5
2
ff
fc
0
fc
ff
fb
fc
3
5
2
5
5
fa
3
fd
ff
fd
4
3
2
5
ff
fc
4
fc
3
fb
fa
1
6
2
fe
5
fb
fc
3
0
1
fb
f9
fe
fb
ff
fd
0
4
4
1
0
0
fd
fe
2
fd
fe
fd
2
0
0
4
3
1
fd
2
0
3
ff
6
0
2
6
fc
fd
ff
ff
ff
3
fb
4
fe
fe
fc
fd
1
4
ff
fc
5
3
0
3
3
0
1
fc
fd
2
2
1
0
ff
ff
3
1
3
fe
fe
fc
3
0
fd
ff
fd
0
fe
fa
1
fd
4
3
fd
fd
fc
3
3
fd
ff
5
2
2
5
5
fb
1
fd
fb
fc
fb
0
fd
1
fa
0
0
2
1
0
fd
1
4
2
ff
fa
2
fd
2
fe
4
0
1
5
4
3
fd
fe
ff
fc
fd
fe
fd
4
ff
fb
fe
fc
3
fc
fe
fb
fb
fc
3
fc
fd
3
1
3
fb
fb
5
6
0
fc
fe
fe
2
fc
4
ff
1
5
ff
4
fe
4
fd
2
2
3
4
fb
0
ff
4
ff
1
fc
fd
1
fe
fa
fe
fe
0
fe
3
fd
fe
fc
fe
fc
1
fc
0
fd
4
2
fa
4
fe
1
fc
4
fe
2
fe
3
4
ff
4
fd
0
fb
0
0
2
fc
2
fd
fb
fa
5
0
fd
0
fd
0
ff
ff
fd
3
fc
fe
4
4
fc
3
6
5
2
5
4
fc
fd
1
0
fc
2
fc
fd
fc
0
5
fc
fe
4
3
4
1
fc
4
3
2
fc
3
0
5
6
5
0
4
2
fe
fe
6
ff
4
1
fe
fd
fb
fc
3
3
2
3
1
4
fd
fd
0
fd
fd
3
fc
ff
0
ff
fb
fe
3
3
fa
ff
fe
2
0
fa
4
fc
4
3
0
0
fc
fc
fe
1
0
fd
1
fd
3
1
1
1
3
ff
5
fc
fd
fd
2
ff
4
5
fd
5
5
0
5
2
0
3
1
1
1
ff
3
0
ff
fe
fd
2
0
5
4
6
1
5
ff
4
0
5
ff
3
fc
ff
2
0
0
fb
3
fe
ff
fb
fc
fc
0
1
2
fe
1
6
fe
ff
0
4
2
0
ff
fc
0
0
4
fa
fd
fd
fc
4
fa
4
fc
2
3
2
0
0
1
fe
fe
4
1
2
3
ff
fd
2
fa
1
fc
3
0
0
3
fa
fe
2
4
1
fe
1
fc
2
0
fe
4
ff
1
3
fb
2
fb
4
3
0
1
fe
1
fe
5
ff
ff
5
0
1
fb
3
fd
fd
1
0
ff
3
fe
fc
0
f9
2
ff
fd
5
3
5
6
fc
ff
4
fb
5
6
1
1
7
2
4
ff
fe
fb
0
fe
2
fb
3
2
fd
2
fc
3
fa
4
3
f8
fb
1
f8
2
fc
ff
0
fd
fc
0
2
fc
1
fe
3
3
ff
fd
fc
5
fe
fc
6
5
2
2
2
fd
fd
fd
2
4
fa
0
0
fb
ff
3
3
fa
fd
ff
fb
2
2
fa
fd
fc
fc
5
0
5
1
2
4
5
ff
ff
5
3
fe
6
fd
ff
0
fd
5
0
fc
1
2
fb
5
fb
2
fc
ff
0
fd
2
4
fe
ff
ff
fc
0
1
fd
1
fc
fc
ff
1
fd
2
1
fd
fe
fe
2
4
fa
3
2
ff
fe
0
fe
3
4
fe
2
ff
2
2
5
3
2
fa
2
fd
1
1
0
5
fc
fe
1
fe
ff
fc
3
fc
3
fd
1
f9
ff
6
0
ff
5
1
0
fc
fe
fb
fe
1
2
4
fe
fe
3
4
fe
fc
3
4
fd
f9
ff
0
fa
ff
fc
fc
3
ff
fe
2
fb
fc
fa
fe
6
4
1
fd
1
fe
0
fc
fb
4
2
3
fc
3
fd
4
fb
3
0
fe
5
4
2
5
fb
0
3
3
fe
fd
5
1
2
fd
3
fc
fd
0
ff
1
fd
fd
5
1
8
fe
ff
1
fd
4
0
ff
fd
4
4
fa
3
ff
0
3
fb
0
2
fd
fc
4
fc
0
fe
fd
fc
1
fe
fd
fe
4
fb
2
4
1
5
fe
fe
2
fd
ff
fd
0
fc
fe
fd
2
3
fd
fa
fd
fd
fb
2
4
fb
1
fc
ff
3
fd
fb
fc
4
fb
ff
fd
5
fe
fe
fd
fd
fe
1
0
fe
fc
2
2
ff
5
fd
0
5
2
3
fb
3
fd
fd
5
fc
4
fe
0
0
ff
4
2
2
fa
0
fe
fe
fb
2
fb
1
fd
2
fd
ff
fc
3
2
0
fd
0
4
fe
fb
fb
2
0
3
1
fb
3
fa
ff
0
fc
fb
0
fc
ff
0
fc
fd
fc
5
2
2
fc
4
fe
4
3
ff
ff
1
3
1
ff
ff
fe
0
5
fc
5
2
3
1
4
1
fe
0
5
fe
2
fb
fd
4
1
5
2
5
5
5
fa
1
fc
4
fc
4
fb
6
fe
fc
4
fb
fb
1
3
fc
3
fe
fb
fe
1
2
fb
fc
fd
4
ff
fb
5
2
fd
fe
1
5
fe
fe
fe
fd
3
fe
4
fe
ff
0
0
4
4
2
3
3
fd
fe
fd
ff
3
4
6
ff
4
3
0
ff
5
fc
fc
2
4
ff
4
0
fc
1
fa
fd
3
fa
fc
fd
0
2
ff
2
2
fc
3
fb
1
ff
f9
2
fc
3
fc
fb
ff
0
1
ff
fe
fe
fa
0
fa
fc
ff
fe
ff
fd
fc
fc
0
fd
f9
f9
1
3
1
3
fd
fd
ff
ff
6
fe
fe
ff
fb
3
3
fd
fa
fb
ff
0
fd
fd
fd
fe
ff
fe
fe
3
fd
3
3
3
5
1
3
fb
5
ff
fd
3
3
fd
1
3
3
f9
f9
ff
fd
1
0
4
4
fd
6
3
2
4
2
fe
4
fd
0
fe
5
fe
3
fd
ff
fa
5
2
fc
fc
2
fe
5
1
3
fc
ff
1
2
fd
3
fe
fe
fd
2
fb
1
fa
2
fc
fd
4
ff
fc
6
fc
fb
ff
4
4
fd
fc
4
fd
5
4
2
0
fc
0
1
fe
fb
ff
3
3
0
1
fc
fc
fb
f9
fe
fe
fc
fd
fe
5
1
fb
2
0
3
ff
ff
0
6
4
2
fc
1
fd
fd
fe
3
fd
1
fe
fd
0
0
fd
fe
3
1
fa
fc
fc
fb
2
fc
2
fc
fc
fd
fc
5
ff
3
3
1
fc
0
fc
5
ff
fe
3
fb
fc
0
fd
3
fc
2
fd
4
2
2
6
fe
fc
fe
3
4
ff
fb
3
4
2
0
fe
fe
fe
0
3
ff
1
fe
fd
1
0
ff
ff
0
1
fe
2
fe
1
fb
4
1
4
fd
2
1
fa
2
3
fc
2
0
fe
2
fd
3
fb
2
fc
4
2
1
2
0
3
fb
fa
fb
ff
fe
2
fd
fd
5
fe
3
4
fc
1
2
2
3
0
fc
0
4
fd
2
fe
fa
0
1
0
fa
0
fc
fc
0
1
2
ff
ff
fc
0
fe
0
fa
1
1
fc
fe
fc
3
4
fb
0
4
fd
3
5
ff
0
4
fc
0
0
4
fd
fd
fd
4
ff
2
2
2
2
1
2
f9
fe
4
1
fb
1
1
ff
0
4
3
ff
fd
ff
2
4
fe
4
2
3
0
2
fc
2
fd
fe
2
fd
4
fd
fc
3
ff
4
fe
ff
3
fd
0
4
4
fa
1
6
0
fe
1
fe
0
3
2
2
3
ff
fb
2
ff
fc
fd
ff
fc
1
fe
1
ff
4
0
5
fd
6
fb
fb
1
3
1
1
6
2
fb
6
fc
fb
2
fb
fc
4
ff
fd
fd
0
0
3
fd
ff
4
2
0
fb
fe
1
fe
ff
fc
fd
fe
ff
fc
0
ff
fb
1
3
fc
0
4
ff
fd
5
fc
3
fd
1
fe
fd
fc
1
1
fd
0
fc
4
fb
4
2
fa
fc
3
fb
1
ff
ff
fe
fe
fb
2
fd
ff
fe
ff
5
1
ff
0
3
fc
fe
3
fc
fd
2
2
1
ff
fc
fe
fd
0
1
2
fc
3
2
fc
ff
fb
1
fa
2
0
4
fe
1
fc
0
fe
2
1
1
1
2
5
5
5
1
fd
5
ff
1
fc
fe
0
fb
fc
fe
6
ff
3
6
1
0
fd
fc
0
4
ff
5
ff
fd
fb
2
3
2
0
6
5
fc
2
3
ff
5
3
5
ff
4
1
f8
ff
0
f9
1
fa
3
0
1
1
1
1
0
1
fd
3
3
fe
fe
fb
ff
5
4
fc
5
fb
3
0
5
fe
fd
0
4
0
1
fd
3
5
6
ff
0
5
fc
5
1
fd
2
ff
5
1
fd
fc
fc
fb
fd
ff
1
1
0
fd
fe
4
4
4
4
2
ff
1
fc
fa
fa
2
0
fa
fb
fa
2
1
fb
fd
3
ff
fd
3
fd
4
4
2
5
fd
4
3
1
0
1
2
3
3
1
0
2
2
3
2
1
ff
3
3
3
3
fb
fd
fa
f9
fc
fd
2
1
fd
fc
3
fd
fd
0
3
fd
fa
f9
fc
0
ff
3
ff
0
2
6
0
2
3
2
fe
4
5
6
0
ff
ff
1
fe
fb
3
3
fc
1
2
fc
1
ff
fa
4
fd
2
fe
2
fb
ff
fb
5
fc
5
1
fe
fe
fd
fd
2
fd
2
2
4
fe
ff
1
ff
3
ff
fa
4
0
fe
0
0
3
4
fc
0
3
4
0
0
ff
0
5
fa
fc
fa
fc
fd
ff
4
2
0
1
0
2
3
fe
2
fc
fe
1
ff
fd
fe
3
5
5
0
3
fa
3
ff
fc
4
fe
fe
1
6
2
fc
fc
3
fe
fc
fe
fe
fd
5
0
fe
ff
fc
4
fd
fd
f9
5
fe
3
fd
fe
5
3
1
2
fc
3
2
0
2
fd
0
3
2
1
fb
1
0
1
4
3
fd
3
ff
3
fb
0
0
1
1
0
3
fc
fe
fd
fd
fd
1
3
fd
1
5
0
1
4
1
fd
fb
ff
3
4
ff
2
fa
ff
fb
fb
2
fa
1
5
2
4
fe
2
2
3
4
0
fe
fd
4
0
fd
4
0
fb
fa
fd
4
fc
fb
1
5
fc
1
fe
fc
fe
ff
fd
0
ff
2
fc
fb
5
fb
3
fe
1
5
4
2
2
fb
fb
2
6
fc
fb
1
ff
4
fd
fd
5
1
2
fb
6
3
1
fd
3
ff
4
fa
fa
0
1
1
ff
fc
4
fb
fe
1
ff
fe
fe
4
2
3
4
4
ff
4
2
fa
2
fd
fd
3
fb
fa
ff
fe
1
ff
fe
1
5
1
ff
5
ff
fd
0
4
3
ff
4
fc
1
ff
2
3
fb
4
4
fb
fc
2
fb
fd
2
1
1
0
fc
ff
3
ff
1
0
2
ff
fb
ff
3
2
ff
fd
1
fa
1
2
fd
2
3
fd
2
fc
3
2
fc
fc
ff
2
1
2
ff
2
fd
fb
1
0
2
fc
3
fc
0
3
0
3
ff
2
1
2
0
1
fe
fc
fd
5
fd
fa
fa
4
f9
0
fe
ff
fb
fc
fd
0
4
fb
3
4
0
fc
2
4
fd
4
ff
ff
0
3
1
ff
2
5
0
fc
fa
0
ff
fc
0
3
2
fb
3
0
2
3
0
ff
2
ff
2
3
1
4
0
1
fc
fd
4
0
ff
2
0
fc
fe
fc
0
fd
fb
3
3
fe
3
ff
fa
fe
1
fe
2
fe
3
1
fe
0
2
ff
fe
6
fb
fd
1
3
fb
2
0
ff
5
3
fb
fe
fd
ff
0
1
0
1
fd
2
4
fc
0
4
fc
fa
ff
0
3
4
fa
f8
0
0
0
5
5
fa
1
fe
fd
ff
0
0
fe
0
fb
fc
fd
3
2
0
0
fe
1
ff
fd
1
fb
1
ff
ff
f8
2
ff
2
0
5
0
4
fe
2
5
5
1
1
ff
fe
4
0
fb
fc
2
fe
2
0
fd
fd
6
ff
0
3
3
fd
4
fd
ff
fb
3
fc
fd
ff
fe
1
fc
4
fc
ff
3
fd
fc
5
4
6
0
fd
4
fd
fb
0
fc
fb
fe
2
ff
4
fc
ff
fa
0
1
6
6
2
fd
ff
0
ff
1
fe
ff
3
0
2
5
3
1
3
fe
1
2
3
fc
fe
fe
2
4
ff
fc
3
ff
4
1
fa
6
fd
fe
1
4
0
fd
2
3
2
fc
5
fc
fa
2
fd
ff
fe
ff
fb
fe
0
2
4
2
fd
0
0
ff
f9
1
fa
fa
fd
ff
0
3
0
2
fb
0
1
0
2
3
ff
6
fd
fb
1
ff
4
3
3
fd
2
fc
2
3
fb
2
2
2
fe
4
4
3
ff
5
1
6
ff
1
fd
ff
fe
0
1
fd
fd
0
fa
1
ff
fe
2
fa
0
fc
fe
fe
3
fe
3
0
fc
fc
fe
f9
fd
2
fd
fb
fd
0
fb
1
4
ff
3
4
fc
3
1
fe
2
fb
fc
0
fe
1
fb
5
f9
ff
fe
0
3
3
ff
fe
fb
fd
4
fe
0
fa
3
3
fc
fa
1
fc
5
0
fc
fd
fe
fe
fe
0
1
2
ff
fc
0
fe
0
3
fa
4
4
2
4
1
2
1
fe
0
5
1
ff
4
3
2
fc
0
fe
3
ff
6
1
fb
fe
fa
2
1
3
5
4
3
1
f9
0
fc
fa
fd
0
ff
fc
4
ff
4
0
ff
1
fe
3
fd
6
fd
2
0
fa
0
1
4
fe
1
fe
2
fd
0
fe
fc
fc
fa
2
fd
1
fb
2
3
ff
2
4
fb
fc
ff
ff
fe
ff
2
3
2
2
fc
1
fc
3
2
fc
3
ff
3
f8
2
6
f8
fe
4
2
1
3
fd
ff
4
fc
ff
fc
fb
ff
3
2
5
1
fe
fd
fe
ff
3
3
1
fe
4
fe
ff
ff
fe
1
1
2
4
2
fa
fd
4
ff
3
2
fc
fe
3
fb
fc
1
4
4
fe
5
0
fc
3
ff
fc
fe
fc
fe
6
fd
3
fe
4
0
fd
fc
3
ff
ff
0
0
4
ff
fd
fd
ff
ff
fe
3
3
fc
fc
4
fc
fc
fd
1
fe
0
0
3
fc
ff
4
fd
1
fa
fd
0
fa
2
1
2
fc
fe
fd
fe
ff
2
fe
6
5
f9
f9
0
fd
ff
1
0
ff
fb
2
1
fe
fd
0
fe
ff
2
fd
fe
fd
fe
fe
3
4
fc
0
2
4
f9
0
3
fb
3
4
4
fe
fd
fe
1
fd
1
0
0
1
3
1
fe
fe
2
fb
fb
5
ff
0
fa
3
2
4
2
fe
0
fd
fe
5
1
2
fc
6
fc
fb
1
7
2
5
ff
1
4
fb
fd
fd
0
fd
fa
fd
1
3
0
2
1
0
3
5
1
fe
fc
1
6
fd
fb
1
4
3
1
fc
fe
fb
3
ff
2
fc
4
0
fe
2
4
fd
4
ff
3
0
1
fd
ff
fc
fd
1
4
fa
fd
fe
5
0
4
2
fd
fe
ff
4
1
fe
fd
5
2
ff
2
1
fe
1
4
2
0
2
fe
1
1
4
0
5
3
fd
1
1
fd
2
fd
fc
2
fc
0
0
fd
ff
0
2
0
3
fe
ff
ff
fc
4
0
1
fb
0
4
fa
fe
3
fd
4
1
1
3
fe
fc
4
ff
fb
fe
0
4
fd
fc
fd
0
2
fe
3
3
fe
0
ff
4
ff
fe
fd
ff
fd
3
5
fb
2
ff
ff
1
fc
4
2
fd
3
4
2
fe
4
2
ff
fc
fe
5
fd
0
fe
fe
5
3
fc
fc
1
3
fc
fc
fc
fa
2
5
fb
f9
6
3
ff
1
3
2
ff
fe
5
fe
0
6
fb
fe
fe
2
fc
2
2
fd
ff
1
fd
1
0
fc
3
1
0
ff
4
fe
fc
2
ff
3
3
fd
ff
1
2
fc
4
fc
ff
fc
0
0
4
fb
3
fe
3
fb
3
fe
3
fc
0
fa
4
fb
fe
fe
ff
1
2
fb
fe
4
fc
ff
2
4
fa
1
fd
0
fb
ff
2
fb
3
1
fd
1
3
fe
2
fc
3
5
3
2
fb
4
1
0
1
fe
fa
fd
fd
0
fa
ff
fc
0
1
fc
fd
1
1
fc
5
2
fe
0
fd
4
fd
fe
fc
fc
fc
4
1
4
fd
3
4
fa
ff
6
2
ff
fd
5
6
fd
3
6
ff
1
3
fd
3
3
ff
fd
fd
fe
fb
fc
2
fb
2
3
fd
ff
7
fe
0
ff
1
3
0
ff
fd
3
4
fd
6
4
fe
0
4
2
fa
0
2
1
fe
fe
0
1
4
fd
3
ff
2
2
4
fe
fb
fb
1
0
4
0
fc
fc
0
4
5
fe
2
fd
fe
5
ff
2
5
4
3
fd
fd
1
ff
fd
3
1
fb
0
fa
fd
ff
4
4
3
ff
0
3
fc
ff
fe
3
fa
4
3
fe
0
fa
3
4
0
5
ff
0
1
1
0
fa
5
ff
fb
3
2
5
5
2
ff
5
fc
fe
fd
ff
2
fc
3
fe
5
4
2
fd
fb
f9
f9
fc
fc
1
4
ff
4
fb
1
fe
fd
3
1
1
3
fd
0
4
1
fd
ff
6
7
6
fd
3
0
2
fc
fd
1
1
fb
fc
f9
ff
0
fb
fd
4
fd
ff
fa
ff
6
fb
5
4
5
0
2
0
fc
fe
fd
4
ff
fe
fe
fe
1
2
fe
4
fb
2
2
fe
fe
5
0
fe
0
fb
fe
fe
5
3
4
4
5
3
5
5
fd
0
3
fa
fb
fd
fc
5
fe
fe
2
0
fc
fb
1
fe
0
fe
fd
1
1
fd
4
ff
2
1
1
fc
fd
3
fe
1
fe
0
fb
5
1
fe
fd
4
fc
fd
0
fd
0
2
0
2
5
ff
3
2
fa
fd
f9
fb
4
3
1
3
1
fd
4
2
fc
1
0
0
fc
fd
fc
1
3
fe
fc
1
1
ff
fc
4
fe
2
ff
ff
fe
1
3
fc
3
ff
fd
ff
3
4
fc
fc
fe
fd
4
fe
ff
fd
5
ff
fe
1
0
1
4
fc
ff
4
3
2
0
1
fa
2
ff
fd
ff
0
fb
4
0
fe
fe
fc
3
fd
4
0
fc
ff
3
fb
4
3
3
fd
0
ff
fb
4
0
ff
3
5
0
3
fc
fa
0
ff
fd
2
2
fe
4
1
5
2
2
0
1
fd
0
3
1
fd
3
4
5
3
fa
3
1
4
fd
ff
fc
2
0
2
4
ff
2
4
fd
1
fe
fd
0
5
0
2
fc
fd
2
fc
ff
5
2
fc
fc
fd
fd
fc
ff
0
3
1
2
fb
fc
4
fe
4
3
fb
0
3
fc
fc
ff
4
3
ff
2
fd
ff
2
1
3
5
3
fe
2
1
fd
6
fe
0
fe
fc
fd
1
0
fb
3
ff
2
0
7
1
fc
fb
1
1
f9
ff
fb
f9
fc
0
fb
2
4
fe
0
0
6
ff
3
5
3
fc
fd
0
5
fe
3
fc
3
5
3
fd
2
fc
2
1
fd
2
0
3
fe
ff
2
ff
1
ff
3
0
2
2
6
2
fc
5
fb
fc
ff
3
fd
ff
fb
ff
fc
1
2
fa
fc
4
fd
fe
4
fa
fa
1
6
fe
fb
fc
5
ff
fe
2
fe
2
ff
4
0
2
fa
0
fe
3
fd
ff
fa
0
3
fb
fe
fa
4
ff
ff
3
fb
3
4
0
ff
1
fc
3
fc
fc
fe
0
4
4
3
ff
fd
fe
4
fa
fc
ff
5
ff
6
fc
fc
ff
0
1
3
fe
1
0
fd
5
fb
ff
ff
2
fd
0
3
1
fc
1
4
ff
fa
0
fc
3
fd
2
fe
1
0
4
4
2
5
fb
fc
2
3
fd
4
fd
5
fc
ff
fd
fc
ff
ff
ff
4
3
fb
fb
fc
2
fb
fe
7
4
fe
3
fc
fe
fe
fc
fc
fe
fb
fc
fe
fe
0
3
fe
ff
ff
1
fd
3
fc
fa
fd
2
1
0
fb
fd
1
4
fd
fd
fc
0
fa
2
4
fd
f9
fe
2
fc
0
fd
fe
2
1
4
4
4
1
fa
3
3
fd
ff
fc
fd
3
4
ff
fe
3
ff
fd
5
fd
fe
5
3
fd
fb
fe
1
f9
fb
0
fc
2
fe
5
fc
3
fe
1
3
fd
fe
2
fe
4
ff
ff
1
4
2
4
fa
ff
fd
0
fb
2
fe
0
fa
4
2
6
fe
0
2
0
1
1
fe
fa
1
ff
1
1
fe
fc
fb
fb
fe
fe
fb
1
fd
fb
2
5
3
3
1
4
2
fc
ff
3
0
fe
4
ff
fe
0
0
fc
3
fe
ff
2
fc
fd
1
3
2
3
fd
fb
fd
4
fc
4
3
4
0
2
fc
0
fb
0
ff
fb
fe
2
5
fd
3
3
fd
fe
0
ff
fc
fd
1
1
2
ff
2
4
fc
4
fb
1
0
2
fd
fd
fd
0
fe
4
2
ff
3
6
fc
fe
1
6
6
5
0
fe
1
fe
1
fb
1
4
5
fb
fd
6
fe
5
fe
fc
4
4
2
4
0
3
fe
fb
ff
fd
4
fc
fc
fc
fa
fc
4
fd
0
1
fc
fe
fb
fb
fd
fc
0
2
1
3
4
2
fe
fb
5
3
0
3
4
5
fa
ff
fc
0
fc
1
3
fd
1
fe
1
fe
3
ff
3
4
1
fd
5
ff
2
fc
5
fe
fe
2
3
0
fa
ff
fb
f9
2
ff
4
ff
fa
2
0
ff
4
4
1
3
ff
1
2
2
fa
fd
0
4
fc
0
fc
fc
fc
3
fd
2
0
fe
fc
1
2
4
fd
1
fe
2
0
0
fd
4
fc
0
fd
fb
4
0
fd
fb
0
fb
1
0
fb
ff
ff
fb
ff
fc
fb
fc
fb
ff
2
fc
0
1
fe
0
fb
2
5
fd
3
3
fc
fd
4
fa
3
fc
fc
fe
0
fa
ff
fe
1
3
0
fe
3
1
0
1
1
3
4
4
5
5
ff
3
4
fc
fa
3
5
4
4
3
fd
3
fe
1
3
ff
fe
ff
4
3
3
fe
ff
fc
2
0
fc
4
0
1
fc
0
3
fc
ff
ff
fd
4
3
2
2
fe
fa
fd
2
fd
3
1
0
0
fd
0
3
1
2
1
1
3
fd
fe
fa
fc
fb
ff
fa
ff
fd
1
ff
fd
ff
fe
4
3
fd
1
fb
1
2
0
fe
1
fe
7
2
3
fe
ff
1
fd
ff
ff
3
fc
0
ff
fd
2
1
1
0
3
4
5
1
fc
0
fe
fb
fc
fe
fb
ff
fe
ff
fe
0
fc
fc
ff
3
1
fe
3
1
fd
fb
fc
fb
ff
ff
0
fb
0
5
0
fb
2
fe
fc
fd
1
fd
ff
fa
fd
3
fa
fd
3
fe
fd
fd
fd
0
1
ff
fe
4
fc
fb
ff
1
5
4
1
fd
2
ff
3
fc
0
0
ff
2
2
1
1
ff
1
fd
ff
3
fd
fc
3
fb
0
4
fa
fd
5
1
2
0
3
ff
fc
0
6
3
fc
fc
1
3
4
3
fb
2
ff
fe
3
1
1
ff
2
2
0
3
0
4
3
3
fe
fc
fe
ff
5
0
5
1
ff
fe
0
fc
fc
fd
2
4
5
fe
fd
fc
ff
fd
fd
4
fb
0
ff
fc
1
fc
3
fc
fa
4
fd
0
fd
2
1
ff
f9
fc
0
ff
2
fd
3
0
fd
ff
f9
4
fc
1
fe
3
fb
4
3
fb
0
2
2
0
2
fc
6
fd
2
1
1
fb
0
0
0
0
ff
2
0
fe
0
fe
3
fe
3
6
fb
4
fe
5
3
4
fe
2
1
fb
2
fd
fc
ff
2
fb
1
fc
1
3
1
ff
1
0
fd
3
1
fc
ff
4
0
1
2
fe
4
fb
1
3
fc
fa
ff
fc
ff
fe
fe
fb
4
fc
4
5
2
1
6
2
fb
3
4
ff
fd
fe
fe
fe
0
3
fa
0
1
fe
f9
fe
0
fe
fe
fe
0
1
ff
2
2
2
fd
fd
0
5
fa
fe
fa
1
0
fe
fe
4
fc
4
fb
2
fe
1
0
ff
5
4
fe
6
5
fd
fe
6
fd
1
3
ff
fe
fe
fe
fe
fd
1
1
2
2
4
1
fe
ff
fe
fe
ff
2
fb
3
fe
1
4
fd
2
fe
5
fd
4
4
ff
ff
2
fc
6
4
fb
1
fe
4
fc
ff
ff
fc
1
fc
fd
fe
fc
2
fb
3
fd
fd
0
ff
fe
3
fc
2
ff
fc
fb
4
1
fa
fe
ff
fb
1
ff
fc
fc
3
5
1
3
ff
4
fe
6
3
ff
fd
fb
fe
5
ff
fd
0
fc
fd
0
ff
fe
0
fa
4
4
fa
4
1
0
0
3
0
fc
3
fd
4
1
3
ff
2
fd
fa
ff
fd
fa
0
3
1
2
0
1
fd
0
6
fd
4
4
2
fd
ff
fc
fc
2
fd
ff
2
ff
ff
5
ff
1
0
4
ff
fb
2
fd
fc
2
fb
1
3
2
3
fc
4
0
3
fb
1
fc
3
fd
fd
fd
fc
1
fa
2
fe
fd
fc
fd
fc
4
fb
1
1
fe
1
3
fb
fb
ff
fb
fa
fd
fc
fc
fc
3
ff
ff
fc
1
ff
fd
2
3
fc
f9
fc
ff
fe
ff
fd
ff
fc
fc
4
fe
4
2
fe
1
ff
5
fd
0
fc
fd
1
4
0
fb
0
ff
ff
ff
fd
1
2
5
1
3
4
ff
3
fe
5
0
2
3
fd
5
5
fd
ff
5
3
fe
2
2
0
0
0
fd
0
fb
fd
3
0
3
fd
1
2
1
fc
fe
fc
3
2
0
ff
0
3
2
0
0
3
fd
ff
fe
fb
fe
fc
fc
1
1
2
fb
fd
ff
4
fd
2
3
fe
0
3
4
1
0
fd
fb
4
3
4
fc
fe
fd
1
ff
1
2
0
ff
5
2
ff
6
2
5
2
1
fd
2
2
fd
5
0
fd
4
fc
1
fd
0
4
fe
fd
3
fc
0
5
6
fe
1
ff
fe
1
fd
ff
1
2
fd
3
fb
fc
fc
1
fe
4
fc
0
2
fb
0
fd
fb
fe
fe
3
fa
fc
fc
fb
fe
0
fa
2
fd
1
5
fc
2
fd
0
2
fd
4
5
0
1
fc
fd
ff
3
4
fe
4
fd
ff
fa
fc
fa
0
4
4
ff
4
5
2
1
2
fb
2
2
1
ff
2
0
0
5
ff
4
ff
2
4
4
6
5
fe
5
fb
0
1
ff
2
fb
4
1
0
3
4
fd
1
2
fd
2
fe
ff
fc
3
fb
fb
3
5
2
3
fb
fe
fd
ff
fc
3
fb
fa
ff
2
fc
fd
fc
fd
fb
1
0
fd
1
2
ff
ff
2
fe
2
ff
fd
5
4
fa
1
5
3
ff
fb
fe
fd
3
fc
ff
fb
0
fc
2
5
3
fd
fe
ff
2
5
2
fe
fc
fb
6
0
5
5
fd
3
fe
fe
fa
0
fe
1
fd
5
fb
fb
1
fd
1
fc
ff
2
fe
fd
fb
fd
fb
1
1
fd
fc
6
2
ff
ff
fc
fb
fc
fc
1
4
1
1
fc
3
3
2
fc
5
ff
1
fb
fd
0
2
1
ff
2
3
0
5
fd
1
fe
fc
4
fc
0
ff
4
1
1
fd
3
5
fe
1
5
1
6
6
fe
3
ff
4
5
ff
fd
6
ff
1
4
1
5
1
4
0
fb
fc
ff
fd
fd
1
0
0
ff
fc
0
3
ff
fe
fd
2
fb
2
fe
0
0
1
1
fb
2
0
fd
ff
0
4
fd
6
fd
ff
5
fe
ff
ff
1
0
fc
5
fd
fd
fc
0
fe
4
0
ff
ff
fc
fb
fc
ff
3
0
0
fb
fc
2
1
6
2
fe
2
fd
fb
4
fe
4
3
1
fb
2
ff
fd
fd
ff
2
1
fe
ff
fc
fc
fa
0
0
3
fb
2
ff
fb
fe
1
ff
5
fd
0
1
2
1
1
ff
fc
0
4
fe
2
2
3
0
1
fb
ff
1
fb
fa
fe
fd
2
1
5
5
ff
2
fb
fc
3
2
1
fc
fe
fe
5
1
5
2
fc
5
fe
3
2
fc
1
0
fd
ff
4
fc
ff
3
1
fc
4
3
fc
ff
4
1
1
4
1
2
fc
3
1
5
6
0
fd
2
3
2
3
fd
0
fc
0
4
fd
3
2
1
fc
0
fc
1
fc
6
fe
2
1
1
ff
2
fe
fd
fe
fd
1
ff
ff
1
0
0
0
fc
1
fb
2
2
fd
4
4
fc
fb
fd
1
2
0
fe
fe
fb
0
4
1
4
fe
ff
5
0
1
1
0
ff
3
fe
fc
fa
1
fd
3
fd
ff
fb
0
4
fb
0
fc
1
5
fb
0
ff
3
5
0
fc
0
4
0
0
fa
3
1
3
ff
4
4
5
fc
fb
fd
fd
fd
ff
ff
fb
ff
fd
fe
0
5
fc
0
1
ff
5
fd
3
fd
2
fc
4
2
0
fd
fb
6
1
2
fd
fb
fb
fb
fd
fc
fc
2
3
3
fb
4
4
2
0
5
3
5
3
2
3
fe
ff
4
5
3
4
fc
ff
fd
6
0
4
4
5
5
5
ff
2
fd
fd
0
1
fc
2
ff
1
fd
fc
fb
ff
fb
fa
fe
5
4
fe
ff
1
fe
0
fe
fc
0
5
fd
ff
fe
3
3
4
2
6
fd
ff
2
fe
fe
ff
1
0
3
1
1
fc
ff
fb
fb
2
1
0
0
fc
3
0
fd
5
4
6
3
fa
2
2
ff
1
fc
fa
0
fd
fb
fe
0
0
fb
fe
0
fd
1
1
4
fe
fc
ff
fe
fc
0
1
ff
3
3
fd
5
1
2
2
4
3
fc
2
fc
4
1
2
4
ff
0
3
fd
fd
5
fe
1
2
1
0
fd
fd
2
4
2
ff
fd
fd
4
1
ff
3
ff
fe
3
fd
fd
fe
fd
fc
fe
6
fd
6
2
6
fc
0
fe
fc
fd
0
4
fe
2
fd
ff
fc
fe
ff
6
fb
1
5
fd
fb
fd
fd
1
1
2
fc
2
fd
1
fb
ff
fe
fc
2
5
fc
fc
fa
fe
4
0
fa
1
fd
4
fe
3
5
fc
4
5
5
0
4
2
fd
1
fc
ff
6
0
3
fb
fd
4
4
ff
4
fc
fd
5
ff
fd
fd
fc
1
2
4
0
fa
5
5
fe
fe
fe
fc
fe
2
fe
5
5
fd
f9
3
fa
0
3
fe
fc
0
3
0
fb
1
2
5
ff
5
3
fd
4
fe
fb
2
fc
2
5
4
fc
fb
1
4
fe
2
2
ff
1
3
fb
0
fd
fa
0
ff
fe
4
fd
4
1
fe
fc
fc
fe
fe
fb
ff
1
fc
3
0
fc
fc
ff
fe
ff
4
fa
5
fb
3
2
0
fa
0
fb
2
fd
4
2
fa
1
fc
fb
1
3
4
fe
6
fe
fe
fb
ff
fb
fc
1
3
4
0
0
ff
2
1
6
0
ff
1
4
3
ff
2
ff
fe
3
0
ff
ff
fc
fe
fe
fb
fc
fd
fc
fd
4
1
3
4
3
2
2
fd
1
1
0
ff
2
4
1
6
fc
3
5
5
fe
fd
fd
4
fc
5
2
fd
4
2
3
ff
ff
3
4
3
0
fb
fc
1
fa
fe
5
fc
fe
3
5
4
1
fb
3
fb
fd
2
5
6
fb
2
0
3
0
3
0
3
fe
fd
ff
4
4
4
ff
fe
ff
1
fd
fe
0
4
ff
2
fe
5
4
fc
3
1
1
4
fd
3
2
fa
fe
ff
4
fe
fe
4
5
fc
fb
fe
3
4
fe
fe
3
3
fe
fc
2
4
0
0
ff
1
ff
3
fc
ff
4
fd
fb
3
2
5
ff
5
0
4
fd
0
0
fc
fc
5
1
ff
1
1
1
1
3
fd
5
3
fb
3
3
f9
3
fd
1
fd
4
2
2
3
fc
2
fb
fa
ff
1
1
3
5
fc
fd
3
f9
ff
0
0
4
fb
4
ff
fe
0
fc
4
0
2
fe
4
fc
5
fb
fa
4
fd
1
fe
fb
1
1
0
fd
fb
fc
fb
1
2
2
0
ff
5
4
fc
1
ff
2
ff
ff
fc
4
4
fe
fd
fe
fd
fb
fb
0
0
6
1
2
3
0
3
3
4
fd
fc
fc
3
fa
fd
2
1
1
0
fd
4
fb
fc
4
0
0
fc
fa
fd
4
ff
fe
ff
1
5
3
ff
1
0
4
fd
fe
3
ff
0
2
5
3
5
fd
5
0
3
1
fd
6
5
ff
3
2
2
fc
1
0
1
2
fd
f9
4
3
4
ff
fc
ff
ff
fe
1
1
1
f9
0
3
ff
fb
1
0
5
ff
0
2
fc
2
3
0
2
5
3
fb
1
3
fc
4
4
2
3
3
0
0
4
0
3
4
1
ff
3
0
fd
2
0
fe
fb
4
1
5
5
fe
2
fd
2
fe
2
fd
0
6
3
fd
ff
fa
fb
fa
fb
4
1
1
0
3
ff
1
0
3
fc
2
fe
3
1
fe
fc
5
4
ff
6
fc
fc
1
5
ff
ff
fb
4
fe
ff
fc
fc
fe
4
6
fc
fe
4
2
5
fc
5
fe
0
fd
ff
fc
3
2
3
0
fb
2
fe
ff
4
2
fd
3
fb
4
4
fe
fd
5
0
fb
fe
fd
fe
fe
ff
4
fd
ff
4
fc
fb
1
fd
f8
fe
3
4
2
1
1
fc
fd
fc
fb
ff
5
3
fd
2
fa
0
5
3
fe
4
5
1
1
fe
fa
fd
1
0
ff
fc
0
fe
0
fc
3
0
fe
4
2
fe
fc
ff
fb
1
ff
3
fe
5
fc
fb
fd
3
fc
2
2
fb
5
1
ff
fe
f9
ff
2
fd
fb
ff
fe
fb
3
5
0
fc
2
1
1
fc
fc
fb
ff
fc
3
3
fe
0
fd
3
fd
4
fc
0
5
fc
4
4
fd
fc
fe
4
fb
1
1
0
fb
fd
2
fd
ff
4
fd
3
fb
0
1
fb
fe
fd
fd
fe
4
2
fe
fc
1
4
fd
5
fc
2
1
1
fd
ff
3
fd
0
3
2
fe
2
1
fb
fd
fe
0
fc
3
3
fd
7
1
5
fb
fe
4
fd
5
ff
fa
3
fc
0
1
0
fe
fe
4
2
fd
ff
fc
ff
ff
3
fb
2
1
2
fe
2
fe
fe
1
4
ff
3
3
fe
6
ff
0
2
fe
1
fe
fd
ff
6
fe
4
2
3
5
fb
fb
5
fb
4
1
0
0
5
0
3
fe
fe
fb
ff
fb
0
1
2
4
5
4
0
2
ff
5
2
3
3
4
1
fb
4
2
fd
0
fe
fd
4
0
fe
3
1
4
fe
fa
4
2
fb
5
fe
3
ff
fd
1
fb
0
fb
5
2
fe
4
5
fb
4
fb
fc
0
4
4
2
fd
4
fe
fc
0
2
fd
fb
4
fc
1
2
5
2
1
4
4
2
4
fd
fc
fe
fc
3
fe
3
4
ff
4
fe
1
3
fc
fb
fb
1
fd
4
0
fe
fc
fc
1
fb
1
4
4
fe
0
fd
2
fc
4
5
6
ff
4
ff
5
1
2
6
1
3
fa
1
4
fc
fc
ff
0
6
1
ff
ff
0
fd
3
fb
4
fe
ff
fc
fd
ff
1
fe
5
fe
fc
fd
fd
3
0
3
3
fd
fe
fe
fc
4
fb
0
ff
fb
fd
fe
5
4
fc
5
5
ff
6
fd
2
0
fb
fd
ff
fd
5
1
5
fb
fc
fc
fc
3
3
fc
3
2
2
fb
0
1
6
ff
6
5
5
fe
ff
1
fd
fe
fc
1
fc
4
ff
4
6
fd
ff
0
4
2
ff
4
ff
0
fc
ff
ff
3
fc
ff
2
2
fc
1
4
0
4
4
0
1
2
4
1
ff
3
2
ff
fd
0
0
1
fd
fe
fd
fc
1
2
0
5
3
ff
3
fc
fc
fd
6
fb
6
ff
ff
fc
fb
fc
2
2
fb
4
fb
fe
1
fd
2
fe
2
1
fc
fc
fd
fa
1
0
fe
fc
ff
1
fd
3
4
f9
ff
f9
fc
0
fe
2
2
fd
fe
5
3
fe
6
fc
fc
2
fd
4
ff
fb
4
ff
5
0
2
ff
fd
ff
fb
fc
2
3
fd
fd
4
4
fe
0
2
ff
2
fd
1
fe
2
ff
fe
3
2
3
5
ff
fe
1
4
fc
1
fe
fc
4
ff
fe
3
5
fd
0
1
fb
5
5
4
fc
fd
0
fc
ff
2
6
fe
7
3
2
fc
ff
6
3
2
fd
1
fe
2
fd
2
3
ff
5
fd
fc
5
5
ff
ff
2
1
fe
fd
1
2
0
2
fd
fa
ff
1
4
fe
fb
2
3
fe
6
0
3
fd
0
fe
0
4
fd
1
fc
3
fc
4
fd
fe
5
fc
0
5
1
0
fb
fe
fd
fe
1
fd
0
2
fe
fe
fe
4
fc
6
fb
5
fe
fe
ff
1
5
ff
2
3
fd
fd
fc
fe
3
0
3
fc
0
6
fe
2
1
fe
1
0
2
6
fe
4
fe
fa
fb
0
2
fc
1
1
0
5
2
4
fe
fd
4
1
3
0
3
5
1
5
fe
0
4
5
0
fc
fd
fb
fc
0
4
4
0
fc
fe
fc
2
4
4
fc
1
4
5
fc
4
2
3
fd
2
fe
4
2
1
fc
fd
5
fd
fe
fe
fe
fb
1
fb
fd
fd
fa
3
fe
fc
1
fa
fe
2
ff
0
2
fe
fc
1
6
fc
3
ff
2
ff
1
fb
fb
2
2
fc
fb
5
fb
0
0
4
4
0
1
ff
fd
4
0
ff
2
4
4
fa
1
fd
3
2
ff
5
4
5
fa
fc
fc
ff
5
fe
fd
fd
0
fc
fa
1
fc
4
2
1
3
0
1
3
2
fd
fb
fc
3
5
fe
0
fc
5
fe
ff
4
0
2
fb
2
0
fd
fd
2
2
fe
4
2
0
5
1
fd
0
1
fc
fb
fd
fb
2
2
2
fb
fd
3
fd
3
fe
1
4
0
ff
fd
fd
fe
fe
fb
0
5
0
fd
fc
4
fe
ff
3
1
5
5
fe
5
fd
fc
0
2
1
3
fd
fd
0
5
6
5
fc
2
0
fe
1
2
fb
3
fd
ff
fe
fd
0
fd
fe
fd
2
3
fd
4
fc
fd
fe
0
fa
fe
fe
2
fd
fd
ff
3
2
1
fc
fd
0
fa
fd
2
fb
fd
fa
ff
2
5
fe
0
0
5
fd
4
0
fc
0
fc
fe
f9
3
2
ff
fe
ff
fd
fb
3
2
fe
fc
3
5
1
0
4
2
fc
3
fe
5
4
4
fb
2
fc
4
1
ff
4
3
4
3
fb
fc
fb
fe
3
ff
5
1
fa
fb
fb
fc
4
fb
ff
2
fe
3
fe
3
fc
fc
3
fe
2
fe
fc
7
fe
fa
fd
ff
fd
fd
1
fd
2
1
1
0
4
fb
ff
2
fe
4
fe
ff
4
1
fb
2
0
fe
4
fe
4
fe
1
ff
ff
fd
fd
1
fc
0
ff
0
fe
4
2
3
fd
fc
4
2
fb
fb
3
ff
1
fa
0
1
ff
fd
fc
fb
4
fd
4
0
1
fd
2
0
fc
1
fc
1
fc
ff
0
3
5
fd
4
fc
3
2
fd
ff
2
4
fb
0
2
1
1
fd
5
2
ff
fe
4
0
1
7
4
fe
6
0
1
1
3
fc
4
fc
3
1
3
4
1
fe
fa
fb
fc
6
4
fe
3
fb
0
fb
fe
1
fe
0
fd
ff
2
3
fb
1
fb
3
3
4
fd
5
fa
ff
3
fa
ff
fb
fe
ff
ff
0
fb
2
2
5
fe
ff
fe
4
1
1
fd
5
fe
fd
ff
ff
fc
1
2
1
2
0
fd
fb
ff
fe
1
fd
4
fe
fd
2
fc
2
4
3
5
6
fe
ff
1
fd
3
fd
2
fb
2
3
0
2
fd
2
fb
fe
0
ff
2
ff
fb
3
fd
fe
1
1
1
2
fe
fe
2
2
fd
2
5
1
0
0
5
fc
1
fe
0
fe
1
0
0
3
fd
0
fb
3
0
3
fa
3
3
4
4
fe
2
0
fb
fa
0
2
4
fc
fe
fb
5
4
fc
0
4
fd
5
ff
fb
fd
0
fb
2
fe
fe
4
5
fc
0
fa
5
fe
fe
fb
4
fc
fb
fc
3
fb
ff
fe
0
fd
fd
fe
fc
5
3
2
3
1
3
4
fe
3
5
0
4
fe
fe
1
fe
fc
4
fe
1
fe
fd
5
fd
4
3
3
3
fe
3
fe
fe
3
1
fe
0
fa
fa
fb
0
2
fc
fd
5
fe
0
1
0
fe
6
fc
3
fe
0
ff
6
fd
fd
0
4
0
fc
1
2
0
6
1
1
ff
fd
fd
fd
fc
fb
fc
ff
fd
fb
4
1
5
fa
fb
2
4
fd
fa
fc
2
fd
4
5
4
fe
3
fb
fe
ff
3
fb
1
fe
0
4
2
ff
fe
5
fe
fe
fc
ff
fb
fe
4
fe
1
0
5
4
2
3
fd
fe
3
fc
3
ff
3
ff
fc
1
fe
4
4
fd
fd
1
fd
0
fb
fb
ff
4
2
ff
ff
ff
2
ff
fb
ff
fd
ff
fe
fd
5
ff
3
fb
fd
5
3
7
6
4
0
fc
5
4
1
fb
ff
ff
0
fe
fb
fa
ff
5
fe
1
4
4
1
3
2
4
1
5
fe
0
fd
ff
fc
3
4
ff
1
0
3
fa
1
fb
fe
fd
2
4
fd
3
1
ff
fc
3
fb
1
4
fd
fc
fe
4
fc
3
fd
ff
fd
4
fd
5
5
5
3
5
1
1
5
0
fd
fc
2
fc
fb
fe
2
0
2
2
fc
1
4
fb
ff
fc
4
2
ff
1
fb
fe
fd
2
1
7
fb
3
4
fe
ff
2
1
2
fd
0
5
5
ff
fb
ff
4
3
5
ff
1
1
fd
2
fd
1
fe
4
fc
fc
1
2
fe
2
ff
fb
0
4
fd
fc
fe
4
3
fe
fe
2
fb
0
2
2
fd
2
0
fe
2
4
fc
4
1
fd
1
1
4
fe
2
3
ff
ff
2
ff
4
fc
fd
5
3
1
0
ff
fb
fe
ff
fc
0
ff
5
ff
2
2
fc
fe
fb
3
fe
fc
fd
fc
0
2
4
4
2
0
4
fc
6
fc
5
6
2
3
0
0
1
ff
2
4
ff
fe
0
fe
fc
fb
0
0
4
fd
5
3
ff
fd
3
0
3
1
fc
2
5
4
ff
ff
3
3
fb
0
2
ff
1
2
fb
fd
0
fc
3
4
0
fb
fe
fc
fa
4
2
4
4
5
fc
3
4
2
4
3
fd
5
1
fe
fb
1
fe
fd
0
0
fe
fb
1
2
fb
ff
2
3
0
0
2
fe
3
ff
3
fb
0
fd
1
ff
2
fc
0
fe
4
4
fc
0
ff
6
4
3
2
2
fc
2
6
2
4
3
6
fd
fd
1
fe
3
fe
1
0
0
fb
0
fe
3
2
1
0
6
ff
fd
ff
2
1
1
5
ff
6
0
fc
fd
fe
5
3
1
ff
fb
fd
4
2
fc
fc
1
1
fc
fd
2
fc
fb
ff
5
fd
0
2
3
fa
fe
3
4
0
fb
fc
3
0
ff
1
fd
4
4
3
fb
5
fd
fc
3
0
0
0
ff
4
fb
fa
ff
0
2
ff
fd
fe
2
3
4
ff
3
ff
3
5
ff
fe
1
4
fc
fe
2
ff
0
ff
4
fd
3
fd
0
fd
2
1
fb
fd
4
6
fb
fb
fd
fa
1
fe
2
fb
ff
ff
0
ff
1
4
ff
fb
6
1
ff
ff
ff
fa
fe
fd
fe
fb
4
fc
4
fd
0
fc
fe
1
4
0
fd
1
1
fc
ff
3
fb
2
1
ff
fb
2
fa
3
1
2
4
ff
fc
1
fe
ff
fd
5
fe
3
3
ff
fe
0
fa
fd
4
0
2
fe
1
fd
fd
fe
ff
0
fc
3
4
fc
0
6
fd
fc
0
0
4
6
fb
fd
4
3
3
2
0
3
fd
fc
fc
5
0
1
6
1
fc
0
3
2
4
2
1
fd
fd
4
fc
fd
ff
fa
ff
fd
4
ff
fc
fa
4
5
ff
4
fc
1
fe
3
ff
0
2
2
fb
1
5
3
fd
fe
fc
fb
1
fa
fc
ff
fb
fe
4
4
3
ff
ff
ff
0
fd
fe
ff
2
fe
fb
1
3
ff
ff
fe
ff
4
fe
1
4
ff
fc
fd
4
ff
fe
3
0
fa
1
fe
0
fe
fd
fc
fc
3
ff
fb
0
fb
4
ff
fc
ff
fd
0
5
5
ff
ff
5
4
0
fe
fc
2
fd
3
fd
2
fc
1
fd
fd
2
1
4
2
fe
2
0
fa
1
0
1
fd
fb
fe
fb
3
fd
fd
fb
fc
fe
3
0
5
5
6
fc
fe
5
4
fe
4
fc
3
2
4
3
1
3
2
fe
5
ff
3
5
ff
fe
2
1
0
2
ff
fd
3
fe
ff
ff
4
2
fb
2
5
2
4
fb
fd
4
fe
fe
5
0
2
0
fc
5
0
6
fe
0
ff
3
4
fe
5
5
fe
2
0
0
ff
3
fe
3
fe
1
3
4
0
1
0
5
0
fc
3
3
fd
5
1
fe
0
1
3
3
fc
fe
0
1
0
5
0
0
fe
ff
ff
3
fe
ff
3
ff
fd
4
fb
2
ff
5
fd
1
fd
1
1
3
fd
3
0
5
4
fb
4
ff
fd
fc
4
ff
4
fd
1
ff
ff
1
5
fe
fc
ff
0
fe
1
0
fb
ff
0
1
2
fd
2
ff
ff
1
fe
fb
fd
fd
2
1
5
fe
fd
5
fd
2
fd
2
4
3
fd
ff
fe
5
fb
ff
6
1
fd
1
fc
fb
3
fe
ff
0
fb
fe
1
fd
2
f9
fd
fb
fb
4
0
fe
fc
fd
6
fa
fb
3
1
3
ff
fb
4
fc
fd
fc
1
1
ff
fb
0
f9
0
4
fe
fc
5
fe
3
2
ff
fc
fd
4
fb
2
fe
4
1
fe
ff
3
fb
1
ff
2
ff
fc
fe
fb
fc
4
fb
ff
fd
3
1
2
2
fc
fc
3
0
fc
1
fe
1
fb
fd
fb
fe
3
ff
fe
fb
2
2
ff
fe
ff
fe
fe
0
2
3
0
0
fb
3
1
4
0
fb
fc
2
1
fc
fa
2
fc
ff
0
0
fe
fe
fd
fc
0
2
fa
