7
7
8
b
f9
6
0
0
f5
fa
fa
2
3
fe
8
fd
d
fe
f8
ff
fc
4
ff
1
fe
7
5
f9
9
fa
3
0
f8
fc
fb
8
0
1
4
1
5
f6
2
f8
ff
6
ff
0
b
5
6
8
7
a
f7
fc
f9
8
fa
0
f7
6
9
fc
2
f6
fb
fc
7
f7
fb
a
3
ff
1
fb
b
2
fe
a
f9
f8
6
a
8
2
fc
b
4
fc
2
9
ff
0
1
8
fb
8
7
f9
a
f8
a
5
f7
fc
f6
fa
fc
ff
6
9
fb
c
fe
5
b
ff
f8
4
f5
5
ff
f7
3
fc
4
9
fe
1
f7
6
fa
2
fe
f8
b
fd
ff
6
8
b
a
f7
7
fc
fa
6
b
9
b
8
8
a
5
2
9
fe
fd
4
f5
4
fa
5
fb
0
b
fe
1
f8
fa
fe
4
4
b
c
f7
b
fd
0
fd
f8
3
1
fd
fd
fa
1
ff
f9
f7
f6
f8
f7
a
3
fb
5
a
1
8
b
f9
fc
0
f9
8
c
2
fd
3
ff
f6
3
4
fe
2
f7
f8
a
a
ff
fa
ff
a
fe
b
5
a
5
5
fb
f7
a
f8
f6
f8
4
2
4
f8
1
4
a
ff
4
fe
4
4
8
fe
a
3
4
4
2
fd
c
f7
f8
0
a
3
fd
ff
8
ff
f7
fe
fa
0
fb
ff
6
c
fb
4
f9
fc
fc
f7
f6
2
2
fc
1
fc
f9
f6
f6
1
fe
f6
fb
fa
ff
fe
f6
a
7
fe
f9
5
ff
f7
f5
f9
3
f7
1
fa
f8
9
fe
0
9
fa
fc
8
8
fc
5
6
fc
2
f8
fa
9
1
7
f7
a
6
3
1
f9
4
7
fa
5
8
f8
f7
7
f8
8
7
fb
9
0
8
f5
4
fc
f7
f5
9
fe
fa
4
fc
7
ff
fc
fb
6
fa
0
1
5
2
f5
8
6
f8
2
5
1
1
fc
fc
fb
ff
5
f6
fd
7
fb
f8
9
fa
3
8
f9
9
9
c
fe
a
fc
f6
ff
f9
f8
f8
fb
4
f6
b
fd
6
fb
fe
a
3
4
a
4
fc
f7
3
a
fc
f6
ff
4
9
3
9
9
8
fe
f9
fa
ff
fc
a
fb
7
2
5
f9
fe
5
fb
0
ff
8
7
9
fa
f6
a
3
0
6
fa
8
0
f6
2
ff
5
9
fd
9
f8
fd
4
7
fc
fd
f5
fc
2
fd
f5
ff
9
5
b
f8
fb
6
f6
f8
f6
fc
fc
ff
5
4
f6
6
f9
5
f8
f4
1
7
fd
2
f9
f8
f9
f9
f9
1
fa
6
2
2
4
fb
fc
fb
a
8
9
fd
f5
7
fa
f9
4
a
f9
3
a
f9
fc
0
6
4
fe
a
fc
1
9
9
f8
f3
fb
fd
fe
f6
f6
2
f5
7
1
8
6
5
f6
5
5
f8
3
f7
fa
fd
f9
9
f7
2
f7
a
f4
f7
4
3
b
9
5
fb
a
fb
fd
1
f8
5
ff
9
4
ff
a
0
9
fa
f7
0
6
f5
ff
1
fa
8
3
3
7
2
6
6
0
6
f9
3
fc
f7
fc
f7
4
1
fb
2
4
f7
fe
4
6
9
4
8
fb
4
f9
fb
ff
fd
f6
6
2
3
b
fd
fb
f9
f5
6
fe
f5
ff
5
9
f7
fa
f7
fc
fc
fc
3
f5
fb
fc
0
f8
fe
f6
a
fd
3
f9
fd
f7
f8
f8
f6
fe
6
fc
1
fb
fe
f4
f3
7
f9
ff
2
fa
1
8
f9
f4
fc
f6
f4
f9
7
4
9
f8
b
7
fe
fc
fa
f5
6
a
f5
fc
3
f8
8
3
6
fb
fd
fa
4
ff
6
7
9
f4
ff
ff
fd
fd
f7
9
fe
f9
f4
1
5
fa
f8
f8
ff
f6
2
4
a
f3
fe
f8
f8
ff
fc
1
fb
fe
f5
0
2
f8
9
7
3
8
7
0
6
2
fc
f4
2
ff
fd
7
fc
f5
0
f8
7
f8
fe
4
fd
fa
4
d
a
7
2
f7
f7
fd
f9
fe
2
0
fe
f8
fd
f9
fa
0
f6
8
8
fa
f6
fd
4
8
4
b
fd
b
ff
f6
fe
f9
2
fd
ff
fb
fa
0
b
ff
ff
f8
fd
fb
fc
2
1
1
7
f7
7
8
5
f9
6
f9
f7
fc
2
fc
fb
8
fd
c
1
fa
8
5
fd
fb
d
4
b
a
6
fb
fa
fa
fd
5
4
b
fc
fd
fb
5
fa
6
a
fa
8
fc
fc
fb
ff
5
f9
d
6
fc
1
7
0
5
fb
fb
d
8
1
0
fd
f9
6
f8
3
3
f6
5
a
b
8
f5
fd
f6
4
fc
4
4
1
0
f7
f8
8
fa
7
6
f9
fa
f5
fb
1
2
2
f7
0
1
fa
ff
7
fa
6
5
0
fb
fd
7
0
7
2
3
1
2
8
6
f6
8
fb
ff
f9
fd
fd
a
f7
f8
9
c
9
7
1
fe
7
3
f9
0
5
1
ff
0
fd
f8
fc
f8
f6
7
2
f9
5
f6
fb
fc
fe
f8
4
7
fc
ff
fb
a
4
7
b
6
fb
7
fe
fe
f8
3
8
a
0
2
3
ff
4
fe
b
f6
fa
1
1
f7
2
2
6
3
fc
6
a
f7
a
3
fd
fc
7
0
a
7
fe
fd
4
fc
f7
2
9
1
7
f8
fe
f5
f6
6
b
f8
5
f5
0
fb
fc
f5
fb
8
fa
fc
fd
a
4
8
2
fe
2
5
6
8
f8
1
4
0
b
f8
3
fa
ff
fa
7
a
fa
f7
fd
fc
fd
6
f6
7
1
5
7
4
9
a
fa
4
fc
b
0
3
2
1
f9
f9
3
fc
1
5
2
3
8
f7
fc
fe
8
3
7
c
f7
fd
5
a
3
1
fe
f8
6
2
9
7
8
b
0
f8
c
9
ff
fe
8
fc
f9
3
0
5
9
5
fd
6
9
fc
fe
4
fd
3
fb
f7
1
fd
ff
f5
2
fc
5
fa
f5
7
f4
fa
a
fe
a
f7
0
2
fb
6
ff
5
9
f5
fe
fd
ff
fc
f3
f7
fb
fa
5
ff
fb
2
f8
fd
2
f6
fd
9
f6
7
fa
7
fa
c
b
1
ff
fa
fc
0
9
4
9
fe
f8
fe
f7
2
4
a
f7
f7
f6
9
0
a
fa
1
8
fa
3
6
f8
6
4
ff
fb
5
f9
7
b
0
fc
9
3
f6
fa
5
3
f4
f4
f5
4
3
f6
fd
f8
0
6
4
7
0
4
2
1
f6
8
f7
f9
4
f7
4
2
3
fb
b
fd
ff
3
0
a
2
9
2
5
4
1
0
2
4
f6
0
fd
2
8
f6
f9
5
3
fb
f7
fc
f8
f7
f9
f9
fc
0
ff
1
fe
f6
a
f6
fb
6
f8
fe
1
5
5
2
fe
4
fc
2
f6
0
fa
3
2
6
fc
3
f8
ff
ff
0
4
fb
f5
b
5
f5
8
0
fb
5
3
7
f8
7
3
a
8
fa
fc
5
8
a
f4
1
8
9
f8
4
3
f4
2
7
fa
5
0
fb
fd
f5
0
f7
fa
3
fb
fb
f8
2
7
3
fe
3
f8
4
c
6
0
1
5
7
2
ff
0
9
fd
6
f8
7
8
f7
ff
f7
fb
f7
c
4
f9
1
1
b
4
fb
f6
6
c
f5
3
3
fc
2
f6
6
fe
ff
fd
fc
0
5
1
fa
fc
ff
8
7
6
9
2
f5
9
7
0
3
fb
f9
fd
c
8
fa
5
f6
f9
9
fd
f7
fb
fd
a
ff
7
fc
9
fb
ff
4
f8
8
1
6
1
ff
3
1
f6
1
f7
f7
f8
f5
a
ff
f6
fe
f7
7
a
f6
5
f7
4
f4
8
f5
f8
ff
ff
7
f9
c
7
f6
f7
7
f8
1
5
f4
8
fa
1
fa
fa
7
fe
2
ff
f6
4
8
9
f5
3
2
6
f8
f6
fa
ff
9
f8
6
fa
0
f8
5
4
4
f7
9
6
1
fb
4
5
fa
b
f7
2
fb
0
b
5
ff
f9
3
7
fd
8
fc
1
fb
a
2
fd
f5
fb
f7
fd
6
ff
fa
fd
a
5
5
4
f7
f5
f7
b
4
0
0
fa
f5
6
b
ff
4
ff
f9
e
f7
f9
5
0
3
ff
ff
f6
2
b
7
4
fa
8
4
2
f9
f9
fe
4
fb
8
7
8
4
fd
5
f8
1
7
9
4
fb
fb
1
fc
5
6
3
fc
f8
4
fa
6
f5
2
1
3
a
f8
f7
f8
7
fc
f9
b
fb
f5
fb
fa
5
f7
f9
fe
4
fa
a
f8
9
5
f7
0
f6
f9
6
3
fe
0
f4
8
9
fd
fc
9
2
fc
f9
fe
1
7
ff
fe
5
a
0
a
2
a
ff
fb
fe
ff
4
3
6
f6
1
f8
f9
5
ff
7
1
fc
8
0
5
fb
8
f6
0
fd
5
fc
ff
fb
4
6
fe
8
f9
4
fe
f7
0
fa
9
3
fd
fa
f7
f7
8
f6
a
5
7
7
fc
1
3
f6
ff
8
4
ff
4
f7
8
fb
8
0
fe
8
fa
8
fb
f6
2
9
f9
0
fd
2
fb
f8
fa
fa
fb
ff
f9
8
f6
ff
2
f8
3
f9
f6
1
f5
2
fe
0
9
0
3
0
f9
f6
f7
3
a
fb
fb
3
0
8
f7
9
f7
7
9
fa
fa
f5
b
fe
fa
f4
f7
9
f7
fe
fe
7
4
f9
f9
f7
7
f8
fc
5
f7
fb
4
1
9
0
fe
8
3
f9
fd
f9
fc
fe
f6
f6
b
a
4
4
fa
ff
ff
8
9
1
6
fb
f8
2
0
f5
fd
3
fc
4
fc
f7
ff
6
f9
1
3
f6
f5
fe
5
2
fe
fc
6
fa
2
1
a
fe
3
5
ff
f6
3
b
4
2
fe
6
4
2
f7
3
a
6
4
f9
f4
4
f9
f5
9
0
1
3
1
fc
3
1
ff
f5
8
fb
fb
3
4
3
f7
7
3
f8
9
f8
9
fe
fb
f4
fe
ff
b
fc
7
3
9
9
fb
fe
f6
2
a
f8
3
7
0
3
9
5
2
f9
5
1
fd
7
fc
f9
f7
4
7
1
6
f9
0
f8
5
9
b
fb
fc
4
fd
6
b
f7
fe
fd
f6
f9
9
5
2
0
f8
b
2
7
3
f5
fc
ff
1
4
f7
fd
fd
5
f6
fa
6
0
f6
f5
fb
6
4
fc
f5
9
fb
ff
ff
7
fe
fd
fa
fe
f6
fa
f6
a
1
7
fd
f6
9
ff
fb
3
fa
f7
b
a
f7
fc
fe
f5
b
fb
f5
2
4
f9
7
ff
8
fb
1
0
fb
fc
7
fb
0
9
3
2
f9
6
1
2
3
3
5
f8
b
1
9
3
0
ff
7
f6
3
a
3
a
f9
2
3
fe
5
9
5
fb
f4
6
5
fa
2
1
9
2
fb
f5
5
2
f8
f5
fc
fd
6
a
2
fe
f6
f8
fc
fe
f5
7
f6
f4
a
fa
fd
ff
fb
f7
fa
fa
fd
fd
5
2
fb
c
9
f7
ff
fa
a
6
0
6
9
f9
f6
f4
7
fd
7
fb
f5
f7
6
fc
fa
fc
8
fe
fb
fb
3
0
0
f9
1
f7
6
fb
ff
f5
f5
3
8
4
8
f8
f8
7
f9
1
a
7
f8
0
1
5
6
c
fa
a
8
f8
c
8
4
4
fd
fd
fc
1
fc
2
f7
fc
fa
a
f8
7
f6
fd
2
9
f5
1
fa
6
fc
fd
f9
1
f6
c
1
1
3
5
fb
f9
f7
f8
4
0
7
f4
fd
fa
3
1
f7
fd
6
4
f9
1
fc
fc
4
ff
6
6
ff
f5
5
9
fe
f6
5
6
0
f6
ff
fd
fd
f7
9
fb
a
c
6
fa
9
9
4
2
f9
f9
8
0
fa
0
f9
7
f9
c
a
a
6
4
f6
fc
f7
1
5
6
fe
5
f6
fb
1
8
9
fa
8
4
7
4
fc
4
4
ff
9
a
f6
fb
b
b
1
a
6
0
c
f9
4
f6
ff
8
5
fd
2
f9
5
f7
fe
fd
f6
f7
3
8
ff
1
f6
f7
3
fd
b
6
6
fe
0
fa
9
fb
ff
a
1
a
8
4
2
fa
fb
f9
fe
f9
9
b
fc
f6
1
f8
9
3
fb
1
f9
f6
2
1
ff
9
2
f8
fa
fe
2
fd
1
f7
1
fb
fc
fd
fa
6
8
9
4
9
7
4
1
ff
1
9
7
fd
f7
9
0
f7
9
e
3
0
fb
fb
0
7
0
f5
f7
3
fb
f7
4
1
f8
fd
9
f7
6
0
f7
fd
7
f9
f5
f7
f8
6
f7
b
8
0
f5
fa
4
fa
fe
8
fe
fe
f6
3
8
f9
fe
f9
fc
f7
fa
fb
f6
fe
8
f4
f9
7
f5
f6
f6
9
0
b
fb
b
5
ff
fb
7
0
a
ff
4
1
6
f4
1
fe
fd
fc
f8
4
8
f9
8
5
fa
5
a
f8
fc
fc
2
4
8
8
f4
fd
a
f6
ff
5
f5
1
8
1
a
f8
a
8
a
b
a
7
ff
ff
f5
4
3
fc
f8
f8
9
fe
f5
f8
f5
fd
6
6
a
f9
fb
fd
8
7
3
f9
ff
1
f5
ff
3
6
2
ff
5
6
f8
6
ff
fa
f8
f9
a
a
4
1
6
ff
7
1
f8
7
9
ff
f7
f9
5
f4
fd
f8
fe
fc
ff
f9
8
0
f5
3
2
9
fa
4
7
f5
3
f8
7
f8
fc
8
f5
9
ff
f7
f5
9
6
f7
8
fd
1
2
fe
fc
fd
f6
5
f8
2
fe
b
5
0
fc
3
8
4
f4
f6
f8
fe
2
1
0
fb
f9
3
fa
3
f7
2
f6
f8
7
f9
f8
6
1
f6
f6
fc
fb
9
fa
fe
f6
7
6
5
f9
fe
f4
f8
fd
5
f9
0
fe
fd
5
f9
f7
0
a
3
8
2
2
fc
7
fe
fc
f9
ff
f9
5
6
f6
f6
3
8
fa
f8
f6
f6
7
ff
f8
f5
6
5
b
1
8
f6
fb
0
fe
a
9
9
8
f9
1
6
fe
f6
a
f8
5
4
f3
8
8
f9
f8
6
3
fe
5
6
ff
fe
1
c
f7
f5
f8
4
fd
2
7
6
b
fc
fb
7
9
7
0
f7
4
5
4
f7
fc
9
f5
4
f7
f6
6
2
9
3
ff
fa
f6
fa
8
fb
4
5
f9
f6
6
8
1
f4
4
a
fb
fb
6
7
4
4
7
6
6
7
fa
6
f9
6
fa
4
4
5
f9
2
f9
9
7
fd
fe
f6
3
7
fe
6
f7
f5
3
4
3
7
6
1
fc
f6
f8
fc
6
6
2
f6
f9
f8
fb
9
2
9
fb
fd
4
b
f7
f6
1
2
fb
2
a
2
f8
fc
f9
f7
9
8
b
f7
f8
f9
3
f8
6
0
4
fb
3
a
fd
6
7
f9
f5
f5
3
fa
fd
f9
5
fb
f7
ff
fa
f6
f5
f9
8
a
7
f7
7
3
8
fd
f7
fa
ff
0
fa
6
fc
2
f5
7
fe
7
7
f5
fa
fd
5
fa
7
3
fe
fa
f9
a
1
1
8
fc
f7
f7
fa
fd
0
fe
9
5
fb
fa
f9
4
fe
3
a
f6
0
f9
f6
f6
f9
2
fb
f6
2
f4
ff
1
fe
b
8
f7
0
7
fd
9
f5
6
1
f8
fb
2
fe
3
fe
f4
fb
0
ff
7
f7
0
fe
2
6
1
fd
fd
4
5
0
2
4
6
f9
fd
b
ff
9
fb
f5
6
f8
2
f8
f8
f8
f6
f7
0
5
9
fb
7
2
f9
fd
f6
f8
f4
fe
5
9
9
6
3
fc
fd
a
9
fd
6
f7
2
f6
f6
9
fe
2
ff
fb
ff
fe
f7
f5
b
f3
a
fa
fa
2
4
fc
3
7
fa
7
0
6
2
3
2
9
a
f6
ff
8
7
a
3
ff
5
8
fc
ff
5
f6
f7
0
3
f5
ff
fa
0
fb
3
2
fc
3
4
9
f8
4
3
fd
f8
fa
fc
8
f6
ff
ff
f8
ff
2
9
fd
fa
f7
f9
f6
fc
fd
fd
4
9
f5
a
fe
8
f6
f8
0
f5
a
a
f5
fe
fd
f6
4
fc
5
0
fa
2
a
f8
3
fc
b
f5
2
fc
1
4
fb
9
1
7
3
fa
f4
ff
ff
3
fb
f8
6
8
9
4
fd
0
1
f7
ff
a
fa
6
f4
f7
0
f9
4
a
6
2
1
5
fc
a
6
fc
f8
2
3
0
9
8
4
f7
fa
a
fc
ff
1
4
3
a
fc
f7
1
fe
4
f6
6
1
4
4
8
7
fd
5
2
fa
fd
fb
f9
9
5
b
f7
7
8
0
8
3
f6
0
f6
f8
fe
fc
9
fd
f7
f7
4
f9
fd
f4
5
4
a
8
4
8
fd
fc
fc
8
3
fa
fd
4
fd
f9
0
f7
8
7
fa
2
0
fc
f7
f9
5
9
c
f6
fa
5
4
2
f7
2
f7
2
f7
c
fc
8
fc
6
6
f7
f9
7
5
fc
f9
fa
d
2
7
f7
5
f7
f7
6
5
4
a
1
0
3
fb
6
9
a
1
9
1
f9
f9
1
fc
f6
2
fe
4
5
2
fc
fd
fe
fe
7
1
c
f9
1
0
3
7
5
8
a
5
4
5
1
a
fb
b
9
ff
f8
c
ff
1
5
f7
f9
fa
7
fc
f7
fc
9
f7
4
fe
0
9
5
a
f9
fb
fb
7
3
f9
f9
fe
fc
2
fa
f6
3
4
6
0
fa
8
9
fb
7
8
fa
5
f8
6
7
5
ff
9
fe
fe
4
8
0
f7
b
fd
1
7
fb
f9
9
fc
fa
fe
f7
f8
f7
4
2
8
fe
fe
0
f5
2
fb
0
f9
fb
9
6
7
1
fe
fe
f9
a
f8
f7
f5
a
fb
5
f8
2
6
8
fb
7
fc
6
6
f6
fb
b
f9
5
b
fe
f9
f5
f7
0
f7
3
0
a
9
2
2
8
3
3
fb
5
fd
fe
7
4
2
f7
fa
f9
a
5
9
0
4
9
f7
0
0
f7
8
fb
7
b
f9
fb
fc
fd
3
4
6
f7
fb
fb
fa
9
a
f4
0
fa
f6
9
4
7
f9
7
c
fa
4
1
f8
8
8
fb
f6
1
fe
5
ff
fa
9
fd
2
b
c
4
f7
d
c
f8
fa
2
fe
1
8
fd
1
1
2
fa
f7
f9
6
f9
c
5
f9
5
fb
0
ff
f5
f8
f6
c
f9
fd
fb
ff
7
a
fc
5
0
8
7
f7
f6
f5
f6
3
fa
2
7
1
5
f8
fc
2
b
2
9
8
4
fc
5
2
fb
2
7
4
fe
fd
4
fe
f8
fe
0
fa
5
2
f9
fb
fc
7
f9
f8
1
f6
fb
6
9
f8
5
5
0
fa
f6
f9
f8
f8
7
6
f6
f6
f6
ff
0
5
f6
f5
a
3
fc
f8
2
f6
fa
ff
fa
f8
5
f9
fc
fe
f6
f7
3
5
ff
fa
b
fd
0
1
2
0
1
9
1
0
fd
f9
fa
a
f8
fe
f9
7
fe
9
0
f6
f9
fe
8
fc
f9
f9
4
fb
3
5
f6
1
8
fc
b
8
2
1
f8
f8
b
3
fd
f4
ff
f7
9
7
fc
c
f7
f8
9
a
ff
fb
4
6
5
7
9
1
9
fd
9
6
7
6
9
2
5
fc
4
2
a
f8
f9
f8
5
0
7
4
f7
2
fa
fb
2
7
fa
ff
7
7
fd
ff
fd
fb
f6
6
a
2
5
0
6
fb
6
5
b
0
f6
7
9
6
fb
f4
0
ff
6
a
fa
fd
9
b
9
fc
a
2
ff
fe
f9
1
f5
7
f6
0
1
5
fd
fc
4
1
ff
b
6
fc
0
5
8
4
ff
f9
f7
fa
fb
f5
3
f7
6
a
4
fb
7
fa
3
5
f9
2
3
1
f6
5
fc
f4
0
f7
f5
2
f8
8
0
f9
a
4
f8
8
8
2
5
2
7
f6
f8
fb
f7
f8
8
ff
7
fb
4
9
3
ff
fa
9
fb
1
f5
5
c
0
fd
fc
f6
a
7
4
fd
f8
ff
a
8
0
8
3
f9
ff
f7
fb
ff
7
0
f8
0
8
fe
fd
4
9
7
f5
6
0
f5
fe
fb
5
a
1
fa
3
9
8
5
fc
2
f8
8
fd
f9
9
7
f8
fc
c
3
f6
1
8
f5
f8
f9
2
f8
0
b
2
9
ff
fa
a
1
9
f9
fe
3
4
a
f7
9
fa
7
a
fd
1
fb
7
3
ff
fe
fa
ff
b
4
f6
a
fb
9
f7
c
6
6
b
fd
8
9
fb
4
b
f9
fb
9
8
f4
fc
0
fa
f7
fe
0
f6
0
f9
f6
3
7
f7
ff
ff
7
0
6
7
fe
f8
a
8
3
fc
f7
4
f8
f8
a
6
5
0
fe
fd
fb
b
fc
2
b
9
fd
1
f9
3
a
2
ff
ff
5
9
9
3
f9
f7
9
4
f8
f7
fd
5
f7
fa
a
f9
fc
f8
f9
4
f9
5
9
f5
f5
fc
fa
fa
f5
6
f7
f9
fe
9
f9
f6
f9
9
2
2
fd
f5
1
6
fb
8
f8
8
fb
fa
2
f8
f8
f4
f7
4
f7
fd
ff
2
3
b
8
f5
a
ff
fa
f6
b
4
0
b
f6
f6
3
c
6
f8
fa
f6
f6
fd
3
0
6
b
f9
fa
8
4
3
f9
2
5
f9
0
f5
ff
9
9
ff
5
2
5
fa
7
c
fe
f7
fb
f9
fa
fb
f7
fb
fe
fb
0
f5
fc
2
7
f5
f9
fe
f3
1
5
7
fe
f9
f7
f8
f8
4
f4
f5
f7
5
fa
6
f5
f5
2
4
fb
a
f6
8
f7
3
fb
fe
1
fa
9
a
a
4
fe
f9
6
ff
f9
fe
f4
8
4
7
fa
fa
7
f8
fa
6
a
f4
fe
8
8
f6
fc
fb
4
8
9
f7
1
f8
f4
fa
fb
2
f7
f7
3
3
7
8
9
f8
6
fa
fe
fa
5
4
fa
2
f9
4
d
f7
f7
5
fa
f6
5
ff
f6
b
4
fa
fc
fe
1
3
8
1
b
2
9
4
fa
fc
3
f8
fa
f9
5
f8
9
f8
fc
f8
0
f8
f8
fa
f7
5
f6
1
fb
fc
2
9
3
ff
0
8
4
7
fd
2
9
3
6
fb
2
5
f9
5
9
f8
9
fd
f5
f7
f6
a
ff
fc
8
3
fe
5
1
f5
fb
f7
b
f9
b
f9
a
4
fa
fd
9
fb
fa
5
ff
f5
1
b
fe
f4
9
2
f7
fc
fb
4
fe
7
fa
fa
ff
1
7
b
2
ff
a
ff
ff
9
fc
6
ff
ff
fb
f7
f5
f6
fa
fd
fa
6
fd
f7
4
7
ff
a
f6
fe
f6
6
f9
f8
5
b
3
ff
f8
f7
f7
3
fd
f5
2
f4
fa
ff
a
fc
1
7
f8
7
f7
2
fa
ff
fb
fa
fc
fb
f9
f7
fd
ff
2
f4
fc
6
9
fa
8
f7
fb
5
8
f5
f9
a
f7
f9
fc
8
4
2
fb
f2
2
fb
4
9
f6
8
4
0
6
7
f9
f5
4
fa
1
2
ff
7
fc
4
f5
fe
fe
5
f9
f7
6
f8
7
8
ff
ff
f7
f8
2
b
6
2
5
2
fc
ff
f9
f8
3
f6
7
2
1
4
2
f7
f9
ff
9
f9
5
0
7
5
f4
f5
7
1
f6
0
3
fa
2
5
f7
3
f9
fd
9
7
fb
6
f4
8
ff
9
f6
a
fe
fb
9
5
6
2
7
3
f7
3
4
f5
7
f8
3
fc
fd
7
fc
0
fc
ff
f7
fc
0
6
a
1
1
f5
3
0
b
f6
3
7
f6
fc
2
0
a
fd
3
fe
fa
9
0
8
f5
a
6
fb
9
3
f8
8
2
8
2
a
f6
2
ff
7
f9
f5
fb
4
a
2
6
f6
9
fc
f9
4
6
9
2
1
fa
f9
0
2
3
6
fe
f9
fb
f7
7
3
5
fb
1
fa
fa
ff
fc
fc
7
1
f9
fa
2
f6
4
fe
8
0
0
f5
9
f9
6
fe
ff
8
fb
f8
f8
9
fe
f8
7
fb
fb
9
ff
9
7
0
fa
fc
7
fc
2
a
fd
fe
fa
f7
ff
9
f5
fa
6
fd
6
c
5
a
f8
6
a
fe
9
5
c
fa
f9
9
3
3
f9
3
fb
a
4
c
1
fc
fa
7
fb
ff
c
f4
f7
4
9
fb
3
f6
fa
f6
f6
4
a
8
9
0
fa
fb
5
9
fd
5
c
2
f7
0
4
4
4
0
ff
5
fa
fb
fb
fc
f5
f9
fc
ff
7
f7
3
9
fb
7
1
fb
fa
fa
3
fc
0
f6
0
ff
fd
3
fd
5
4
f9
fa
9
b
a
2
7
9
f8
8
fd
9
f7
fe
ff
0
2
b
2
f6
9
f8
fe
f7
f5
7
2
5
f9
9
b
6
fe
8
fe
1
b
3
1
f9
fa
3
c
f9
fa
f9
fb
4
b
fe
f9
4
b
8
f5
4
8
f6
f8
f5
f6
2
8
ff
7
fa
f7
2
f9
ff
fc
6
fb
f9
f6
ff
a
5
7
0
1
f8
f6
2
f6
6
f5
0
6
f9
fa
b
f8
fb
fb
6
fa
7
f7
f6
f9
6
b
f4
fa
f8
8
3
f5
f8
f8
4
fd
1
fc
5
fb
ff
2
f8
f9
fa
f9
8
a
a
f6
ff
f9
f5
7
a
1
ff
3
fb
2
4
fe
f7
7
f9
fb
4
7
f6
fb
a
f5
7
0
fe
0
3
fe
1
fa
fc
ff
2
0
f9
0
0
f4
f6
fb
1
1
6
fa
fa
ff
a
f9
3
fc
f6
fe
f6
fe
f5
a
f9
f8
1
fc
5
f9
f5
fb
8
f9
fb
fe
f9
5
3
4
fc
0
f8
ff
3
a
ff
6
0
fd
fd
f6
fd
6
ff
f6
f9
0
f7
1
a
2
4
f9
f8
f9
ff
7
f5
4
7
f4
7
f8
6
ff
fd
9
fb
fa
f9
fc
fe
fd
ff
fb
f9
1
f9
1
f4
7
9
a
2
7
7
fd
fa
7
8
2
fc
fa
5
5
f8
f6
b
8
0
9
f6
4
1
8
fd
a
d
8
5
9
f8
fc
fc
c
a
fb
fb
2
0
fb
0
4
6
ff
f8
f9
fd
9
ff
f9
fb
9
3
1
3
fb
2
1
1
f9
ff
fa
fb
6
f8
1
f7
ff
5
f7
fe
6
f9
6
ff
1
f8
f9
fc
3
fb
fa
6
2
fb
a
fe
2
fe
b
f6
c
ff
8
5
6
9
1
4
f9
1
fd
fe
0
4
2
ff
b
fe
2
f8
f7
f7
a
fc
f7
1
fd
5
fe
fb
ff
3
9
0
2
fb
0
f9
f7
7
b
f6
ff
f6
f6
6
b
ff
fc
f7
fd
f5
3
fd
6
0
6
fe
f7
3
3
1
f9
6
f9
f5
3
fa
ff
b
2
fd
2
3
f5
f7
f6
f5
8
fa
7
fa
f7
5
f6
fa
f8
7
9
f6
8
f9
fe
fb
4
f5
a
ff
a
f5
8
f7
fd
5
2
fe
7
1
8
5
7
9
7
fa
1
fa
5
a
8
fd
4
f5
b
7
b
1
2
a
9
fc
8
9
8
c
1
fe
9
4
fe
fb
ff
7
f8
c
9
fe
fa
9
fc
fe
3
fc
0
f9
f9
fe
3
2
b
4
7
9
4
0
f5
6
fe
2
8
9
fa
7
f8
3
fe
fa
ff
b
8
fc
fb
fd
1
2
ff
3
1
f7
fd
f5
fe
a
f5
fc
3
7
f9
fc
a
f7
2
fa
8
8
c
3
4
fe
6
fd
5
2
2
0
fb
2
2
fe
0
8
fe
3
f7
fe
7
1
f6
c
3
f6
6
b
7
8
f7
3
9
9
f8
2
3
fc
3
2
1
fa
f4
fc
8
0
5
5
f8
5
f6
fc
7
ff
f9
7
fa
fd
f6
5
3
6
fd
f7
0
b
fe
0
fc
f7
f7
9
3
fb
2
a
5
fa
f6
f7
f6
4
8
f6
fd
3
7
4
2
7
ff
a
fb
3
ff
ff
4
fd
b
f8
fb
3
0
fd
f8
fc
f8
8
0
8
fc
8
2
fc
b
8
5
a
f9
fa
ff
1
5
6
fa
fe
f9
f6
f8
0
6
f8
2
2
f7
ff
f6
fc
5
0
6
ff
a
f5
f9
2
f9
2
1
1
fd
f7
b
f6
7
8
1
fd
5
a
2
fc
8
2
9
fa
f9
f6
1
2
6
5
4
ff
8
0
fa
fa
5
2
f6
f6
8
8
fb
f6
6
ff
b
2
4
5
f6
8
b
fd
ff
9
3
f8
3
c
7
f6
1
f9
fd
3
f8
6
8
fa
f9
ff
3
2
f7
9
a
ff
a
0
9
0
f9
a
6
fa
f8
f7
f6
f8
f9
9
6
fd
f5
f8
4
fc
9
5
b
fa
7
0
4
4
6
1
6
f7
ff
3
0
4
6
5
f5
0
4
f8
0
0
f8
5
fc
3
fe
c
3
6
f9
f8
7
f7
a
a
8
5
ff
1
a
f9
f6
fe
7
fe
ff
a
5
fb
f8
3
3
f8
7
3
8
b
7
6
fa
2
9
6
7
f8
7
a
f5
f5
b
fb
3
a
5
ff
7
a
1
f8
7
3
4
1
fb
fe
9
0
a
7
f7
fd
0
ff
d
8
2
3
ff
1
3
1
7
0
ff
f6
1
fb
8
ff
fc
3
4
b
3
f8
fd
fb
7
fc
f5
8
ff
f6
fd
1
2
fc
f7
4
b
fe
4
fa
0
5
5
a
0
f7
fc
6
fc
1
f7
fc
9
f4
fb
fa
fe
9
3
f4
f4
fa
8
3
4
fa
a
fe
fa
fe
f7
5
f8
b
f9
f7
7
ff
1
f7
fb
6
8
fd
c
8
b
fe
a
fd
5
c
8
f7
0
0
5
0
fd
1
7
9
3
3
7
2
a
f6
f7
8
f7
3
fe
0
a
fd
fc
3
0
a
4
fa
5
8
fb
6
1
fb
4
3
9
0
ff
5
4
3
fd
0
0
f9
2
fb
8
f8
3
9
9
3
3
1
9
fd
fd
fc
c
f8
4
4
7
5
fd
fc
1
1
f5
b
3
fa
b
3
0
8
6
fd
fe
6
fc
6
fc
8
f5
3
8
2
9
fe
ff
fd
9
f8
5
7
f7
9
5
0
6
fa
5
9
f6
fd
b
a
f8
f6
ff
f7
f5
6
0
f9
0
1
f5
ff
f8
fe
fc
6
5
5
f7
ff
7
ff
fc
4
4
c
f7
f8
5
7
f8
fb
fc
5
f6
2
f8
3
b
f9
c
f8
fd
3
b
c
f8
fa
fd
0
fe
4
f9
9
f7
9
b
f8
5
0
3
7
a
f5
fa
4
f9
9
5
fc
f9
2
fb
a
6
5
0
f8
f9
f7
f6
f8
b
ff
ff
0
fc
9
f8
fd
a
7
7
7
9
7
f8
ff
4
9
8
fd
a
fe
8
a
1
6
f9
1
fd
f7
0
fe
b
2
2
f6
fc
1
f8
f7
f7
2
a
9
f8
6
f7
c
c
b
fc
8
fb
fa
2
fe
a
fd
f9
1
7
9
1
a
4
8
8
b
1
fc
f8
fb
f5
4
1
f6
9
f7
f9
a
b
8
5
fa
2
fd
ff
ff
1
0
fc
fb
fa
7
f9
f7
fe
f5
f9
9
7
7
7
8
3
7
f8
fb
a
7
7
8
fc
ff
fd
6
ff
fa
8
f3
f5
fa
7
6
f6
fc
fe
fc
fb
6
f6
f9
f9
f4
f5
9
2
ff
5
f8
8
0
1
0
f3
a
f9
4
3
f8
f8
9
f2
fe
fc
f7
fe
8
f7
fa
9
4
f8
6
fd
fa
fa
3
5
fe
7
fc
9
4
1
fb
4
f6
f5
f8
fa
0
2
fc
3
a
f5
f5
ff
fd
5
5
f8
6
fe
fc
0
a
3
fe
c
2
1
2
fe
0
f4
fe
a
ff
0
2
a
4
f8
fa
fc
f8
a
0
f6
9
9
2
5
f7
2
fc
3
b
1
f8
5
9
2
7
3
1
f8
2
8
b
f9
f8
f6
fc
ff
7
a
fd
f5
8
f6
f9
f5
f6
ff
f5
9
3
fb
4
f9
f8
6
b
0
fc
8
0
f7
5
a
f8
7
7
9
fc
fa
ff
fa
1
fb
f6
fe
8
2
5
2
5
f9
a
1
0
f7
5
4
9
f7
1
0
8
f6
fd
f9
a
9
a
f6
b
f6
fd
4
1
fd
fe
a
fa
fd
fd
fa
f7
f8
f7
fb
f8
fc
6
fc
ff
fd
ff
fa
1
fc
2
2
f8
f6
6
fb
1
f6
4
a
3
fd
6
5
f7
8
6
f6
4
5
5
fc
ff
fd
4
6
fc
fd
f7
fe
0
4
a
8
b
f8
f6
4
2
2
f5
ff
fc
fd
4
0
ff
f4
f7
f8
f8
f5
0
9
fc
3
ff
0
f6
8
f9
fa
1
fc
6
f9
4
6
fa
fe
1
6
8
a
fa
f4
2
f8
9
f5
fe
f6
fd
2
f8
4
f8
8
3
7
ff
5
1
3
a
4
9
f6
fb
f5
fb
a
6
7
f8
9
5
0
fc
5
a
fb
0
f5
3
a
fc
3
6
9
1
f5
f9
0
8
f5
f9
1
fb
f7
fa
f6
2
9
f9
f7
4
1
8
fc
5
f9
6
6
2
d
b
f7
ff
3
f9
1
1
9
2
5
8
f4
f8
f5
fd
b
4
fa
f9
6
1
f6
1
6
3
fb
f7
fd
fd
fb
fe
0
f5
fe
f6
fb
7
fb
b
4
ff
f8
fa
b
1
fb
6
fa
fd
6
1
6
4
9
ff
fd
1
fa
f9
fd
0
0
fc
ff
ff
6
fa
fa
4
b
9
fa
f7
6
f8
a
f6
fe
f6
f7
1
fa
fe
f7
f5
f5
0
f6
1
4
3
f7
fd
f7
a
4
fe
fa
fb
f9
ff
ff
4
fb
a
6
fd
7
f6
a
f6
fa
f9
fb
7
f5
fe
8
f9
1
7
4
a
5
fe
fd
9
f6
a
f8
4
f7
c
6
fb
f8
1
fd
7
c
f8
f7
6
ff
fd
f6
fa
b
3
fd
1
fe
f9
1
7
a
c
4
8
4
7
5
3
4
1
f9
f7
fe
5
fc
9
fe
4
fd
4
f7
f6
fd
f7
ff
3
f8
a
fd
7
fd
f5
ff
2
f9
f6
fd
a
ff
5
2
a
3
a
f8
5
f9
0
fc
fb
fa
fe
fb
ff
8
fc
5
7
1
f8
5
f8
a
b
fd
fb
fd
fe
5
0
ff
f7
3
fd
e
fb
5
fa
3
fb
7
7
fb
ff
f6
f8
ff
fc
f8
f7
f7
a
fd
6
8
8
9
3
3
f8
fd
0
1
4
4
fa
3
fc
3
0
fd
f7
ff
6
f9
4
5
1
9
4
8
4
6
9
1
7
5
5
fa
3
f6
f9
f8
9
2
f9
9
a
3
b
b
fe
f9
f7
f6
f9
3
8
5
1
fc
9
3
9
9
f6
f8
f7
fe
3
fd
a
f8
0
6
8
fe
4
7
fa
0
4
9
6
a
6
fc
f8
2
f9
ff
2
fd
4
a
4
ff
fd
f8
f9
f5
fb
3
fe
8
5
fc
ff
f6
f9
fe
a
f4
3
ff
f7
5
ff
6
fe
0
3
fd
ff
ff
9
b
fa
4
2
c
fe
f9
8
5
5
1
f7
8
b
b
fe
9
3
4
3
fb
a
6
f6
2
f6
b
f8
ff
b
ff
0
7
f6
f6
fa
ff
f8
0
7
a
a
f6
6
2
3
3
3
fe
fe
8
fd
9
2
fe
5
0
8
a
f9
f7
1
f7
f6
5
5
ff
1
2
fb
fa
4
9
f8
ff
9
2
f6
3
0
f6
f7
2
fd
f7
b
8
fe
f9
fc
a
fb
f9
fc
fe
6
1
7
0
6
6
a
fd
f9
fb
ff
7
f7
fe
fc
9
5
1
9
f8
f7
9
2
5
4
4
b
8
fd
ff
c
fc
ff
fe
ff
f4
6
f9
1
4
6
7
f5
8
b
ff
9
2
4
f9
5
fb
f5
ff
f8
f8
f4
f5
f9
6
7
ff
2
3
fe
7
f8
fe
8
4
4
2
f6
3
f5
4
f8
f8
0
a
b
7
4
a
fe
4
4
4
fe
6
b
ff
fa
0
4
2
9
6
3
f8
0
4
8
fc
f8
a
fa
f5
fe
7
f7
f7
f7
fd
fd
6
9
a
fb
c
9
fa
0
3
fd
f5
0
f4
f9
9
3
fd
fe
f6
8
ff
7
0
1
1
fc
6
f9
f9
9
7
fc
fa
f5
2
3
fe
f8
0
fd
4
f8
a
4
a
3
6
f6
8
0
9
4
8
0
f7
8
4
f8
f9
f7
fc
3
f6
9
ff
fc
fd
0
f9
f8
7
ff
fc
4
fd
fd
f8
fd
1
f5
7
f6
1
fe
f8
2
0
fb
c
8
5
f6
fb
5
fb
2
4
a
9
0
ff
fa
f8
fe
2
6
f4
7
f7
fd
0
7
7
f9
2
7
f6
a
0
2
0
5
fc
5
f9
4
6
fc
2
f4
f6
4
fd
0
fc
4
4
fd
fb
8
6
0
f6
1
ff
5
5
7
fd
a
fd
f8
f6
4
f7
fe
0
f5
a
fc
f8
5
4
2
1
8
4
3
f7
ff
a
b
8
4
ff
fe
ff
3
4
b
4
5
0
fb
9
6
6
f7
f9
f7
6
fd
f8
f8
1
3
fc
fc
6
7
a
4
fa
1
f7
a
a
7
b
4
9
4
7
a
4
7
0
0
9
b
2
fa
fe
1
fe
ff
9
7
fe
2
5
0
4
f9
f9
fe
fc
f9
f6
f6
a
0
fa
2
fd
fd
fc
c
0
7
9
fc
9
f9
fa
f9
9
f9
6
8
fd
fa
1
6
f8
f9
8
f9
5
f8
fa
f8
2
7
f7
4
4
4
3
fb
9
f8
f7
f7
fa
f9
fb
4
b
8
4
f7
5
b
f5
a
f7
f8
fb
f8
f8
c
fd
9
a
f6
f8
6
a
3
fd
2
b
c
c
f5
fd
f6
b
6
fc
4
0
f7
8
2
fc
0
4
ff
f9
a
4
f6
f8
f8
f8
f5
8
fd
b
f9
fd
f9
0
f5
fe
8
f6
9
7
8
ff
0
fd
8
b
6
f7
f9
a
f6
f7
7
b
f8
fc
7
7
3
a
ff
1
f9
f6
a
fb
b
3
fb
fd
1
2
f7
fc
fc
a
fc
fa
1
0
4
3
3
4
fc
f9
5
2
1
d
3
6
7
fa
fb
f6
fa
f7
f7
a
a
fb
8
6
2
fc
f9
fe
8
a
c
a
b
f8
ff
9
4
5
1
1
fb
b
4
2
5
9
fd
4
fe
fa
fc
fb
fe
8
fc
7
2
8
a
fc
fe
5
9
f7
ff
f8
3
4
7
7
4
f6
6
fb
5
5
0
2
fe
4
7
9
f7
5
f5
ff
f7
f8
fc
f9
fe
7
8
ff
3
fe
a
fe
fa
f3
a
ff
4
f6
6
5
c
3
f5
a
1
f8
6
fa
fe
9
fd
f7
4
7
f7
ff
2
f4
4
f7
f7
ff
fe
4
f4
0
8
3
9
3
fa
f5
9
6
8
3
7
7
fe
5
a
fc
fb
f5
f5
a
ff
fe
9
fc
0
f5
f7
8
f9
3
f9
f9
fa
4
5
2
ff
f6
5
7
8
f9
4
fd
ff
f8
fe
f7
1
4
3
2
fc
5
fd
fd
f7
f5
f7
a
f7
2
8
6
fa
7
fe
6
c
6
f9
6
fa
6
0
0
0
f7
8
1
7
7
f8
f9
f8
fe
5
fc
fa
9
f8
7
fb
9
7
3
fc
2
f9
fe
8
fc
f8
f5
f7
f6
fa
f9
7
ff
6
f6
0
ff
f6
fb
ff
b
0
1
4
4
fd
fd
1
ff
5
fe
4
f7
3
fa
6
fe
fc
f9
fc
f6
fa
1
4
f7
1
8
3
f7
4
7
f8
4
0
3
f9
a
fc
fc
fa
f8
5
9
0
fe
9
2
f6
b
f8
8
fa
f5
fb
fa
f8
fe
8
9
f4
f4
f8
fc
a
1
4
7
2
ff
f7
7
a
ff
1
0
f9
8
f7
5
b
fa
fb
7
4
6
5
3
8
0
4
f5
b
6
fc
f6
f5
a
fe
8
fe
fa
fe
fb
4
fc
b
ff
f8
fb
5
ff
fa
f8
fb
f5
0
f9
0
f7
0
f8
4
fe
1
f9
fb
fb
1
f8
ff
5
9
7
7
8
a
8
fc
f6
fa
f5
a
a
4
f8
fe
fd
f8
fc
7
fa
f9
8
3
9
0
3
9
fd
fd
f8
fb
3
7
a
4
fb
a
ff
6
ff
fb
4
f7
c
f5
f9
4
b
fd
fa
fa
fd
f8
8
ff
f9
5
b
9
2
fd
0
fe
4
fa
6
9
a
3
f7
f8
f4
f8
3
ff
6
fb
ff
4
fe
9
fc
f9
9
0
f7
9
0
a
fe
4
9
f7
f5
f8
0
f8
8
1
1
f6
4
9
3
8
6
f9
f8
fa
fd
3
fc
8
5
7
4
f5
2
7
fb
ff
5
0
f4
ff
0
fd
a
4
f8
fb
4
fe
9
2
ff
2
3
fe
a
5
5
5
a
f9
f9
fd
5
7
3
6
a
f7
f8
ff
6
f6
0
fa
f9
8
f8
fc
6
3
9
4
9
fd
3
7
ff
4
fc
ff
8
0
4
b
2
6
a
b
f9
a
8
f8
f9
2
2
0
fa
fc
b
f9
fa
9
f8
fd
6
3
fe
8
5
1
2
6
0
3
9
fe
ff
7
b
c
6
2
5
f6
fb
f9
f6
f9
8
f7
ff
c
a
4
f9
fa
3
8
4
8
4
5
fc
9
fc
5
f8
3
fc
fd
fb
fc
2
f6
2
5
1
9
fc
4
fb
6
0
f7
fb
fb
f6
7
f9
2
1
3
fe
9
5
f6
3
fd
f9
f9
3
6
ff
ff
2
a
9
fe
4
f8
5
1
ff
a
9
fa
7
c
fb
0
5
fd
f6
ff
5
b
f9
f9
5
0
f7
3
f8
6
5
3
2
fa
f7
5
f9
fd
fc
f9
4
1
f6
a
f8
fa
ff
f9
fe
5
0
f8
f5
fb
f6
fc
fa
fc
c
4
1
f7
5
1
fc
5
2
fb
3
fb
fa
1
fb
fd
f7
3
4
fe
5
f8
9
fe
f5
fb
f9
a
4
fb
fa
fe
fe
0
fc
fa
fa
4
fc
fd
3
6
fc
ff
1
7
ff
fb
fb
fd
fd
f9
ff
2
fd
f6
f8
0
9
fe
f8
ff
fa
1
0
f8
f8
f9
ff
2
b
5
1
f5
f6
8
7
7
fe
5
3
fe
8
f7
fd
fc
fb
fe
fa
1
5
ff
8
fb
f3
0
f4
2
4
b
1
4
fd
b
2
3
f6
