04
3D
0A
38
3E
3E
3B
04
3D
0C
0D
34
0A
30
3F
3C
05
3B
11
33
0F
37
0B
33
06
00
0A
01
08
36
08
2F
13
3B
0F
25
16
30
3B
39
03
3B
07
38
05
34
07
37
0D
30
10
3A
08
3E
0B
37
01
05
0A
01
00
3D
0F
3C
04
3D
3E
3B
3C
05
03
3A
3D
3B
00
39
0E
31
0C
31
3D
02
00
00
08
03
02
08
3B
3B
0C
35
04
3E
36
02
02
3D
3C
00
02
07
35
03
33
06
03
03
04
33
3F
37
09
3A
04
3A
2E
17
26
14
2F
14
06
09
3B
04
07
33
32
04
27
0E
25
16
34
12
3D
0C
3C
3C
03
39
37
0B
31
08
34
16
37
09
33
0E
3A
3C
3C
04
09
3F
06
3A
3A
02
3B
3E
3F
06
3B
04
02
3C
39
05
02
37
39
0A
04
09
38
07
3C
3F
04
3E
06
3C
09
35
3A
09
03
03
03
07
3F
36
04
3F
01
02
33
02
29
17
2F
08
00
3E
3D
03
05
01
06
38
33
08
28
1F
2D
0C
3E
38
3D
08
38
3A
02
3A
36
13
23
10
2A
1A
02
05
09
02
03
03
32
3E
2B
15
32
0B
3A
0C
00
02
07
02
04
07
04
0A
35
04
2C
17
2E
08
3A
02
00
04
06
00
3C
3A
3A
0B
2F
0B
34
3F
37
08
09
08
3D
04
04
36
06
08
04
04
02
08
0A
05
3E
3A
00
08
02
39
36
0A
3F
11
33
06
35
02
39
3D
3E
3A
3B
05
3F
3D
3A
07
3E
3D
3B
03
05
3F
04
05
07
38
06
31
3F
00
0F
3A
03
02
3D
38
08
07
07
35
0E
3B
07
34
0C
33
3B
38
00
03
0C
3A
0A
39
13
39
10
28
0F
2D
10
35
03
38
02
3F
03
3B
06
38
11
37
0D
2D
05
2F
0B
02
0F
39
10
33
14
2D
0C
2F
03
37
0B
30
11
37
00
39
0B
38
07
01
3F
3C
39
01
00
01
3C
36
38
0A
0E
3C
10
38
18
35
0E
39
3F
03
03
37
36
0A
0F
34
0E
26
19
24
17
28
10
2F
09
3A
36
04
0B
36
11
29
14
2B
0C
3A
04
32
3E
01
3E
3B
3D
3D
11
39
0C
2E
06
01
3A
07
04
3D
0A
3D
3C
38
03
3A
03
35
05
03
09
3A
3F
05
3B
3F
10
32
0C
3D
0F
2E
0E
3D
07
35
0D
37
30
0F
30
12
3C
04
33
0A
3C
3E
3B
08
3E
04
01
3B
37
0C
3F
06
34
0C
01
3E
3E
3A
3B
0C
39
0D
04
3B
10
37
09
3D
02
01
0D
3E
08
3F
01
3D
00
04
15
27
0E
38
14
35
09
33
3D
37
3D
37
05
31
0A
3C
15
29
06
3C
0E
3F
3C
38
09
3E
07
00
11
30
08
2C
12
2D
0E
3A
3C
06
02
35
3C
00
12
31
0B
3A
06
3C
0F
31
06
05
3E
05
3B
02
0A
37
00
02
01
3C
00
04
03
01
3E
00
34
02
02
38
15
37
01
37
03
39
3B
0C
00
3F
39
02
0C
3E
13
31
10
33
00
06
3B
06
3E
3C
07
3E
02
34
0A
36
3F
3E
03
04
34
08
3F
01
04
3D
0E
33
0C
33
00
32
3A
03
37
01
3E
3C
0D
33
06
3B
10
2B
11
3A
3F
35
09
3A
06
34
13
38
12
30
14
32
0A
2F
05
30
04
3A
0E
37
07
03
38
03
32
10
04
06
3E
37
0D
03
00
3C
3D
09
25
16
2E
12
35
09
3E
3D
06
37
01
3E
3B
12
25
1C
30
1C
30
12
3C
10
09
3A
02
39
3C
0B
2B
17
2D
0E
2C
17
39
0D
05
3A
3C
00
38
3E
3C
07
37
08
3F
00
35
05
39
3A
04
06
38
05
2F
11
3E
02
02
00
3E
00
05
3E
34
08
3D
3B
38
10
01
3F
35
3E
3F
01
39
05
02
05
3D
09
3B
07
39
05
38
3B
06
02
3F
07
39
09
09
37
0D
37
12
2E
03
34
05
3A
08
33
3F
00
06
32
05
3C
0F
2D
0A
3B
0A
02
06
35
01
3A
07
39
13
3A
10
38
11
2D
04
36
0E
31
02
3E
39
00
0F
38
10
33
04
31
04
3A
0A
32
09
02
06
38
0A
32
0F
2F
10
32
03
3E
0E
34
3A
04
3C
3F
07
3D
07
32
3F
04
3E
3D
04
36
0F
35
3C
04
31
0C
2C
14
30
09
3A
08
3A
01
03
36
3F
3F
0B
34
08
31
38
05
07
3C
03
3D
3D
04
07
38
0F
2C
04
37
01
02
06
07
0A
3E
03
00
0A
04
0C
2E
01
33
09
3B
07
38
37
3B
00
05
38
3E
08
3E
3A
07
04
00
01
06
03
08
30
0C
3F
04
3C
04
3C
00
04
05
39
05
38
08
37
0D
37
3F
01
01
3D
0E
2C
13
32
06
32
3E
06
02
09
3A
39
3D
3C
13
36
0D
3D
03
0D
3D
01
3F
00
3F
32
19
24
10
30
12
39
04
04
00
09
37
3F
3D
2D
13
28
1A
2F
19
00
05
0E
2F
38
02
3E
0B
31
13
28
0E
2E
15
34
3C
0D
35
3D
38
38
0B
3C
0C
38
04
3A
07
00
3D
3D
34
06
3D
3F
08
03
3B
35
02
3D
05
3F
01
0E
31
04
3B
02
0C
31
0F
3E
06
39
3D
36
09
09
3C
34
0F
3B
00
0E
34
13
32
3E
3E
3A
06
2E
03
2E
11
37
08
0A
2C
0E
2C
05
2F
3F
3F
39
14
30
11
00
06
06
2D
0E
33
12
3B
37
0B
2F
10
3D
02
04
02
0D
2D
15
35
04
35
3F
07
36
09
30
0D
3B
05
0C
2F
10
34
09
3A
3D
06
39
3F
32
09
00
07
09
3F
08
31
07
3E
3C
3D
35
0C
3B
3E
39
3E
3F
05
3D
03
3C
3B
04
09
3A
03
3B
04
0C
3E
0F
39
07
02
03
38
10
32
01
39
02
3F
04
33
3B
00
22
1B
2C
0F
05
06
3F
35
01
04
08
38
32
0C
2A
1C
2C
18
39
00
3C
00
03
02
01
03
34
0E
2E
0A
2B
11
37
0E
03
04
00
3B
08
3A
31
13
2E
15
32
0B
3A
09
37
05
08
38
38
3E
3F
08
3C
13
38
0E
3E
00
3C
3F
01
06
08
34
37
08
3E
09
08
37
3F
38
39
01
3C
3B
3D
03
34
3F
02
01
05
39
0A
36
06
3C
06
3A
08
33
03
37
0D
2B
06
3F
0B
37
14
32
3E
04
11
34
15
2C
14
28
07
38
05
3F
12
31
10
32
06
3E
10
2C
15
32
01
3E
38
06
3E
02
3B
3C
3E
06
05
3A
0A
2E
05
01
04
06
36
3D
33
01
05
3C
05
04
0A
37
38
3D
02
09
35
08
00
09
33
0B
37
10
32
0F
33
0D
3A
0D
2F
13
01
34
3C
3C
00
3F
3C
3D
0A
3A
04
02
01
3B
07
01
08
07
39
09
3A
09
3A
05
03
33
09
36
09
3B
00
03
2D
15
28
1A
2B
11
39
3D
00
05
09
05
36
10
29
0E
30
19
2E
16
35
03
3A
00
03
02
35
06
2D
06
34
16
31
12
39
0E
38
07
3A
05
30
0F
32
13
2E
03
3C
07
3B
08
01
0A
35
09
3F
3D
00
3E
34
09
36
3F
3E
07
38
3B
34
0D
00
07
0B
3C
03
32
13
34
05
3B
0A
37
2F
0D
05
36
17
29
16
22
1B
32
3C
35
35
05
36
0D
3B
3A
05
02
0D
39
03
34
06
03
3D
3E
36
10
3A
02
3D
3A
38
3E
06
3B
3F
07
07
04
3E
10
34
05
39
07
2E
09
00
09
38
3E
07
04
3F
09
3B
06
37
08
34
09
3B
0D
38
3B
06
00
3A
07
06
36
05
02
06
03
3D
3B
3D
07
39
38

