0FD
0FB
100
0FE
0FC
0FF
0FE
0FE
0FD
0FC
0FE
0FF
0FE
0FC
100
0FF
0FF
0FF
0FF
0FA
0FE
0FD
0FD
0FF
0FA
101
100
0FF
0FF
0FD
0FE
0FD
100
100
0FE
0FD
0FE
0FF
0FB
0FA
0FD
0FE
0FE
0FE
0FD
0FF
0FF
0FE
0FF
0FD
0FC
102
0FA
0FD
0FF
100
0FF
0FF
0FC
0FE
0FE
0FE
100
101
0FF
100
0FF
0FE
0FE
0FE
0FF
0FD
0FC
0FE
100
0FF
0FF
0FE
0FC
0FE
0FD
0FF
0FF
0FF
0FE
105
0FD
103
0FB
0FF
100
0FD
0FF
0FD
0FE
0FF
101
100
0FC
0FE
0FE
0FE
0FD
104
101
102
0FE
101
0FE
0FD
0FD
103
0FD
0FE
0FF
0FE
0FD
100
0FF
0FE
0FE
0FE
0FB
0FC
0FF
0FF
0FF
100
101
0FE
0FF
100
0FD
0FD
100
100
0FE
101
0FD
0FE
101
0FF
0FD
0FE
0FD
101
0FF
0FE
0FD
0FE
0FE
101
0FF
100
100
0FB
0FF
100
0FF
0FD
0FD
0FF
0FE
0FE
100
100
0FB
0FD
101
101
0FC
0FF
0FD
101
0FF
0FC
100
0FE
0FE
0FF
100
0FE
0FF
100
0FD
0FF
101
0FE
0FE
0FE
101
100
0FD
106
101
100
101
104
10A
0FF
108
102
10D
102
102
0FE
100
104
102
100
100
104
0FF
0FF
10E
0FD
10D
101
0FE
104
0FF
109
105
100
101
103
100
101
10B
103
100
0FE
0FF
100
100
105
102
102
0FF
100
106
104
106
101
107
108
0FF
104
102
102
103
103
0FE
101
100
10B

