104
0FF
101
0FD
100
0FF
104
100
0FF
0FE
0FF
0FE
100
0FF
100
101
101
0FC
104
100
0FE
102
0FF
0FD
0FE
100
0FF
0FF
100
0FF
0FE
0FF
101
101
100
103
100
100
100
100
101
101
0FD
0FD
0FF
102
0FE
100
103
100
101
104
100
0FD
100
0FE
100
0FF
100
102
101
101
100
102
102
102
0FE
100
0FD
0FD
101
100
100
0FF
0FF
100
0FF
0FE
102
102
100
100
102
0FC
0FC
0FE
101
100
102
101
0FE
100
0FF
0FF
0FE
102
100
104
101
0FF
101
101
101
0FC
102
100
101
0FC
0FE
0FD
0FE
0FC
0FF
105
0FF
100
0FF
101
100
0FF
0FF
101
0FE
0FF
0FF
101
100
100

