a
f9
0
fa
f7
8
f8
fe
f8
fb
4
6
f6
fb
9
8
1
5
fe
2
fa
f7
0
5
5
f8
5
1
3
6
f9
fc
7
2
4
fa
fb
f6
fc
fd
8
fd
0
f5
3
4
6
ff
f6
4
3
f7
6
7
fd
fb
7
ff
8
ff
9
fe
ff
5
9
0
2
f9
ff
4
4
2
f6
ff
ff
1
9
7
fc
9
2
8
b
2
f7
7
5
fe
0
5
fb
a
f7
f9
2
f9
b
a
f6
0
fa
f7
f8
6
3
8
f9
5
f9
7
f4
fb
5
fa
fa
fe
2
8
8
fe
ff
c
f8
fa
7
ff
ff
8
f7
2
7
b
6
fa
fb
9
f8
2
2
7
3
fa
f7
fe
fc
3
fd
a
f6
fa
6
f5
ff
1
fc
6
c
7
d
fa
4
3
3
3
8
6
5
fe
1
a
f4
fb
f6
6
fe
f8
4
f6
fa
fb
fc
fa
ff
5
5
8
2
fb
f6
6
2
7
fc
3
f9
ff
fc
f6
fc
f8
ff
9
0
8
fc
a
ff
f8
fc
6
4
a
5
fb
fc
f6
5
f6
fc
fa
fa
f8
5
4
fb
fd
fe
3
f9
7
7
4
fd
1
f7
5
fb
ff
a
0
fa
9
7
ff
f9
fb
0
1
fb
2
6
a
fe
6
f9
f6
f8
fe
f9
fa
6
8
2
0
6
ff
2
a
a
9
0
f7
ff
f5
f5
7
f9
4
8
f7
5
4
0
fe
0
0
0
f9
3
5
f6
fb
9
f7
0
fe
3
f8
0
fa
f8
fa
1
fc
7
f6
f9
6
1
fe
1
6
8
f9
fa
2
5
f7
2
9
0
fc
fd
fb
9
fa
fe
fd
f9
f8
1
f7
8
1
ff
f9
6
4
6
4
fa
7
9
1
a
5
1
6
f8
1
4
f5
6
ff
fc
f5
ff
fc
3
b
8
fb
fb
7
4
fc
f5
fe
9
2
a
9
f8
ff
2
f7
6
6
f7
0
fb
fb
5
0
0
fa
fb
5
a
fd
3
f6
5
9
fa
f6
3
fc
3
fa
f8
8
5
fb
6
f9
8
a
f9
0
fb
1
f9
2
f9
8
6
1
3
f7
b
fc
3
7
4
fe
1
1
8
8
3
a
fd
fd
fd
0
a
8
4
4
ff
1
f9
f9
ff
f9
f8
2
fe
fa
ff
fd
ff
f8
fc
fe
7
fd
2
b
f8
7
8
7
a
8
fb
8
f3
f5
1
fd
fc
9
2
fe
4
7
0
6
f6
fc
9
1
fa
a
7
1
fa
4
1
2
5
8
f5
c
9
2
6
1
7
fc
3
0
4
fc
f7
f9
4
0
6
ff
1
4
fe
9
fb
fe
fb
1
7
5
4
f7
3
fe
fc
fe
7
f6
4
c
1
7
0
f8
1
b
9
6
f6
5
5
ff
3
9
9
4
5
f7
2
2
4
a
1
f8
f6
a
1
fe
2
0
fa
6
9
f8
8
fd
4
3
6
7
4
9
9
fd
2
1
f7
ff
f7
8
8
3
8
f8
fd
fa
8
fe
fc
f8
9
2
6
f8
fc
fa
8
2
0
9
5
f9
f9
f7
fc
f6
0
ff
6
fe
ff
fb
fa
4
fe
fe
f6
9
fd
fb
fe
fc
1
4
fe
f8
1
fd
f6
f7
3
f9
0
3
fe
fb
f8
f8
4
fb
8
3
a
fb
f5
f6
a
fb
fa
5
8
5
fa
2
4
a
ff
f8
a
fd
b
6
8
f6
f8
fb
6
8
b
3
f6
fa
7
f9
fe
0
fb
3
fc
fd
1
9
ff
6
9
5
8
f6
fd
9
0
f9
fa
4
8
fd
7
fb
0
2
7
f7
2
4
f9
4
f6
2
fa
1
0
f8
3
0
fe
2
8
4
fd
3
f6
3
fd
fb
8
3
fa
fb
3
f8
6
1
9
4
ff
1
ff
1
4
a
0
fa
fe
f7
f9
5
3
f7
2
fc
fa
ff
9
7
a
0
fc
1
fd
a
6
fe
1
1
fe
f8
f7
fe
f5
3
4
fb
fa
a
f9
9
f7
7
f8
5
fb
fa
2
8
2
5
f8
6
2
b
2
fb
7
fc
fd
fb
1
f6
f9
6
a
7
9
f7
1
6
9
6
fb
0
f6
fc
f8
f8
7
9
2
8
fd
4
8
2
5
6
a
fe
fe
5
fa
4
f5
6
b
f6
1
0
8
f9
7
0
f5
5
fe
f6
1
f8
f8
f6
0
a
9
fd
8
0
fb
8
9
2
a
6
fe
fe
f8
fe
2
fc
f3
fa
f9
f9
f8
fd
fb
f8
fe
2
f8
9
0
7
9
f6
7
a
5
8
ff
a
fb
f7
f5
0
6
f9
fc
f7
fc
7
fd
ff
fe
4
f9
f9
3
fb
fe
f6
5
1
fe
ff
7
4
fe
fa
3
3
fc
fb
5
fa
4
4
fa
0
fb
ff
f9
f6
fb
2
2
2
fe
f7
f9
3
5
f9
f9
6
4
5
1
fd
f6
f9
f6
4
f8
fb
f8
3
9
fe
7
f5
7
f8
fa
f7
6
6
5
6
9
f6
1
b
4
f5
0
fb
f8
4
f8
f9
fc
ff
fc
f9
f7
9
7
1
6
f9
f8
8
f7
4
a
f8
3
2
fa
fa
fe
ff
5
fa
fa
a
2
6
6
fe
f5
fa
ff
7
f9
7
7
f7
6
4
3
1
fe
fd
f9
fd
5
f9
ff
0
7
fd
6
4
f7
b
9
fc
3
ff
9
f8
0
ff
9
f9
ff
f9
5
1
fe
f6
8
0
4
f6
f9
9
f9
a
ff
ff
3
ff
f9
1
f7
a
f6
a
b
fe
a
ff
ff
a
0
4
fa
fe
fc
7
ff
fc
2
ff
4
8
2
f6
7
f2
f6
9
fb
7
3
8
5
2
f9
8
3
f6
b
1
9
f7
ff
9
ff
f6
fc
4
f8
5
8
fa
6
6
b
fe
f5
a
7
f7
f7
fc
a
f9
fe
f8
8
2
0
f6
fe
ff
fb
1
a
fd
ff
8
0
1
fa
fe
fa
3
fd
f8
fb
7
f6
f8
fd
fc
fe
5
f7
fd
9
0
8
4
ff
3
5
3
fb
3
9
6
5
fd
2
7
1
1
fa
f8
a
fd
1
7
f7
fb
4
4
9
7
1
fe
fe
fb
f8
f8
8
f8
7
fe
4
f7
2
8
6
0
fb
fc
3
0
0
f8
fd
f7
fd
fb
fd
a
ff
7
ff
1
f9
fd
fc
5
4
2
fa
b
0
fc
1
0
fe
fc
9
a
7
8
6
f6
7
1
fb
4
3
1
2
8
f7
6
fd
fb
0
5
fc
9
f9
0
f9
3
8
2
3
fc
3
f6
2
f6
fc
ff
7
7
f7
fb
6
8
5
fa
7
6
6
f6
f4
f7
8
fe
fd
8
7
3
2
f9
0
7
2
9
fd
0
f7
fc
5
fa
ff
fd
f8
6
8
f7
2
ff
1
ff
7
7
fd
1
9
f9
4
fc
4
9
3
7
fb
9
f8
a
fd
6
fc
ff
f7
fd
fc
5
f9
3
0
f6
fa
f5
4
0
fd
1
7
9
fd
4
fd
3
fc
fc
1
4
6
fd
2
f8
7
f7
f6
3
f6
4
f7
f6
fd
fd
8
f9
ff
0
fb
a
fa
f9
fb
1
6
f6
a
a
f7
5
f5
3
fe
7
fe
f7
f5
f9
f8
ff
9
0
fa
7
fd
f4
8
fc
fc
fe
6
f8
7
a
6
f6
5
0
1
6
6
f9
fd
fb
fa
6
8
f9
3
8
fd
3
f7
9
3
9
ff
3
fe
fa
f5
3
7
3
fd
f8
fc
fb
fe
0
5
3
1
3
0
f7
8
1
3
fe
4
4
fc
fb
a
fe
a
f8
fd
fa
3
f6
fc
2
1
8
f7
5
9
fe
f7
6
fa
7
fe
4
f5
8
6
6
fb
a
9
fb
9
ff
fa
fd
f7
fc
5
8
fc
a
1
fe
2
fe
ff
2
fe
1
ff
fa
2
ff
fe
fc
4
f8
2
1
5
f5
f9
fb
fb
ff
6
7
6
0
7
f9
0
fb
7
f9
7
2
fc
fa
fe
7
fa
1
2
4
ff
f7
fc
a
a
f6
4
fb
f5
ff
6
fc
fe
fa
ff
fc
f5
f9
8
2
3
f7
0
5
4
6
fa
1
fc
5
fb
fb
ff
ff
f8
0
5
fe
fc
f8
4
5
7
4
fe
f8
f6
fc
6
1
9
3
1
8
f7
b
a
f8
1
fa
f6
2
7
f6
f5
fd
f5
3
fa
1
fc
fd
fa
c
c
6
2
1
fb
f7
6
4
f8
4
f9
fc
6
2
fd
f6
5
fd
9
2
8
a
fa
9
fd
fa
9
0
f9
ff
fa
2
2
f7
5
1
6
4
f9
6
0
fd
1
a
c
7
f8
2
fd
4
8
f6
f8
7
b
fa
ff
1
f9
fe
8
0
f6
9
3
fe
0
0
f9
f9
f8
c
f6
fb
4
f8
fe
f5
5
ff
2
4
5
fa
2
6
6
fe
9
6
3
0
3
fc
ff
fc
f7
fa
8
7
5
9
fc
f9
fb
8
0
f6
a
5
a
3
f6
a
5
f7
0
f8
f9
fe
5
8
9
6
ff
fa
7
6
8
6
8
f9
fc
5
6
2
fd
b
fd
fd
9
9
9
3
a
fc
a
4
f7
4
0
0
f6
9
fd
3
fa
fe
0
fd
f8
fc
ff
1
7
9
fc
0
8
9
fa
fd
6
2
9
f6
ff
f7
fe
fa
2
1
7
f6
5
8
fd
f7
f6
8
f8
fc
2
4
fd
1
fe
3
2
fe
2
2
fd
7
fb
fe
8
0
fa
fd
f9
7
8
fe
1
0
fc
fe
4
7
0
2
9
4
f9
fa
fa
ff
3
fa
fe
2
1
fc
8
2
2
f8
4
f7
fb
f9
f8
7
fd
1
1
9
2
f7
f8
9
f9
f6
9
3
7
fa
fe
2
f7
fc
fd
7
2
fd
7
2
8
fd
6
fd
5
a
8
0
f9
f9
2
6
9
f7
fa
f5
f7
7
fb
f7
fd
7
a
1
9
9
3
b
f6
f8
fe
f6
fd
7
fb
f9
fb
6
fd
fb
3
8
3
f6
f9
4
ff
0
f7
ff
2
f5
3
f9
4
3
f5
a
8
3
5
8
fd
f8
fe
0
f6
f7
fa
f7
fd
fd
ff
4
f9
fa
fe
8
f9
2
f6
fe
f6
fd
4
3
8
f6
fb
f9
5
fd
1
fd
6
fc
5
f5
4
5
1
fb
9
9
f7
4
6
f5
f6
9
fe
f9
f9
4
3
f7
ff
8
3
9
6
3
3
a
f8
fe
fb
ff
a
1
7
fe
fc
fe
8
6
f5
8
fa
fb
fd
0
f8
a
fe
fd
2
a
f8
2
fb
a
fe
4
3
6
0
0
fa
f8
fa
f8
f8
b
2
9
3
fd
7
2
1
fc
b
f9
f8
fb
f7
8
5
ff
ff
f9
8
8
fc
ff
a
7
b
fe
8
8
2
9
f7
0
fd
fc
f7
fc
fc
ff
ff
5
2
3
5
3
fb
ff
fe
b
5
f8
6
6
fd
2
fb
2
9
8
6
3
0
fc
fb
8
4
4
0
0
1
f9
fa
d
1
a
f9
f5
f8
1
fe
0
7
f6
fd
0
1
7
8
a
ff
fb
ff
4
6
0
ff
8
f9
fc
2
fa
fa
4
f7
f8
fe
a
0
f7
9
fb
3
3
f5
fb
f9
5
7
1
f8
fb
f5
fe
8
f6
5
4
7
4
0
7
6
5
ff
4
fc
fd
3
b
fa
f9
fb
fd
a
fb
1
f6
f8
fb
f7
2
6
fb
f8
5
f8
f5
fb
f5
f4
4
fa
6
fb
4
2
4
6
6
6
fa
fa
3
2
fd
9
fc
a
fe
8
fd
f8
9
6
fa
fb
fb
7
5
fd
7
1
f6
f6
f7
0
f6
f9
f7
fb
fa
9
f8
f8
6
ff
5
f6
ff
f8
ff
8
f6
f6
f7
fb
fa
9
6
6
fb
3
4
fc
6
4
f9
9
fe
f7
f5
f5
fd
0
8
0
fe
fe
2
f6
f8
1
ff
fd
f8
ff
f8
9
f9
2
fa
