fe
b
0
f
6
5
7
f6
f1
7
3
fb
d
2
fd
6
9
fa
a
f6
1
f8
7
f8
f6
ff
f9
a
1
ff
f7
5
fd
f6
f8
ff
f8
0
3
f3
f5
5
f
f6
c
b
f9
1
fc
a
fc
8
f2
f9
f7
a
5
7
5
e
7
c
fa
5
f5
1
8
c
fa
fb
fd
5
1
c
7
e
f7
fb
f2
5
a
fa
fe
1
fb
f5
0
b
1
b
2
fa
fd
f6
4
f8
2
fe
9
4
f5
3
f5
ff
fe
7
8
8
f3
f9
fa
a
f8
ff
0
fc
f6
fc
f7
fa
3
f8
a
f2
f8
7
8
0
f7
4
d
f7
fa
3
f3
6
9
1
a
3
f
d
fb
fb
f3
7
fe
ff
d
fd
1
e
fd
0
fb
c
9
0
0
f5
f1
0
e
5
a
ff
fe
fd
f5
0
9
fa
fe
f
3
f
4
fc
7
f3
3
0
e
f7
ff
f8
f5
f9
0
2
e
f8
7
d
3
d
f
fd
c
f
d
d
f8
c
4
5
0
4
f5
fe
f4
ff
f7
4
ff
f6
f7
6
f9
7
fe
f9
fb
4
f5
f3
5
6
4
b
f6
f5
f4
b
11
f7
7
11
ff
f8
f6
9
1
a
e
6
9
ff
d
f7
fe
fe
c
f9
f5
f9
f2
f2
fe
8
fa
7
5
fe
1
a
f3
3
2
1
0
b
5
5
4
fc
c
f2
f7
f6
f2
f9
f9
a
3
fc
4
fc
6
fa
9
fe
f7
f5
0
6
4
fb
f6
d
fd
fc
fc
f6
8
f8
f8
ff
ff
f6
d
f9
3
f1
6
3
fb
f1
3
f4
6
8
5
fa
7
b
c
d
f4
f4
f9
e
1
5
f9
f2
f9
f5
f2
f8
fb
6
a
f8
2
c
f7
fc
d
9
b
3
3
fd
5
f9
fe
d
d
b
2
e
6
fa
f6
f5
0
fa
e
ff
f0
4
e
f2
f
f
f6
fb
c
f3
f3
a
b
f5
5
f7
f
4
f8
4
f2
f4
fb
6
fc
f9
fc
fd
fd
f5
f5
fc
1
8
fd
8
f
fd
f9
b
4
f8
1
7
fc
8
1
fd
f9
fd
f5
a
3
fd
6
3
f6
4
c
fa
e
9
f
f4
f9
6
2
f9
9
0
f1
f5
b
fe
fd
fa
f4
2
f9
f8
c
d
f9
4
fb
f9
8
c
f6
ff
f8
f
0
f8
e
4
fe
f6
8
5
d
a
b
f5
8
0
0
fd
a
0
d
f7
f5
8
fe
f5
c
fc
8
1
fa
3
8
8
e
3
b
f8
fd
fd
f8
fd
7
c
7
f4
fc
e
3
0
9
fe
7
f9
f7
4
a
f4
f6
4
9
f2
fb
f8
f5
fa
f9
b
fd
f4
4
f
f4
f9
fd
f5
f5
0
fb
f2
f6
f0
f3
6
8
b
3
1
1
9
d
fa
fb
f6
4
f7
9
f0
0
fe
7
b
d
f5
6
2
7
fb
3
f2
9
ff
5
7
b
fa
b
b
6
3
9
0
0
4
ff
f2
c
d
f
b
f3
9
c
4
8
fa
f7
e
fb
2
6
fc
f3
fb
f0
6
3
fe
f3
f2
fa
f5
f7
b
7
d
f
0
fb
f4
f6
f9
f6
d
2
6
0
1
8
f8
fd
f2
b
f9
fc
f8
3
fa
fc
f6
c
f1
a
1
8
f8
f
f6
f8
e
fb
fd
f2
5
b
7
b
fa
7
fc
9
f2
f9
f2
f5
f1
6
fa
f
1
f8
f7
4
fa
f9
b
fb
f3
f8
fc
f6
b
fa
4
fd
a
f9
b
8
2
f3
f7
f4
fe
0
f8
f2
fe
fc
fe
f4
f5
fb
d
a
3
fd
a
0
0
7
f6
1
5
0
f0
fb
6
f6
f1
e
fb
fe
c
f7
a
fb
fc
1
9
1
fa
fa
6
0
fb
5
f9
1
f8
7
1
d
f8
f5
f
4
a
fe
f7
f5
f6
d
9
fb
fc
f1
f7
fe
fb
e
a
f
fb
fd
fa
f4
f7
f9
4
fb
f2
8
d
5
a
d
9
7
5
f5
f8
b
f4
fb
fa
fc
f
b
e
1
0
5
5
f6
4
2
6
b
f9
8
f9
0
8
f9
3
3
f7
c
fb
8
b
fe
6
fd
5
1
f6
6
f3
fa
fe
b
9
4
fa
f5
8
fb
0
d
fd
fb
fa
fb
d
b
7
fd
3
ff
f4
ff
7
f8
1
f1
f8
e
8
f5
9
fd
c
3
f1
9
f8
f5
d
fb
f9
fa
2
d
5
f3
f5
fb
f4
0
10
1
d
3
f6
3
c
fe
f4
1
fa
8
fa
fa
fe
9
fa
7
a
f2
f1
c
fa
fb
f2
f8
fe
fd
f2
2
1
3
f5
f2
6
10
f9
f7
8
f3
ff
f4
f2
c
6
f4
f9
7
f9
3
b
2
9
fc
f6
3
f3
fa
c
f2
1
f3
e
b
f5
b
b
c
5
f1
f4
5
fa
f7
e
c
fe
f
f5
fc
8
ff
1
f1
8
c
fc
5
f6
f7
3
f7
6
0
6
f3
f5
fc
1
f5
fa
ff
f
c
f2
8
1
a
f5
f3
3
f2
5
5
1
1
fe
1
9
fd
f3
6
f6
f8
d
1
f5
f4
f3
1
fa
fb
1
f2
f7
b
3
3
fa
2
f4
3
0
d
0
fe
f2
f4
a
b
f7
fb
f7
d
2
f3
f2
f6
0
6
fc
d
fe
f7
a
fd
f9
d
fc
0
a
5
4
f2
8
a
f
3
f2
d
f3
c
c
0
e
ff
3
e
f7
c
7
f0
f2
8
c
3
8
8
f
8
c
fe
2
9
7
9
e
f5
a
1
5
f9
ff
f9
6
fa
9
fe
f8
fd
a
f2
8
fd
fa
f4
b
f8
fe
4
f5
f4
f3
fd
fa
a
fc
5
4
0
fa
fd
fb
1
0
f6
f8
f7
6
5
f6
0
7
fe
4
f3
fc
1
fd
f1
f9
f5
f4
d
9
9
6
f6
fc
f8
fd
f5
8
1
f4
fc
6
3
c
f6
ff
