b
4
a
fd
5
b
f8
4
f5
fc
f6
d
f9
c
8
4
f6
f5
d
fc
f1
2
f9
fd
d
f1
f3
7
fb
5
1
1
f7
fc
d
8
f3
8
7
a
f3
f4
1
f5
f0
7
a
fc
f8
f7
8
f7
1
f4
f5
f2
1
a
f5
2
ff
3
e
fb
9
f5
0
f3
4
e
fd
8
ef
f8
f5
ff
f5
2
f6
c
fa
f1
1
f4
6
f6
f6
10
10
ef
e
e
f5
fc
2
f8
d
f9
3
8
f4
4
fc
b
ef
e
f9
4
f5
f2
f6
c
f2
fd
f
f2
fb
f
f1
d
fc
ff
e
a
1
f2
fe
fb
f0
f
11
7
5
f0
ee
fe
3
f3
f9
2
f3
f0
f8
1
f5
2
a
e
f
d
f6
f7
fc
c
2
fd
f5
f4
fc
f9
e
f8
7
d
f5
9
fb
0
f0
0
f9
f2
11
f2
d
f3
f9
d
fa
0
6
8
fd
a
fb
e
9
4
e
ff
5
fc
c
f5
9
5
ff
f5
fa
3
10
f5
f
9
f
f6
f9
fa
5
fb
b
8
f3
b
3
f1
fc
f
fb
7
4
f9
f1
0
6
b
2
10
e
c
e
d
d
f
6
fd
f0
fc
6
f3
f7
fe
e
a
f2
4
f0
b
1
d
ff
5
e
f
3
d
f3
a
f3
f
f7
fd
f
d
7
f5
f7
2
8
f7
fb
f9
e
f2
fe
fa
a
f4
f7
9
f8
ff
3
f4
11
f4
f3
fc
fd
f6
a
fe
f5
fc
e
f6
9
fa
f4
6
6
4
b
e
f9
6
9
9
8
9
d
9
a
1
f4
ff
c
d
ef
fb
e
b
fe
fe
1
e
f9
7
b
f
fa
f1
d
f9
d
a
f
5
f3
f3
f6
f1
4
5
5
7
d
f7
1
f1
f9
ef
fc
e
f3
e
4
7
fd
2
f4
8
7
f3
fc
fc
8
0
f3
f1
d
f8
f
fc
d
f6
f4
fd
f
f1
a
fb
9
ff
d
f1
fb
f6
e
5
5
a
f2
ff
f7
fd
f7
c
f5
5
3
f3
f6
4
f3
fd
b
f2
fa
5
f4
6
6
3
f5
a
f5
4
e
b
f5
1
fc
f8
fb
f2
f9
fd
d
e
fe
9
9
fd
8
f9
2
f
11
ee
f9
3
f1
d
fb
f5
d
d
f4
d
fe
ff
11
9
fd
b
10
f5
f5
0
fe
fe
7
fd
2
fa
4
f8
fc
fa
8
fe
f9
f6
fd
d
d
fe
2
f8
b
f2
fd
a
f2
fc
f3
f2
f5
f5
f
6
8
1
f3
b
f1
fd
5
f2
f9
e
f8
5
f8
f4
f9
f1
f1
fc
9
10
fa
f
a
ff
b
fa
b
f2
f
8
f6
d
1
f5
c
fb
f3
f9
1
fd
fa
f5
f3
4
5
f5
f5
f6
f6
f6
e
9
fd
8
6
f8
6
11
11
5
e
e
f5
7
10
fb
6
b
fd
fe
f9
b
1
f8
f3
f5
f6
9
fc
fb
f6
f9
e
9
f9
2
8
f
a
1
f8
5
fb
8
f
f
f0
fb
f8
f0
ff
f
1
7
fd
f7
9
e
f6
c
f2
f5
a
f3
c
f7
ff
f0
f4
f3
f7
3
f9
c
0
f9
5
fa
5
f1
3
d
1
f
c
b
f5
ff
f4
fd
0
0
fd
ff
6
fa
5
f5
f8
8
ef
f4
b
f8
a
8
6
7
5
fb
d
fa
b
e
2
fe
f6
ef
fa
f3
a
fa
f9
d
f7
4
fc
f7
3
f8
f5
5
b
fb
f
fd
fe
f2
7
f9
f9
5
5
f
f5
a
fd
f7
fd
8
f4
d
ff
f
6
7
9
f7
f8
fd
7
a
f
f5
7
f7
fc
f4
d
4
8
b
f5
ff
2
fd
7
8
e
d
f1
fb
ff
c
f9
8
f2
f8
f
f2
f7
f3
f5
ff
fc
4
9
fd
8
fb
f9
fb
b
6
b
f7
e
fc
f2
10
fc
fd
f1
6
fd
8
f6
2
fe
7
0
fe
f8
f3
0
2
2
f3
2
f5
f
f0
fa
f2
f4
e
f6
fd
e
f4
f3
e
f2
8
f7
f
f6
b
0
8
fb
0
2
f0
4
2
10
fc
e
f1
10
f6
f4
e
c
5
b
c
c
f4
2
fd
2
f8
f9
6
0
f3
0
fd
8
0
3
8
d
f9
f2
fe
c
10
f7
f3
b
f4
7
f6
fd
d
f2
fe
f2
d
f7
d
fb
fa
fb
0
d
fd
7
1
f8
7
4
a
3
e
9
5
1
d
f5
fa
11
f9
10
f7
fd
b
10
0
c
fe
d
f5
f8
10
fc
f9
ef
c
7
7
7
f6
fb
ff
c
f4
7
fd
ff
2
d
f9
fb
5
f3
fa
a
1
5
f7
8
4
b
0
6
f
fd
4
5
fe
fc
a
1
f9
2
7
f5
f7
fc
4
e
f
0
fd
fd
2
f8
7
d
9
fc
8
fc
f1
6
fd
fb
ff
f7
f8
f2
f8
f5
f7
2
1
8
f7
ef
3
fc
4
fd
fe
ff
f9
3
f1
f3
f2
f6
f1
c
7
ef
f1
1
3
7
9
c
f1
f2
f8
1
9
6
fe
fa
fa
f3
9
fb
ff
7
a
2
5
4
fe
8
4
ff
fe
f3
fb
6
3
c
fa
f5
e
3
f8
6
f7
e
f6
5
ff
fa
f3
8
2
1
1
fb
fd
f
fe
fd
f5
ff
2
a
b
f2
12
8
8
f5
fa
f6
a
7
fb
f4
f6
7
fc
10
6
f8
a
f8
f7
7
a
7
2
4
10
5
f7
f2
c
e
6
2
8
fa
4
f4
6
f7
b
f2
4
fa
f9
4
fc
b
a
ff
a
d
f7
f1
0
9
f
4
f6
3
8
4
f4
f2
f7
7
f2
6
b
fe
f3
a
d
f4
fc
e
ff
f6
f1
0
a
0
f9
8
10
0
5
b
ff
6
f2
fe
f7
f2
fb
4
fb
f4
f1
f6
fd
f9
fe
ef
f7
fd
9
f2
f1
f8
f9
e
5
b
f
3
fe
fc
f3
f2
0
2
f0
f1
8
fe
f6
ec
fa
4
e
fb
3
f8
f1
8
d
f8
4
b
f2
e
ff
ff
f5
2
2
4
fa
ff
a
0
fa
e
5
f9
f4
5
0
f5
f9
fa
10
4
fd
4
f9
1
f5
1
f5
f8
e
f6
b
6
1
f9
f1
f9
e
c
5
fc
9
b
4
fd
d
9
f5
f6
fd
10
f6
9
fe
9
c
7
f0
f3
fe
a
f7
fe
f5
0
e
fb
3
3
6
fa
fd
f4
1
f7
9
fe
9
5
f0
f3
10
6
f6
a
7
9
d
fb
3
e
10
c
7
fb
1
c
f2
d
f3
5
a
f5
5
8
fd
3
c
fd
9
3
fb
f5
fc
f9
5
9
9
8
fc
6
6
e
a
1
7
a
2
3
e
d
9
f7
f7
f2
fa
fe
f5
3
f
f1
fd
f6
a
f5
3
a
f0
0
f
1
5
fe
c
f8
fb
fa
fd
fb
4
fe
a
fc
8
1
f0
5
3
fb
e
f6
fc
d
f2
ff
f5
f0
f1
7
fa
fb
f4
f5
f7
8
f5
f7
fd
fa
fb
c
f7
f7
6
f8
a
f4
f9
7
d
2
7
f3
ff
f
f0
f
c
fa
f2
f3
f7
f8
f1
f7
f
7
8
fd
d
fa
f0
f2
c
2
f9
f4
f4
fd
b
f2
f1
7
f
b
f8
f
2
1
5
1
4
e
ff
b
f0
6
6
d
a
f3
fc
f8
7
1
f7
f5
fd
fe
4
fc
2
fb
3
ff
c
0
10
e
f2
6
f6
2
fe
f2
f6
fc
f6
3
f2
2
e
b
fe
fe
3
d
2
3
0
fa
d
f3
5
f2
10
8
f7
f9
fa
2
3
fe
ff
8
2
b
2
f5
f3
ff
b
f1
d
9
e
c
fc
e
e
f2
0
8
fb
b
d
fe
c
f
e
10
c
f4
3
fb
2
c
f8
c
fe
e
f8
0
f4
10
2
2
f5
f
ff
f4
f4
c
6
b
1
f5
6
f9
fb
f1
f6
a
0
a
b
f8
b
ff
6
a
fa
4
fa
0
f1
9
f7
fb
fa
9
fa
f8
fa
b
f6
ff
f5
2
f4
8
ff
f3
2
f6
6
fb
fc
f6
5
f6
f6
2
a
7
b
11
6
f0
f6
f
2
f1
b
fe
d
f2
f8
f9
3
9
f5
6
7
a
6
f1
f0
f4
f6
fa
f8
7
f0
10
8
2
e
9
f5
f8
b
f9
f5
f9
8
fe
9
4
7
fd
f9
0
0
f6
fa
f6
fe
1
6
f6
2
f6
0
f7
fa
f4
fe
d
f5
a
f1
3
f1
f1
f
9
fe
f6
9
f8
6
fc
d
f7
2
f2
8
fa
f2
fd
fd
9
fd
f4
8
f5
f8
ff
c
9
f6
b
d
5
6
f1
ff
d
f2
f
fa
f2
6
f5
fc
e
8
4
f4
d
f3
f8
2
f1
f2
5
4
5
f8
fc
f2
fe
1
d
f4
5
f
fc
fa
ff
11
4
c
4
d
f3
f9
fd
8
f2
b
f3
fa
fc
f1
f4
f6
4
f2
ef
d
f3
0
f4
c
f3
f2
6
f2
8
6
e
d
2
c
f2
0
e
9
fc
fd
10
fe
fd
6
f0
ff
f7
11
5
f9
8
fd
2
f6
f4
2
0
fa
f4
3
1
0
fc
a
f0
f3
f8
3
b
5
fc
f5
f7
9
b
5
0
fb
6
d
c
b
fc
f2
f2
5
c
f
5
f2
f1
f7
f7
f8
0
8
fc
f3
fb
e
ff
f4
8
f0
fe
5
b
f6
f6
9
d
0
11
f5
e
fb
f9
2
fb
f2
f
c
9
7
f2
fd
10
2
f
a
b
b
fc
d
fa
fe
fe
f1
b
f6
f9
ff
f5
6
f5
fa
9
a
c
e
a
f5
4
c
f
d
6
2
f8
7
c
6
f4
f8
f3
f1
fb
fe
a
fd
ff
0
c
ff
0
f1
fc
f7
b
fa
e
f8
2
e
3
10
b
a
1
f7
f3
f7
1
1
f5
c
4
10
d
b
9
f5
fc
f
f5
fc
3
d
fb
f
6
f6
2
f9
d
f8
f4
f5
f
f6
e
9
3
f9
f5
5
ff
b
5
f1
f2
3
fa
fa
f6
11
5
f2
f8
f
2
b
10
9
8
b
f0
f2
1
6
fa
f1
6
2
f6
f7
f5
ff
b
b
fe
2
0
f1
5
fd
e
fe
f1
e
f
4
f8
fb
f9
f7
1
e
f1
fc
fe
f6
fd
10
3
6
9
f7
0
f2
6
f3
fe
f9
ff
0
5
f6
7
1
f2
1
b
fc
7
6
f
0
8
6
d
0
2
d
9
fd
4
5
2
3
fd
f1
f6
3
f3
f
1
f
b
f7
fb
7
