f5
fd
7
8
fa
5
f9
f5
f9
3
a
fd
fd
f6
2
ff
1
5
0
fe
8
fa
3
fd
fd
5
f3
9
8
fd
f7
fe
6
f9
9
a
7
6
0
0
c
2
ff
6
7
fc
1
0
3
1
5
fc
f8
1
2
fb
fd
f6
7
f5
2
f7
2
7
5
f9
fe
6
f7
b
fb
0
4
2
8
fb
8
fa
f5
2
2
f9
fe
9
fb
fc
1
4
ff
f7
f7
fe
6
fc
f8
fc
ff
f8
4
fa
fb
f9
3
2
a
8
2
a
f8
f7
f3
fc
6
f7
f5
7
5
3
f8
0
fc
fc
f9
5
6
fe
ff
1
f8
fe
fe
7
6
3
0
f5
fc
0
f5
2
fd
fd
fa
8
1
0
5
7
f7
f8
7
8
fb
7
fd
0
fa
fc
4
fb
ff
fc
f9
fe
9
5
7
f9
fa
fa
f5
a
3
7
f9
f7
fc
fd
ff
f9
5
1
7
1
7
fa
fe
7
fe
1
f9
f8
6
ff
fa
f6
fb
1
2
0
f7
ff
9
7
8
7
f9
fa
6
2
f6
fc
1
f7
1
ff
3
ff
fc
f5
fb
4
8
9
ff
1
fe
7
9
fa
6
a
fe
3
f7
f9
6
4
1
4
9
9
5
2
7
1
6
a
4
1
2
1
7
fd
f8
a
3
3
fb
2
7
ff
fd
9
9
5
a
f8
fb
f9
fd
a
9
f5
1
6
9
6
7
4
5
8
1
7
fa
fd
7
b
fa
f8
2
9
4
f7
8
2
f6
f6
3
fc
3
f9
3
3
6
fa
f7
5
6
fb
fa
1
b
4
fa
5
f8
fc
fe
5
5
3
fa
fb
3
f8
fb
c
fb
1
7
f8
f8
1
0
fd
3
6
fa
7
b
f7
4
fa
7
fc
4
8
8
f9
f9
fb
5
f8
6
fa
f7
a
8
7
fa
fa
f8
2
fd
fc
5
f9
fb
fc
7
f7
9
2
fd
f5
fc
9
0
fc
5
8
fb
0
0
0
7
fd
3
f8
6
f8
f5
fd
9
7
5
6
ff
fc
4
6
fa
fc
8
f6
7
fc
a
fc
7
fe
8
fa
3
f7
fa
4
fd
fe
f6
3
b
f6
f6
fc
f9
7
fb
5
1
7
7
ff
fc
3
f9
3
7
4
f8
ff
9
0
9
5
3
7
f4
f6
a
ff
f7
fb
9
3
7
8
0
3
2
2
f9
f5
fb
f4
fb
f8
ff
5
0
0
f7
fd
fd
f9
fb
fd
9
b
f6
f6
b
3
f9
f4
8
ff
ff
0
fa
6
2
9
a
9
2
f9
fd
f7
fd
6
ff
fc
4
6
fa
f7
3
a
f9
fc
0
0
1
fd
a
1
b
fe
2
ff
6
f6
fb
a
f8
f8
fd
fe
3
fa
fe
1
6
7
5
fa
fc
9
0
c
f9
f6
fb
f8
5
9
ff
0
fe
fb
0
f8
ff
fc
5
f6
3
0
7
7
3
4
fd
f7
6
f6
fc
a
8
f7
6
5
2
6
ff
f9
0
2
6
fa
f9
9
7
f7
1
fa
8
f6
7
fb
fd
fa
9
f8
f5
f7
a
f5
9
4
f7
fb
8
f6
2
f5
5
5
f6
a
fa
f6
0
2
0
1
fb
1
1
7
ff
fd
fe
a
9
0
7
f8
f8
2
f7
f6
f6
5
7
2
f7
6
2
f6
9
5
ff
f8
fe
f8
f7
f5
fa
1
3
fd
ff
f8
7
7
3
f7
fd
5
fb
ff
a
ff
fd
fe
f4
b
0
a
fc
f6
f9
fc
8
fe
f4
3
f7
f7
fb
b
fe
2
f6
7
fe
7
0
3
7
fa
f8
fa
f7
f8
7
9
9
a
4
f8
ff
fd
f9
fb
fb
f9
b
a
fe
fe
fe
f8
fc
fa
3
fb
a
8
5
f9
fb
5
a
1
f8
fc
9
fd
fe
fc
f9
7
fa
7
f7
fe
3
0
4
b
a
b
fd
5
fd
fe
fe
0
7
fe
ff
fa
fd
fc
4
4
f6
ff
ff
8
fe
a
4
fe
4
0
ff
fc
fc
fc
5
f9
1
f9
7
2
f9
1
4
f6
f6
0
fe
4
9
0
fc
f5
a
6
fe
7
1
9
9
5
f5
b
fe
7
f7
f6
fb
1
fc
fc
fd
0
9
ff
3
fb
7
2
fe
fe
fc
fd
8
fb
f6
3
0
fe
fd
f8
2
f9
9
a
7
f7
9
3
fc
7
fc
3
fa
6
f8
fd
f5
3
5
8
fa
6
8
f6
fd
fa
fc
8
f7
f6
ff
0
7
f6
fd
f8
ff
ff
f7
b
8
f4
a
1
a
fc
7
f8
1
3
a
ff
0
7
fd
8
9
3
f7
8
f9
6
4
9
2
4
f7
9
4
8
6
9
fe
fb
7
0
8
3
fd
7
f5
fa
5
fe
1
fa
0
fc
a
f9
6
8
8
6
2
fd
a
0
f7
7
b
ff
9
0
7
9
1
fc
9
4
5
0
9
ff
a
1
fb
f7
ff
9
fc
5
8
f9
fe
9
a
1
0
fc
f9
6
f7
f9
3
4
5
f6
9
2
8
fb
ff
f7
f8
fa
f9
fb
6
ff
f8
f8
fc
9
8
a
3
a
ff
6
8
7
f6
fb
f7
ff
0
0
8
2
f9
fa
8
fb
ff
b
fa
9
3
fe
5
5
fc
f8
4
6
fe
8
1
ff
fc
8
7
3
6
ff
ff
fe
f5
1
9
ff
2
2
fa
fc
7
2
0
fe
f9
9
9
fa
f9
ff
7
0
fc
a
2
3
9
fd
fc
f9
fc
7
2
ff
5
fe
0
f8
5
ff
4
8
fe
fb
f7
6
2
f6
fd
6
f6
fb
fd
fd
0
c
f8
9
5
fe
c
9
ff
fe
f6
7
7
8
9
5
f6
fd
0
fb
fc
fd
5
f9
fa
7
f6
5
f6
1
f7
3
fb
7
fc
9
ff
7
1
3
3
fb
7
1
0
9
fe
f9
1
fb
1
3
5
fd
0
4
6
f9
ff
9
ff
4
0
3
fe
1
f6
9
6
f8
a
f6
f7
f7
fb
4
fd
f7
c
6
f9
fe
4
9
f7
f6
9
1
2
8
a
fb
5
b
3
fa
6
f9
f4
f9
fb
9
fd
fa
2
f6
8
fc
f5
ff
fb
f8
3
4
fc
3
3
8
8
a
fc
4
fe
fe
0
fd
fb
5
9
5
f6
fb
9
fe
a
4
f6
4
8
5
0
6
f7
9
ff
b
fd
fd
5
fc
9
f5
fc
7
0
9
a
2
fa
f7
f9
8
fa
f5
0
4
fb
fb
f9
5
7
f9
9
fe
a
8
fb
fc
fa
f9
4
6
6
f7
3
a
4
f4
f4
9
fc
f6
2
0
5
7
1
9
3
f9
f8
0
f6
f8
fa
6
0
2
fc
f8
7
fc
8
6
fe
ff
1
fe
8
2
f9
f6
f7
3
f9
f4
1
f4
fa
5
0
6
a
fd
fd
4
2
fd
9
0
f9
9
fa
fc
8
f7
9
0
fb
3
fb
7
fc
4
fe
5
5
2
0
1
f6
3
6
fb
4
7
3
1
fc
fb
6
fb
ff
4
f8
7
6
ff
ff
f6
fe
a
1
fe
9
1
ff
fa
fc
fe
9
fe
fb
f8
7
f9
1
0
ff
8
fa
4
fb
fb
2
b
5
f7
fc
1
8
f9
8
fe
5
7
f5
6
f8
1
fc
f5
1
6
2
0
3
fa
b
f9
fb
fe
8
3
1
8
5
7
0
f8
6
f8
2
1
f7
a
fa
fc
f9
f5
fa
f9
f6
f7
fa
9
2
0
a
fb
f7
3
8
9
5
6
fe
f8
f9
fb
3
2
9
5
1
fd
fa
6
7
2
2
8
f9
6
6
2
fb
3
f9
f8
2
ff
fd
f6
f6
ff
f8
fc
fe
a
ff
f9
9
9
3
fd
f6
fa
ff
a
4
9
7
fa
f8
f9
4
f6
1
ff
4
f9
fb
f8
f9
f5
f8
0
f8
fd
f5
ff
fa
8
1
4
0
8
8
4
8
f5
f5
1
6
fe
2
1
f8
fa
fe
f5
fc
4
2
f7
fc
fd
3
6
f8
1
fe
6
a
3
3
fa
a
f6
3
f9
f9
0
5
0
ff
f5
0
f7
0
f9
8
ff
0
4
fa
ff
8
6
fb
7
fe
ff
9
6
0
4
1
ff
f7
f6
5
fd
f8
fb
6
8
ff
fd
9
f6
f5
7
0
7
1
fe
fd
f7
1
1
fa
c
f6
fc
f9
fc
ff
fd
f9
f6
4
1
ff
9
7
5
9
2
1
0
4
ff
fe
2
3
f9
2
a
6
a
1
fa
5
1
5
b
fc
ff
7
f7
fc
fb
8
0
7
6
3
f7
fe
fc
fd
1
1
ff
fa
fa
f9
f9
f8
6
4
fd
fb
f8
f6
3
6
f7
7
fe
5
0
0
7
0
1
f6
6
6
4
f5
f5
f4
1
1
f9
fe
f7
ff
6
8
c
fa
0
fe
0
9
fd
f9
0
3
ff
6
fe
ff
8
a
fd
f6
8
f6
1
fe
f6
0
f9
fb
6
5
6
f9
6
f6
5
fc
4
6
fb
fb
4
f9
fc
9
3
fb
fc
0
fb
f8
7
1
fe
2
6
b
fb
8
f7
f6
6
f9
4
5
0
6
fc
fd
5
fd
fa
f8
ff
1
6
f5
6
ff
f7
f7
2
5
7
4
fa
fb
f6
0
0
f5
f8
2
fe
a
4
a
8
fb
1
0
a
8
fd
f5
f4
f9
7
a
f8
8
5
9
fd
4
f8
f9
f8
2
0
4
8
f8
fb
a
f9
f7
f8
1
a
fc
4
fd
f9
f5
0
9
4
fa
f9
fc
2
f8
f7
fc
4
4
7
fe
6
5
ff
7
f6
0
2
0
5
b
fc
fa
fc
4
f9
f8
fd
f8
9
1
fc
7
fd
fd
9
fe
5
fe
f7
f6
4
4
7
fa
6
f7
8
a
1
1
9
2
9
ff
a
9
9
ff
0
4
f5
7
2
fd
b
9
ff
f9
5
f7
0
fd
f7
a
fe
fd
6
f9
f8
f9
fb
f6
9
f9
ff
9
2
9
b
f7
1
f8
1
2
4
f9
f6
4
5
fb
f8
ff
6
9
f9
f7
f5
2
f6
6
5
4
2
7
f6
9
5
5
fb
2
7
f8
f9
f6
3
8
3
2
f8
f5
4
fa
3
ff
6
5
8
0
a
f8
fe
1
f8
0
2
fb
2
4
fd
f6
2
f9
fc
fe
f8
2
f6
1
f8
f9
b
0
f8
5
a
2
2
f8
a
f7
fd
8
fc
0
0
8
9
ff
ff
9
b
0
6
2
4
f7
f8
1
f9
ff
5
6
ff
fa
fe
fa
6
7
a
9
ff
fa
5
f8
3
5
1
4
3
f7
7
1
ff
a
6
7
b
3
0
1
fb
fb
4
3
ff
fc
a
2
6
8
f5
f6
0
fe
2
2
fd
fa
f8
fa
7
fa
4
fd
4
fc
f7
ff
fa
0
f9
fd
8
ff
0
6
1
f5
3
f9
f5
3
5
2
b
fa
f5
b
f6
9
1
5
a
2
f6
f8
8
8
f8
0
f5
0
3
fb
9
1
fc
9
9
2
fa
9
f8
3
a
8
8
3
f4
7
fb
f5
fe
fc
f7
3
2
fa
2
3
fa
f8
0
6
f8
6
5
f9
8
7
fd
fc
f6
7
1
ff
fe
0
1
9
9
fe
f6
f7
fd
fd
5
9
8
f6
b
3
f9
fb
0
b
fc
fc
f6
3
9
fb
fa
fd
fe
1
fe
fe
1
4
b
fa
6
2
2
9
0
f8
b
fd
2
f8
fd
5
fc
fe
2
fe
2
f8
f8
5
8
6
fc
9
fe
f7
ff
f7
3
f8
4
f7
5
7
f9
fb
6
fc
f5
4
2
fa
f7
8
fb
2
fd
1
2
3
a
fa
3
1
fc
fc
2
3
8
fa
1
2
f9
fd
9
fe
0
6
8
3
2
f5
2
6
a
f8
f6
a
2
4
3
3
f7
fb
0
5
fa
0
fe
6
0
6
a
f8
1
3
fe
3
0
ff
6
f9
f7
b
fc
fc
f6
fc
2
7
f7
f6
1
3
f9
8
ff
fe
8
ff
f5
fd
2
8
9
f7
fa
f8
fb
fe
f6
fa
0
f9
fe
4
2
1
c
7
2
f8
f6
fa
f7
7
a
7
fc
ff
8
4
f6
0
2
f5
6
f5
4
fc
9
8
f8
1
fb
fb
ff
f7
f7
fa
f7
f9
5
f7
fd
ff
2
fa
1
f7
f5
9
0
fa
fa
ff
b
f8
fd
ff
8
7
f7
3
1
4
0
a
8
3
f5
f8
f7
4
fc
1
f9
f8
a
8
ff
3
f6
6
b
fd
5
6
f7
fb
9
f8
1
fa
fb
3
a
3
7
fe
1
2
a
fc
3
fb
fd
fc
0
f9
fc
f5
2
8
fc
1
fb
6
f6
5
8
b
2
c
f7
ff
6
fb
fe
1
7
a
7
0
2
2
f7
2
fd
f8
6
6
fc
4
f7
8
f8
0
4
fd
f7
1
f7
fb
5
fc
9
f9
fd
4
1
6
fd
f8
3
1
f9
7
1
fa
fc
ff
f5
a
f8
4
f5
2
fb
7
a
fc
1
fc
1
5
fe
fe
3
6
ff
f5
f5
0
9
fa
fd
fe
5
8
f9
6
fc
fc
fe
a
ff
5
fd
f4
fc
7
0
fd
6
9
f9
fe
6
8
fa
2
f3
0
f5
f6
f6
f6
0
0
3
5
fc
6
fe
4
4
fd
ff
3
fc
fa
ff
3
f6
2
f6
fc
fd
f5
f7
0
fe
0
f7
f9
fe
5
0
4
2
ff
8
fe
b
5
2
f7
7
9
5
fc
fd
8
4
7
3
fb
8
8
4
0
f8
fb
fa
f8
4
5
4
c
5
2
f6
4
f6
fa
f8
6
1
ff
f6
3
6
f7
2
fc
f6
fe
9
fe
7
8
fc
f4
f4
fa
fb
fc
a
5
f8
f9
fc
1
f7
0
6
fe
f6
2
1
2
f7
3
0
fe
2
fe
a
fc
fd
fc
6
fc
fe
a
f9
8
ff
6
a
2
f7
1
1
f7
fe
fe
a
ff
fa
4
1
2
f9
1
f9
f9
f9
2
fc
2
3
6
f7
7
fd
2
f6
0
fe
a
5
4
6
fa
9
fa
fb
8
7
f9
f8
ff
5
4
5
f8
f5
f9
6
f8
3
1
f7
2
6
5
f8
fe
fb
fd
5
6
4
9
f5
f7
fd
fe
fb
f8
f5
fd
8
f9
fe
6
ff
fd
8
5
fd
c
7
3
1
f8
9
b
1
5
9
ff
fd
5
ff
0
1
b
fa
f9
9
6
0
5
fe
fc
5
5
f9
ff
f8
9
7
ff
1
fc
6
9
f4
fa
f8
3
4
6
4
7
fc
fb
f8
fe
ff
3
fa
fa
8
5
f8
fe
6
1
fa
f7
5
2
f9
fa
5
f8
f6
f7
fc
fd
4
6
2
fd
1
4
fd
b
1
4
f9
5
0
fc
fa
4
1
fe
fe
fd
fa
5
7
2
fb
8
4
0
7
fd
fd
fd
f8
f4
fe
ff
5
fe
f9
f9
9
3
f6
c
fb
5
fe
fe
8
2
4
4
ff
f6
f6
f7
fe
fd
ff
f7
fe
6
fc
fa
fd
fa
ff
7
6
f7
5
2
fe
f7
0
f9
8
fe
fb
1
1
f7
6
f9
fd
6
7
a
f9
1
f8
fd
f9
fc
fc
a
5
f6
fa
fb
4
fb
1
a
2
b
1
4
a
5
f6
fd
f8
1
5
f5
2
3
ff
2
fb
f8
2
3
5
f5
2
f7
2
fd
2
fd
0
b
f9
1
7
f8
a
f9
fa
fd
f7
8
8
0
f9
2
fb
4
0
a
a
1
fa
f6
f9
fc
f8
7
1
f6
9
8
f8
6
fa
fb
a
5
f6
fe
2
fb
ff
1
ff
f9
8
c
f8
9
3
fe
fe
fd
4
c
f9
a
9
9
fd
8
8
f6
3
0
6
f6
fb
5
f7
fc
b
ff
ff
0
fc
f9
fe
fc
9
3
1
a
3
fa
9
f7
5
fd
b
fa
0
f9
fa
3
2
f6
fb
f6
2
fa
fc
4
fe
fc
ff
6
1
ff
fd
4
3
fe
f9
9
8
2
c
f9
5
fc
f9
5
b
8
f5
f7
f6
8
5
b
fa
7
f8
fe
f8
0
3
2
fe
0
1
fd
0
a
fc
4
2
5
8
fc
9
2
fd
fc
7
2
f8
0
fc
5
6
0
a
3
8
4
6
6
6
f5
3
a
fb
fd
fa
6
f9
5
1
6
f9
fe
fa
4
9
9
f6
fa
6
2
0
a
fb
fb
fb
8
fd
8
ff
3
f6
fd
b
5
0
f6
7
1
5
0
ff
f9
2
3
3
fa
9
4
fc
ff
7
f7
5
9
f9
6
f7
f8
f7
ff
fc
6
f8
fa
9
ff
f6
5
ff
f5
0
a
0
4
0
6
f8
fc
4
1
f5
1
f8
6
7
f5
7
fa
f9
f7
fd
fa
fe
fc
fc
fe
fc
6
ff
f6
0
8
8
3
0
f9
f4
1
fe
0
f9
a
fd
fe
fb
a
f6
c
8
4
a
f9
6
6
f9
9
f8
4
f9
7
9
3
a
f8
fd
fe
fb
fd
f5
f6
8
9
4
0
3
fc
0
1
1
fa
8
7
7
ff
fa
fd
9
fb
f9
f7
fe
7
f8
7
1
b
a
f8
2
9
9
3
7
ff
9
f6
f9
3
8
9
6
f6
f5
fd
f4
fe
f7
3
3
ff
9
f4
7
ff
fe
f9
fd
f7
fe
5
1
9
f9
fc
3
f7
3
ff
a
fb
ff
8
9
fa
b
fa
fb
fb
0
3
8
2
ff
fa
7
fb
fd
ff
f8
fd
4
f6
fe
5
a
6
fb
5
fa
9
fd
f8
4
f7
4
ff
8
6
9
5
4
fc
f6
ff
9
ff
7
8
9
ff
8
fa
b
9
fb
3
f6
1
1
fa
f9
9
6
f9
2
1
fe
7
2
6
0
a
fe
f6
a
fe
8
ff
8
f7
5
f5
f4
1
f9
1
fc
9
fd
4
5
f8
1
6
fd
3
fc
ff
fb
ff
f9
7
7
0
4
fc
fa
8
6
f7
5
f5
7
fb
9
fb
2
f5
0
f6
6
0
f6
fc
7
7
f8
f7
f8
b
b
fd
a
ff
fb
7
fa
0
fe
fa
fc
f5
3
3
4
ff
2
f7
4
3
1
fb
1
f7
fc
ff
ff
1
5
fa
fe
1
1
a
0
b
8
0
fd
fa
8
3
4
8
f5
f9
9
f7
2
2
f8
1
4
ff
8
1
7
b
6
0
fe
f5
4
6
3
fa
f6
f8
f9
2
fa
2
fa
9
ff
2
ff
7
7
1
1
fa
f8
ff
4
f9
4
fa
9
5
f9
2
0
8
fb
6
3
f7
fa
f8
8
f9
fc
fb
2
6
4
1
fd
7
8
fa
f9
f7
5
fd
fc
4
fd
1
9
fe
7
3
5
fb
f7
5
8
f7
ff
9
2
a
fc
fb
4
6
4
fa
5
8
8
5
2
f9
fb
5
fc
5
4
4
fa
9
fd
4
f7
4
f7
fd
fc
0
f7
fd
f5
6
2
f8
1
fc
1
2
f7
f6
fe
fa
f8
ff
f6
f8
f9
5
6
fe
6
8
b
fc
fa
b
9
fb
8
3
6
fa
6
7
6
0
a
6
9
b
fc
0
f6
a
2
ff
f7
f9
4
8
5
fe
6
fb
ff
f9
9
f7
f7
fa
fe
f9
f6
fb
ff
ff
f6
fa
fb
fd
f9
f6
fc
fd
3
fb
3
fa
2
3
7
6
2
f6
fb
1
f6
f4
4
fe
f5
fa
f9
4
8
0
fa
9
5
fd
6
fe
0
f6
4
fe
f8
3
f7
ff
9
4
0
fd
3
ff
0
5
f7
f8
1
f8
f7
fb
4
0
f9
0
fa
9
6
4
9
fd
0
c
f6
a
1
0
4
fe
fe
f7
7
8
fe
4
7
0
f7
1
fc
7
f6
2
a
fe
f8
f8
8
5
f8
f5
1
3
3
3
5
f9
1
4
6
4
7
fb
fa
3
9
f9
3
5
b
fb
f8
6
4
fe
1
a
0
a
8
f9
f6
0
f5
fe
f6
f8
0
4
0
4
3
f6
9
0
f9
fe
8
3
f6
fc
1
0
fb
fd
fc
fa
7
f9
f9
fc
f6
f8
2
5
6
f6
6
a
0
6
fd
fc
8
ff
fe
f8
2
f8
2
8
0
f6
2
8
fa
4
f7
f7
5
fc
fb
7
9
fa
fc
9
ff
8
fd
fc
f8
6
fa
7
f9
a
fe
f6
fc
8
f9
5
fe
8
3
7
fb
3
ff
7
9
7
fd
4
a
4
fd
a
fe
b
6
fd
7
ff
5
7
fe
ff
6
5
6
fe
fc
5
fc
a
ff
2
f9
8
fc
b
ff
5
2
fd
fb
f6
fe
f6
ff
9
f5
ff
ff
2
0
7
f7
fb
fa
8
2
b
2
fa
3
4
fc
f5
9
3
3
f6
7
fb
1
4
f9
f7
fc
f7
1
7
fe
9
fc
fa
4
fd
fe
fc
4
7
fa
2
fa
f9
f8
0
0
f7
2
b
f7
f7
fa
f6
1
f6
9
3
f7
f7
fd
f7
2
ff
8
f6
fa
f5
f5
f9
1
9
f5
3
ff
2
f6
f6
fa
1
ff
f6
f6
4
f8
fb
f8
f6
fb
6
1
8
2
7
1
fd
ff
7
6
f5
9
4
f9
f4
ff
fb
9
a
f8
4
3
fe
7
fb
3
f5
1
4
1
1
a
7
6
f8
3
f5
ff
fb
ff
3
7
3
f8
0
5
fe
f9
fb
5
0
fd
4
4
f9
1
fb
8
8
1
6
1
ff
ff
f5
2
fd
f7
a
1
9
f7
9
f9
2
2
f3
5
2
fd
fd
2
f6
3
4
ff
f4
4
8
fc
fa
f5
1
5
f8
b
f8
ff
9
ff
2
9
3
0
f5
3
f8
ff
7
1
fe
f7
7
f5
0
fe
fa
0
1
fc
9
fd
fe
fa
9
7
f5
ff
fc
8
7
5
2
1
8
ff
ff
b
b
5
fe
0
fd
4
a
1
ff
5
fc
ff
f9
2
0
6
9
fe
8
f7
f7
fd
fd
fa
6
fa
7
f7
b
fe
f7
9
3
1
8
7
f8
6
f6
f7
4
fe
7
fb
fa
9
f9
2
f9
fe
3
9
ff
a
3
1
ff
fe
ff
2
3
9
fe
1
3
5
fb
1
fc
7
6
f9
fc
ff
fd
fa
6
fe
fd
fa
f9
8
f8
fe
2
8
3
4
fc
1
f8
0
f6
f8
a
8
2
0
9
f9
fa
3
7
9
9
fe
f8
0
fc
ff
2
f6
f9
f9
3
4
fa
fb
4
6
6
fe
ff
f8
f7
5
ff
1
3
f7
ff
6
fd
4
f3
ff
fe
f3
a
5
f7
fc
9
f6
fe
f8
fa
f7
f8
7
6
7
4
9
1
f8
fd
7
fa
fb
fd
3
fe
8
fb
5
9
fd
6
f8
ff
7
fd
fd
fd
f7
fc
f6
5
f7
a
7
6
f9
f7
6
8
f8
fa
9
f8
ff
fd
9
2
f9
9
f8
ff
fc
7
3
fa
a
fc
f8
a
f9
f7
0
3
3
5
fc
fd
4
7
fb
a
f8
f7
5
8
f6
5
ff
f8
1
8
3
ff
5
4
4
f8
ff
4
2
9
ff
5
f6
fa
ff
ff
fe
b
9
fd
5
f9
a
2
f7
0
a
7
fa
fd
f7
fb
fc
6
8
f9
5
6
7
6
fd
0
f6
2
7
5
5
ff
ff
2
ff
fc
fe
f8
f5
fe
2
3
fe
5
fb
b
f5
8
7
fa
f5
ff
9
0
4
5
f7
3
5
8
f6
fd
fe
3
f9
7
f8
ff
7
ff
1
8
7
fc
8
f6
f9
8
f7
fe
5
b
fd
f8
0
0
9
ff
5
ff
7
4
4
fe
ff
f6
4
fd
fd
5
fe
fb
4
2
f7
2
fa
f5
fc
0
7
0
1
8
5
ff
7
f5
7
fd
fc
1
fa
ff
1
f9
fe
9
f8
f6
f8
fa
f9
f9
fb
8
f7
2
6
f8
3
d
fa
c
fd
a
fa
fc
2
fe
f8
7
1
7
6
7
3
3
f8
fe
3
4
f8
9
f6
fb
7
fe
2
2
6
fa
fc
a
9
