6
3
fe
f9
1
8
3
9
3
2
fd
fd
7
fb
fc
0
fb
fd
6
1
fb
fe
6
0
7
7
fe
8
fb
5
7
6
fa
8
6
6
0
2
6
fd
6
fe
4
6
6
7
7
ff
fd
fe
4
f8
5
fc
fd
fd
7
2
2
ff
f8
8
fe
2
fe
fb
8
fc
4
7
1
2
2
fe
2
fc
2
ff
fd
6
0
8
7
0
6
3
5
2
fd
fe
fa
1
4
3
ff
3
1
1
4
3
6
2
fd
8
1
4
fb
5
2
3
ff
1
1
fd
5
f8
4
fb
5
fe
f9
fb
fa
4
3
ff
1
fb
fa
1
fe
2
6
f8
0
fa
fd
fb
7
fd
fa
1
2
fc
ff
1
8
f8
fe
ff
5
5
fe
fb
3
fe
3
2
fa
ff
fd
fd
5
ff
5
5
7
fd
f9
3
3
8
0
fb
0
fa
fa
ff
fa
fd
4
f9
fe
6
3
6
fb
fa
fe
fd
1
fa
ff
f8
6
fc
f9
ff
2
1
6
6
1
0
7
fe
fa
0
0
fb
1
2
2
f9
1
ff
3
7
fc
2
fd
fc
0
1
2
0
6
0
f9
2
1
fd
ff
7
0
3
2
3
fb
6
fd
ff
fa
fb
2
fe
1
fb
ff
7
fd
9
0
3
fe
6
2
4
5
0
5
1
4
fd
5
2
ff
fb
7
4
fe
5
ff
ff
fd
6
1
1
3
3
3
f9
fe
fc
7
6
fd
6
f8
fc
7
6
3
fc
4
fd
6
9
6
0
7
6
3
8
ff
1
1
f7
fc
fa
5
5
6
f9
3
fd
fe
3
5
0
fb
fc
fe
1
0
0
fb
6
fe
7
2
f9
5
4
fd
2
ff
fc
1
fb
2
2
fd
7
6
fe
3
2
3
3
fc
5
fc
0
5
fb
3
4
4
ff
fc
f9
3
4
fd
ff
0
5
3
2
fa
2
fd
fe
5
5
0
fc
5
6
2
ff
fa
4
1
0
6
fc
2
1
1
ff
fc
fe
4
2
4
f9
2
6
1
6
ff
ff
f9
ff
ff
0
3
fb
3
0
ff
fa
2
fd
fa
5
3
3
3
fc
5
3
7
1
0
0
fa
fa
3
4
7
ff
5
1
8
2
0
6
ff
5
4
ff
5
6
7
fd
5
7
2
fa
ff
1
fd
3
7
fc
fc
3
6
fd
ff
fa
fb
0
f9
6
6
f9
f9
f8
fc
fd
1
fa
fe
f9
fc
7
4
ff
7
6
fc
2
4
fb
fc
f8
fa
6
f8
2
3
fc
4
f8
0
fc
fc
f9
fa
6
fb
fe
2
7
4
fb
fc
1
5
5
6
3
6
fb
0
fc
fb
1
3
4
ff
fc
ff
ff
ff
fb
fa
3
7
fb
fb
5
fa
5
fa
7
fd
5
fe
1
fe
1
2
3
3
f8
6
4
6
3
fd
4
f9
3
fa
7
fb
fb
fe
fe
0
f9
2
fb
2
7
fc
fc
ff
4
fd
1
7
3
ff
fa
fe
3
6
6
f8
fd
fb
fd
f8
fd
3
5
2
0
fa
4
f9
8
fb
5
0
fa
fa
ff
1
4
7
fb
f9
8
0
4
fb
6
6
fc
7
1
4
fe
fa
0
fa
fa
5
0
fc
3
fb
2
6
f9
4
fc
4
f7
2
7
4
fe
6
ff
fd
3
fc
4
fe
1
5
5
5
fc
fc
2
2
fe
fe
1
1
fd
fe
7
f9
fe
4
5
fe
ff
fe
1
5
fb
1
3
6
6
1
fa
3
2
4
7
8
fe
fd
8
7
2
3
5
fd
6
5
7
6
6
5
7
fc
fe
3
ff
5
8
ff
3
4
fa
f8
4
1
fc
f9
fc
fe
8
fe
3
fd
1
2
5
fa
6
fb
4
5
fb
fc
f9
2
6
fe
3
fe
7
7
2
fb
1
fc
fb
ff
5
fc
fc
4
f9
4
4
fc
f8
ff
1
0
f9
5
fd
f8
fc
fb
4
fc
fe
fd
2
fb
5
4
f9
0
fb
6
5
f8
2
fd
fd
fc
3
fb
4
6
fa
2
fa
3
fd
2
fb
fe
3
fd
fc
4
4
fd
6
f9
2
4
0
ff
fd
4
fd
f9
4
0
0
fe
5
6
5
7
7
5
ff
fb
1
0
ff
fc
3
5
fb
fe
fc
6
3
5
fa
fd
5
ff
3
3
6
4
0
ff
ff
0
f9
fb
ff
ff
7
fe
ff
fd
5
5
fe
fe
0
fe
fa
2
2
fb
1
6
fd
6
fd
0
6
ff
3
5
3
fd
fc
ff
fd
2
7
fb
fb
6
7
f9
fe
f8
5
fa
fb
6
5
1
ff
fd
fc
fc
0
fe
f8
fe
3
2
4
ff
2
1
f9
6
ff
1
4
3
1
ff
4
fa
5
5
fa
f9
3
5
0
5
ff
4
7
f7
6
f9
0
8
fa
fc
3
fb
ff
fc
fa
fe
f9
1
fb
4
2
fc
fc
fa
fd
6
fb
0
2
2
7
0
f9
f8
4
0
f9
fc
fe
1
fa
4
0
6
fb
3
fc
7
fc
6
fb
5
fc
fc
7
fc
1
2
f9
fd
fa
fd
3
0
6
3
1
fd
7
fb
2
5
7
0
fc
fb
2
fe
fb
fc
f9
0
fd
fe
fc
6
2
5
4
6
2
1
2
f8
fe
fe
6
fd
1
fe
2
ff
6
0
4
5
f9
f9
2
3
7
fb
f9
2
fc
fe
fc
3
ff
3
f9
6
6
fe
fe
fb
6
3
ff
fb
fd
4
0
5
5
fc
7
4
fc
6
5
1
3
f9
1
1
fa
f9
fd
fd
9
6
6
3
4
9
5
fc
f9
1
fa
1
1
1
1
1
4
fb
0
6
7
5
fd
2
ff
2
6
8
2
3
ff
0
0
7
fa
0
fd
ff
6
fc
f9
2
f8
5
6
0
0
fb
1
0
f8
3
fa
fc
4
fd
4
5
ff
1
4
6
fd
2
7
fb
5
0
f9
5
5
7
5
fb
5
ff
6
fe
f9
ff
0
4
fc
fe
fe
f9
7
fe
3
2
fa
fc
fe
fd
6
2
fd
1
7
1
fb
fa
4
fe
fd
fb
ff
fa
3
fe
fb
f8
ff
ff
fe
1
ff
fb
4
1
fc
1
7
3
f8
4
1
fe
fd
fe
ff
fd
4
4
fe
fd
fb
0
4
7
fa
5
fa
4
3
ff
1
fd
fe
4
fa
1
fe
0
6
4
ff
3
0
1
4
fe
fa
3
fd
2
2
6
f8
ff
4
5
6
4
fc
2
fe
fc
fa
5
7
3
6
ff
0
5
fd
3
6
fe
fc
fa
fe
f7
5
fa
fe
5
fb
7
0
fa
ff
2
f8
fd
f9
7
fc
3
2
fb
fb
fe
5
fd
0
fc
fb
fa
3
fe
fd
0
5
0
ff
6
6
f9
7
ff
5
fd
4
6
3
3
ff
fa
2
6
f9
4
f9
4
fc
f9
8
0
7
fb
f9
4
2
1
fc
2
4
0
1
8
f9
fa
2
6
7
fd
7
f9
fe
2
fa
4
fb
fd
fe
7
6
8
fc
7
5
fb
fa
fe
7
3
8
fa
4
f8
fc
f8
fb
5
2
6
2
f9
fc
fc
7
4
fe
5
0
5
5
3
fe
fc
fc
fc
2
ff
ff
fe
6
1
ff
fe
ff
2
fc
5
fb
2
fa
1
fd
fd
fd
fe
6
6
fa
7
6
3
2
f8
fb
4
1
2
4
3
4
fb
ff
f9
1
1
ff
6
fe
6
3
5
ff
fc
4
f9
1
3
1
fc
fb
2
fb
0
fa
5
fa
5
fd
fe
3
8
4
fc
fa
fe
fb
fc
fc
6
2
ff
3
fe
1
ff
f9
fe
ff
0
0
f8
6
1
f8
7
0
fc
fb
5
5
5
f9
3
fd
fa
3
1
f8
6
fe
2
fd
7
fb
ff
5
fb
7
2
8
1
fd
7
6
fb
fa
4
2
0
fa
fc
0
fc
5
4
2
6
0
fc
fe
fa
fc
fa
fb
ff
ff
4
5
fe
fa
fa
3
3
3
5
fb
0
fa
8
3
fc
fd
fe
6
fb
fa
6
fe
5
ff
fe
3
4
f9
5
1
4
fa
fb
0
2
fb
f8
f9
fb
2
6
5
8
2
2
2
1
fb
3
2
fe
6
fa
fd
0
3
4
1
fb
6
f9
4
5
0
4
2
fb
fd
fe
0
fe
3
fb
f9
2
2
fd
fe
f9
3
ff
fc
fd
fb
f9
1
6
fa
8
fd
3
fd
2
5
1
2
fa
fe
0
fd
fb
fb
0
ff
3
ff
1
1
fa
fb
fa
fb
6
4
5
fd
3
5
6
0
fe
4
5
5
1
fa
f8
fe
fb
2
7
6
fe
fb
1
3
fc
7
1
8
6
fa
fb
4
6
6
1
3
4
4
8
4
f9
2
f9
5
3
8
fe
8
4
7
2
fe
5
4
1
fd
fd
fd
fd
fc
fb
fa
fe
5
2
fd
0
1
7
4
1
fd
5
8
fe
7
1
0
4
2
fe
f9
8
1
fb
f8
fd
5
fb
7
fd
f9
fb
fd
2
3
5
2
6
4
fd
ff
fc
7
3
fe
3
fa
0
4
1
fd
f9
f9
fc
3
fa
ff
0
3
6
ff
fa
fc
2
fd
fb
1
2
5
2
fa
fd
0
fb
4
1
f7
fb
3
3
fd
6
fb
ff
fe
f8
fe
fe
1
0
4
3
fc
4
fe
1
fe
ff
3
fa
ff
fe
fc
ff
0
1
3
7
fd
fb
ff
fb
4
6
7
f8
fb
7
2
fb
f8
fe
fd
fd
f9
fe
4
fd
3
fb
fa
fa
6
0
f9
3
5
0
fc
4
2
7
5
1
fa
fe
4
3
3
fa
5
ff
2
fe
f7
1
5
2
f8
7
fc
fd
2
4
fd
fe
4
7
0
fb
fb
7
1
2
fa
fa
4
fa
ff
5
1
4
fd
5
fe
6
1
fa
fc
fb
0
7
7
fc
fe
1
fe
0
1
8
2
fb
7
fd
7
5
fc
fe
1
f9
fa
fe
2
fd
3
6
2
7
fb
fd
fd
8
ff
4
fb
fe
5
f9
2
fd
6
fe
3
1
fb
fc
fc
7
4
fd
ff
fe
7
fe
fd
fd
fc
fc
4
2
ff
ff
fd
5
fe
7
1
8
7
0
6
0
1
3
fd
ff
fb
7
7
4
ff
0
fb
f9
3
fe
3
fe
6
2
fe
fa
fd
fe
fd
6
5
fb
3
ff
9
fb
2
4
2
fb
6
2
fb
7
f9
0
3
fd
6
fe
fd
fb
fd
fa
6
ff
5
fb
7
2
2
6
fa
fe
3
1
fe
0
ff
8
fb
fc
fb
ff
2
4
7
1
0
fa
0
fc
4
4
fa
fe
6
ff
fd
4
fd
ff
fb
fc
f9
fd
fc
fa
1
fe
fa
f9
fe
3
fb
7
3
2
fe
fe
f9
fc
fc
fd
fc
4
fb
6
2
fc
5
1
1
ff
fc
4
fa
5
fc
5
fb
ff
fd
fd
7
fd
2
fc
4
fb
0
4
5
1
ff
fc
6
fa
5
3
6
4
fc
7
2
5
0
3
8
8
ff
4
ff
fa
fa
3
fb
fe
3
0
fc
fa
7
fe
4
1
3
fd
4
fa
f9
fc
2
4
1
fc
6
fe
ff
2
fd
1
1
fd
8
fe
5
4
fa
f9
ff
fe
1
fb
7
6
6
f8
2
5
fd
1
ff
7
1
ff
fa
fa
2
fd
fb
8
2
1
5
0
2
ff
4
4
f9
fd
ff
fa
fe
0
1
4
7
f9
fb
6
4
fc
1
0
fb
f8
fc
fb
fe
fc
f7
f8
fe
3
fc
ff
fd
fc
4
4
fd
1
fe
5
4
2
4
7
4
fb
4
6
3
ff
6
5
fd
f8
fc
0
4
f7
8
fb
0
3
fd
5
3
3
4
0
fe
fd
6
1
8
fe
9
2
3
4
6
fa
6
fd
fb
f8
4
f9
2
4
5
fc
1
4
fa
fa
ff
ff
2
f9
fb
2
fb
fa
3
1
7
fe
fa
1
ff
fd
2
fa
fb
3
5
fc
f7
1
fe
6
2
3
3
2
fd
0
7
ff
fe
fe
8
3
fd
5
1
fd
fe
0
fd
fa
fd
fd
4
f9
0
5
f9
3
2
fa
fa
3
6
fb
ff
7
fc
fd
ff
8
3
fc
5
5
fc
f9
1
7
0
fe
2
1
fe
f8
0
6
1
fb
5
fe
fd
fb
6
fa
fe
6
fd
fe
fc
6
4
ff
5
fa
fb
fd
5
ff
3
1
ff
ff
fc
1
0
3
6
ff
ff
fd
2
0
6
5
0
3
0
2
0
0
0
fd
fd
7
ff
3
5
1
fc
4
7
fd
7
5
fa
fb
ff
fe
3
fc
2
f9
fc
ff
fb
fe
fe
fa
5
fe
fe
fb
fe
8
f9
fa
fb
1
5
ff
fe
f8
5
ff
fa
f8
ff
2
1
4
0
0
fb
2
0
7
fc
f8
f9
1
fe
ff
2
4
fd
4
3
fd
5
fd
ff
2
0
fa
3
5
f9
2
5
2
7
2
7
8
fd
fe
3
fd
ff
fa
4
fc
fe
1
3
fb
f9
fc
fe
1
7
fb
3
0
ff
8
4
f9
5
fd
fd
1
fd
6
fd
5
fc
ff
7
0
4
6
2
ff
7
fc
5
fb
4
fc
1
8
7
5
4
fc
fc
7
fc
1
ff
fc
9
3
fc
7
ff
0
ff
1
0
2
0
f9
ff
f9
4
1
fb
6
fc
2
1
fc
fd
f9
7
5
fc
fb
fb
1
7
7
6
6
0
7
1
1
3
1
5
3
fb
fb
3
ff
7
fa
5
fc
7
f9
5
6
1
fd
ff
fd
ff
fe
5
7
f8
f8
0
fe
5
fe
ff
3
9
fc
fb
8
1
5
fd
1
ff
fe
f9
6
8
3
0
4
f8
2
7
6
2
fb
fa
fa
fe
0
fb
8
f7
6
2
fd
5
7
ff
ff
6
5
2
5
f9
3
0
fe
fa
ff
4
3
f7
7
fe
5
4
fa
5
2
fd
6
6
2
fc
3
2
5
ff
0
ff
3
4
3
ff
2
2
fd
fe
fd
0
fc
7
6
fb
0
fc
fc
f9
0
fc
4
1
fa
ff
4
fe
fa
4
1
fd
f9
fb
2
f9
0
2
7
3
fd
1
f9
fc
4
5
2
0
ff
fa
fa
6
f9
5
fe
5
3
5
0
fb
f8
6
7
3
7
1
4
fc
5
8
5
ff
2
fb
0
6
fd
5
fe
1
f9
7
fd
fe
fa
1
8
3
fc
1
fd
fa
f9
5
7
6
4
fc
ff
3
0
4
ff
5
2
fe
fb
0
0
fa
ff
ff
6
fa
ff
5
6
7
fe
fa
1
fa
f9
4
fe
0
fe
ff
fd
fc
0
4
5
3
fd
7
fc
fe
ff
fd
fc
2
fe
5
4
3
ff
1
ff
fd
9
1
2
6
fa
fd
fa
fa
5
ff
fc
7
fa
fb
5
fc
ff
4
fc
1
5
fb
8
0
2
fe
2
fd
ff
ff
fe
fe
5
1
fa
7
1
1
3
7
fb
4
0
8
fb
fd
9
f9
fc
6
fe
fa
ff
1
1
5
3
fc
5
fa
6
2
2
2
fe
0
0
7
7
3
fe
ff
4
fe
fd
f8
ff
1
fe
fd
fa
ff
0
fe
fc
fa
ff
5
4
3
6
fe
fb
5
5
fa
fe
4
0
8
5
f9
f9
5
fb
4
3
7
3
fb
3
5
7
2
7
fb
fc
fc
3
fb
fe
2
4
fb
1
fd
1
5
fb
f9
fb
7
0
fd
fc
9
0
f8
ff
7
fb
7
2
fb
5
fc
f9
fe
fc
3
2
fb
3
2
1
fd
f8
fd
5
fd
7
5
ff
5
5
fe
4
fa
fc
fd
5
f9
ff
5
ff
1
3
fa
fa
fe
f9
1
3
6
f8
fa
2
fd
ff
3
5
f9
fe
6
fd
5
fc
fa
fc
fc
0
6
fe
fc
5
fe
f8
3
fd
3
4
ff
4
7
1
f9
6
fe
ff
7
3
fb
fc
fe
7
4
ff
0
3
3
fa
fd
ff
fb
3
fb
7
fe
ff
ff
fd
fe
fc
4
fd
4
5
fc
fd
8
fb
f9
1
fe
0
f9
1
1
f9
4
fc
6
0
ff
2
1
8
8
1
4
3
fd
ff
fa
1
6
fd
fc
fa
0
5
fe
fe
fd
9
ff
fd
fb
2
ff
2
fe
9
6
2
4
fa
2
4
fa
7
f9
fe
5
2
6
fa
1
f8
2
7
6
fc
fd
fb
fc
5
2
ff
5
1
7
5
fa
fd
5
5
fb
fe
fc
fd
4
5
1
fc
ff
2
4
fd
f7
1
0
ff
6
f8
0
fe
fc
8
fe
3
fb
5
6
7
7
ff
fa
f9
4
2
fa
ff
2
6
f8
f9
5
ff
f9
fb
ff
7
7
fc
fd
fa
5
4
3
6
fe
5
2
fa
ff
fb
fd
ff
fc
4
fe
fc
fe
7
5
fe
0
ff
6
4
7
3
f9
fe
fc
0
f9
7
fd
7
2
6
5
5
3
5
3
4
5
6
0
fc
f8
fe
3
1
f8
fb
f9
fa
fc
fe
6
fd
2
1
2
3
1
0
3
fa
ff
3
f9
fb
5
fb
fb
5
f8
fe
fe
5
ff
6
5
fd
fe
5
2
2
fc
fb
0
fb
fb
0
fc
6
fc
f9
ff
6
fa
ff
fd
4
3
5
fe
1
fd
3
fa
0
2
2
fb
fb
3
4
2
2
4
ff
7
3
4
0
fd
4
3
2
5
f9
f8
fb
0
3
fb
fe
0
3
fc
fb
fd
f9
6
fa
4
1
fd
5
0
3
3
4
7
0
f9
1
ff
4
2
fa
fe
fc
fa
2
4
0
3
fa
0
fa
0
fe
fe
6
ff
fe
7
7
7
fd
ff
fa
ff
fd
2
fa
fb
fd
fa
5
fa
7
5
fc
2
ff
fa
4
7
4
5
ff
2
fc
7
fd
2
ff
7
8
9
3
3
6
4
4
ff
fe
ff
5
1
fd
fc
2
fc
0
f9
fd
f8
f8
5
3
7
6
6
fb
fb
0
f9
4
fc
2
fa
7
2
fa
4
fd
fc
ff
f9
6
fd
5
ff
fc
0
0
6
6
2
f7
3
f7
fd
fe
fc
6
f9
fb
5
4
fa
6
2
2
fe
fb
4
7
2
ff
6
2
6
4
2
1
fc
fd
5
3
fa
fe
fd
fc
4
f8
fe
fc
ff
0
ff
7
2
fe
fa
7
5
7
4
f9
fa
4
4
4
fa
fa
fe
3
2
f9
fc
8
f9
5
fd
3
1
fc
3
2
fc
fa
fe
fa
6
fa
fc
1
2
4
f9
f9
2
f8
fd
0
fc
3
f9
ff
fd
fd
fa
6
2
5
fb
f8
fc
fe
fd
4
2
3
1
4
fd
7
ff
fd
5
fb
3
4
8
3
0
f8
6
fd
3
0
4
fd
5
fd
fd
6
0
fb
5
0
fc
3
3
fa
fc
fc
2
fe
fc
1
f7
fd
8
f8
fe
4
fe
fc
f8
ff
5
3
fe
f9
fb
8
7
ff
5
7
6
0
4
5
fc
5
6
1
fc
5
2
f9
fd
4
fd
fc
fa
7
5
f8
fb
2
fc
3
fe
fb
fd
fd
fe
7
fd
5
fc
5
0
0
ff
5
fc
5
fa
fd
7
2
4
5
4
fe
fa
fe
6
2
f7
fa
1
3
1
fe
5
6
5
ff
fb
2
ff
4
fb
0
5
2
fd
6
fb
fe
9
fc
fd
6
0
fe
3
fa
fb
fd
f8
f8
fc
1
fa
4
fc
3
2
5
ff
4
fb
fa
7
f8
2
fc
4
1
fe
7
f9
7
fa
f9
f8
4
fa
fb
4
ff
f9
6
0
6
f7
fd
fc
1
f9
4
3
4
3
0
2
fa
ff
4
1
fe
6
fe
7
1
fa
4
ff
fd
0
3
6
fa
fe
f8
fe
1
fc
fa
ff
f9
fa
fd
ff
3
2
7
4
0
f8
5
ff
1
fb
2
2
f9
3
3
0
fe
7
2
3
fb
4
fc
fe
fd
0
fe
2
3
fc
fe
1
6
ff
fa
0
3
2
fe
fc
7
6
2
fb
fd
fe
7
fe
6
6
fa
2
fc
fd
4
2
0
5
ff
0
5
3
2
2
fa
6
3
fd
fc
1
6
4
0
fc
2
7
fc
7
6
1
fa
1
5
fb
4
8
3
8
ff
fc
0
ff
3
3
fe
1
1
fd
fe
6
fb
ff
1
3
fb
6
fe
fe
1
1
1
4
f9
5
3
7
fb
fa
ff
fe
4
fd
6
1
fc
4
f8
4
fc
0
1
f9
fb
2
1
f8
fe
fb
0
fc
fd
1
6
f8
0
fd
6
3
2
5
7
2
4
fe
ff
fe
f9
7
fd
fd
5
3
6
5
fd
0
fa
2
fa
1
3
5
fa
fa
f9
fd
ff
2
6
4
fc
fd
7
6
ff
ff
8
1
5
fd
6
3
ff
ff
5
7
fb
ff
8
1
3
3
1
fb
4
ff
3
6
7
fb
8
7
0
2
1
7
9
1
7
fc
5
1
3
4
2
fe
2
6
fc
fc
1
fa
5
2
f8
fb
4
1
0
fb
fc
7
2
4
fe
6
3
fa
7
4
1
2
fe
fd
4
fd
ff
fb
7
4
fd
1
fa
fd
ff
ff
2
f9
2
fe
0
6
4
5
fb
ff
ff
f8
4
1
fe
fc
4
7
fd
6
fc
6
fb
fc
f9
4
2
fe
fd
3
fd
1
fb
f9
2
4
ff
0
7
fe
0
fb
6
1
8
fb
3
fc
6
fe
3
2
fd
fe
6
0
5
fc
ff
fb
4
5
6
fc
1
fb
1
1
fb
fa
fd
5
ff
fb
fe
fe
6
8
ff
ff
fb
fe
2
fb
2
3
1
fa
4
ff
2
2
4
8
2
ff
ff
1
3
6
8
fd
0
fa
f9
fe
fd
fd
f9
f9
f9
5
4
fd
1
2
5
7
fb
4
f8
ff
3
1
fe
ff
7
6
1
4
1
3
5
ff
7
1
4
fa
2
fc
3
fa
fd
fa
ff
3
7
fb
fa
fb
5
6
ff
0
fe
7
fe
3
fe
5
fc
7
3
8
fa
3
5
1
4
5
f8
fa
6
f9
fd
f9
f9
0
3
5
1
fd
f9
fb
2
4
fe
1
6
3
f9
3
fe
5
fe
6
fd
fc
5
4
ff
7
3
fa
0
fe
fc
f9
4
ff
fd
7
6
fb
fb
1
5
f9
7
fd
3
ff
4
fe
6
7
fb
6
4
f7
f9
fb
0
ff
0
fe
fc
fe
fe
0
3
2
fe
fd
4
5
fd
6
1
fe
ff
fd
fd
fb
f9
ff
4
fd
fb
fa
6
fe
6
0
f8
fe
2
4
fc
1
8
3
3
3
4
fc
1
fb
1
3
fa
3
fb
fb
3
6
1
fb
ff
3
3
8
3
2
fd
1
1
3
fc
fa
2
fc
fd
5
6
ff
1
fd
fc
fa
0
fc
5
fb
fa
1
fc
6
f9
5
fb
4
1
1
fc
fe
fa
7
0
fe
7
fd
7
6
4
5
2
fa
fb
fb
fc
fc
2
7
f8
0
0
4
fd
0
4
f7
fe
fe
fe
f9
6
1
3
0
1
6
3
fd
0
5
fe
f9
fa
1
ff
fe
fd
6
2
ff
fd
f9
2
3
fc
6
ff
ff
0
f9
0
fc
5
0
fc
fd
5
ff
fb
3
4
fe
2
1
fb
fc
0
5
8
0
2
8
0
7
fc
0
4
0
ff
1
3
fc
0
fa
fa
fb
1
fd
7
4
fb
fe
6
fb
3
ff
ff
4
fe
fb
6
4
2
2
fe
fe
5
fe
fc
1
fa
f9
fc
fe
fa
fe
f9
5
4
fd
3
5
3
fb
fd
f9
4
3
fb
0
fa
fb
2
5
fc
f9
2
fa
ff
3
1
5
5
4
f9
fa
fd
fc
3
fb
ff
f9
4
1
fe
6
1
6
3
1
ff
3
7
2
fd
fb
2
5
fb
2
ff
2
3
7
ff
ff
5
fe
fa
5
ff
fe
8
f9
0
2
1
fe
2
fd
2
6
fa
4
5
fa
1
fb
6
fa
fb
1
fa
fb
fc
fe
1
fa
5
7
fa
3
0
fd
fb
8
ff
4
fd
4
fc
ff
fd
ff
7
fb
ff
fe
fd
fa
1
2
f9
fd
0
2
3
5
fb
fc
2
fe
fa
fc
0
f9
4
2
4
5
0
fb
fe
fc
6
f8
fc
ff
4
fa
2
0
1
fb
fd
3
fe
fd
fc
5
0
fb
fe
3
6
5
3
0
fa
1
2
fe
1
f9
fd
f8
f9
fe
fb
5
5
4
2
2
ff
1
3
fd
2
0
5
5
7
4
f9
2
2
8
fd
4
fa
6
6
f9
8
3
0
ff
fa
ff
f9
fa
fd
0
f9
1
fe
0
3
7
5
2
3
1
4
fe
7
7
fe
fc
6
fc
fb
fa
5
f8
fb
4
fe
2
1
fd
fc
3
2
fb
fc
fd
fa
f9
1
ff
2
fa
6
fa
f9
fa
6
1
7
f9
5
fd
fa
2
1
0
ff
fc
fa
fe
f7
fd
fe
fb
fa
6
fb
fc
5
fc
3
fa
fc
fb
3
7
0
fc
fe
4
1
3
fc
fb
fc
f8
fd
f9
4
3
4
fc
6
fa
f9
3
4
5
fb
f9
fb
fb
6
fb
fa
7
ff
5
fd
fe
fe
f7
0
1
ff
3
4
5
ff
4
fd
fa
6
fa
3
4
3
fc
5
2
fc
4
3
fa
fd
0
fe
fe
8
0
0
6
fa
1
f8
fe
f9
f9
5
5
fc
7
fb
1
fd
8
2
f7
fb
3
4
fa
ff
0
7
fe
f8
4
ff
4
fd
3
fd
4
2
fa
f8
1
ff
3
ff
0
0
ff
fa
2
ff
2
ff
4
fe
fd
fb
f8
fb
f8
4
1
4
ff
fe
6
3
fe
3
fc
f8
fd
ff
8
fd
1
ff
fa
fb
3
fc
fc
3
fd
0
f8
4
0
1
6
fd
fb
0
5
fd
3
1
3
fc
2
0
3
fe
ff
fc
0
fa
1
f7
f9
fc
f9
f9
2
f9
fd
fe
fb
1
8
fb
f8
f8
fb
6
ff
0
ff
5
1
f9
fe
ff
7
0
fa
f6
5
ff
fe
2
fc
fc
7
fc
4
7
fa
6
0
ff
3
fe
8
fa
fc
2
fd
fd
fc
f7
2
3
ff
5
1
ff
0
f9
fb
fc
4
5
1
fd
5
4
2
f9
5
5
0
fe
2
6
3
fa
5
4
6
3
0
4
2
fe
fc
fa
f8
fd
fa
5
fe
7
5
5
ff
fc
fa
1
1
1
fe
fa
2
fe
1
fe
1
5
f9
0
fe
f9
4
6
ff
6
7
0
ff
6
f9
6
f8
f8
f8
4
fd
3
8
8
5
ff
ff
4
fa
5
5
6
ff
fe
0
4
7
5
fa
3
1
0
fa
fe
1
2
6
3
fc
2
0
6
fa
fa
f9
fe
5
1
4
ff
fd
2
fe
0
fc
fc
7
1
1
f9
fa
3
fe
6
fb
ff
ff
2
6
5
5
f8
f9
0
2
fb
fa
fb
f8
fc
0
3
fe
5
fb
0
f7
f9
fc
3
fe
f9
5
5
f9
2
5
0
fb
fd
2
f9
fd
ff
4
5
3
0
4
fa
4
2
5
7
ff
fe
fb
2
5
fe
8
fe
fe
fa
7
f8
0
0
fe
6
ff
5
fd
7
5
fc
6
6
2
1
4
0
2
7
fb
3
3
3
fe
fb
fa
1
f8
1
f8
7
f9
fc
3
fa
fc
fa
5
fe
0
ff
fb
2
4
7
ff
fd
ff
fa
ff
3
0
3
2
fa
6
fb
fb
fa
1
fe
fd
4
f7
f8
ff
fb
4
7
fc
fd
5
f7
4
ff
5
ff
fd
3
5
fc
0
1
5
f9
0
fa
4
fe
fe
2
f9
fa
fa
1
7
0
ff
5
0
3
fa
f6
fe
1
ff
8
1
ff
fa
3
2
fb
fc
fb
fd
2
fa
4
6
fe
5
fd
f8
ff
3
1
6
fe
fc
0
f8
fe
fa
2
1
0
fa
fb
9
1
ff
fe
fc
fa
1
1
fb
fa
2
fb
fb
fd
fe
4
f9
0
fe
3
fc
f9
3
5
0
ff
4
fc
3
4
4
fc
fb
6
3
5
fd
2
fd
f8
f9
2
ff
fe
4
5
3
f8
4
4
2
7
fc
1
3
f8
5
fa
2
4
fd
ff
7
f9
fa
fb
3
fe
fd
fe
1
5
0
fd
8
0
f9
7
1
3
fc
4
ff
fe
fd
fc
5
fd
1
ff
fd
4
4
fc
0
7
4
f9
6
3
5
fd
fa
fa
f9
fd
fd
3
ff
fd
f8
fe
f7
0
6
fd
fb
2
ff
fa
0
fe
6
7
fb
6
ff
ff
7
ff
fa
f9
6
5
fd
fe
3
0
fb
ff
fe
fb
f8
2
6
0
5
7
3
fc
6
fd
fd
7
fd
2
fe
2
1
0
f8
fd
fa
4
4
2
fe
5
2
6
fb
fe
0
6
fd
fc
6
1
fd
1
3
fc
7
1
fe
fd
2
6
fb
ff
4
fd
f8
1
0
4
f9
fc
2
fd
2
3
fb
fd
5
fa
fe
2
fe
0
fc
fc
ff
3
2
4
6
4
2
fd
1
fc
ff
3
fa
fa
1
2
f9
5
7
f8
f9
1
fc
ff
6
4
fd
2
fc
fc
1
2
4
fb
1
fd
fc
2
fe
4
fa
ff
0
7
3
4
fd
4
f8
fe
6
2
4
fc
1
fd
fd
ff
f9
0
7
4
fe
0
fd
2
fb
fd
fe
0
3
4
4
fc
3
fa
fe
fc
4
fc
2
fa
fa
fe
fb
0
0
ff
f9
fa
1
4
ff
fd
3
fc
2
3
6
3
fd
fd
5
7
1
fb
fd
fb
1
0
8
8
fe
fd
fb
5
6
ff
1
2
2
8
3
f8
0
0
fd
fc
fa
fc
6
fe
4
4
fc
8
fa
3
fe
0
fe
fb
8
5
fd
ff
3
ff
2
fb
fd
fa
5
1
fb
fb
fb
0
5
5
fc
fb
1
3
3
f9
ff
ff
0
f9
fc
3
f9
0
6
fb
0
fb
0
fc
7
fa
1
fd
0
0
fd
9
7
4
fa
f9
0
6
6
0
1
fb
f9
2
6
2
4
3
3
7
6
f8
fc
7
0
6
fa
4
3
ff
4
7
2
fe
fb
fb
fa
fe
fa
0
0
fe
4
4
fa
fe
2
fc
2
f7
7
fb
4
6
f7
fe
fa
fb
fb
1
fc
3
f9
6
4
fb
fc
0
6
8
6
0
5
fe
5
fc
fe
7
7
3
0
ff
5
5
fc
fe
fe
3
fc
7
0
1
2
f8
fe
2
6
7
7
fd
8
4
3
fa
fb
fd
3
5
fe
fc
6
f9
f9
2
2
1
f9
0
1
ff
fe
fd
7
6
0
fa
fa
1
fc
f9
fe
7
5
1
fb
5
4
fa
f9
3
4
ff
fe
fd
ff
fa
fb
f8
fb
fb
5
fa
4
6
fc
5
0
6
4
f9
0
fa
5
ff
6
3
2
2
5
7
3
4
3
5
fe
fd
fc
4
0
fd
7
7
f9
fa
fd
7
2
1
fd
1
7
6
4
fd
fe
1
2
0
5
8
fb
6
f9
fd
6
fa
3
2
ff
2
5
0
fc
f8
1
fe
fa
2
fb
2
1
1
fa
fd
fb
1
3
fe
ff
fc
fd
fb
1
1
1
fa
fe
f9
2
fc
fd
7
3
1
fc
8
5
0
fc
4
6
0
3
4
fb
f9
4
3
6
fb
fb
2
0
fc
0
fd
fb
f9
f9
7
1
1
4
2
fa
f8
ff
fe
ff
f9
fd
f9
fa
fe
4
fb
fc
0
1
6
2
5
f9
3
0
8
f9
fb
fc
3
f9
f7
f9
fa
fb
fc
5
fd
6
5
fa
fc
2
3
3
1
4
fd
1
fb
3
fb
2
5
fd
4
1
5
ff
4
ff
3
4
fb
1
4
fc
fb
2
2
3
0
fc
fb
0
fa
1
f9
ff
4
fc
f9
2
3
fc
2
fa
7
fc
2
2
3
4
fa
fa
fb
2
fa
fc
4
6
8
fe
fc
f9
fc
3
3
1
f5
fb
f8
fa
7
1
fd
fb
1
3
7
0
ff
fa
ff
0
1
6
1
2
f9
3
fa
3
fe
fb
fd
1
fc
fc
f9
7
ff
4
fc
fe
3
fc
5
7
fc
fd
6
fa
2
1
5
fa
fa
1
2
2
1
3
fb
0
6
fc
f9
2
6
5
fb
5
5
fb
1
0
2
6
2
5
ff
fd
ff
1
4
fc
ff
6
2
8
4
0
6
fc
f9
5
fa
fe
5
6
6
0
2
7
5
0
fb
fe
fd
fb
f9
5
fb
2
f8
fc
2
4
2
fc
4
0
5
1
6
8
6
0
fa
fc
3
6
3
5
fa
ff
fd
fb
5
fe
f9
fa
3
4
3
4
f9
f9
ff
7
fe
6
f9
6
4
f9
f9
6
7
fc
fa
fe
ff
4
5
4
0
fd
3
f9
3
3
2
fd
4
1
3
fb
0
fa
1
5
2
fa
0
1
0
fc
fb
6
fd
0
fe
5
fe
3
f9
fe
6
7
7
0
4
5
0
fc
0
5
4
fd
6
fc
5
5
fc
2
fa
0
fc
6
3
fa
3
3
0
fa
fe
f9
1
fd
7
fd
2
fd
fc
fa
fd
f8
ff
fc
5
8
6
4
fd
6
8
ff
fe
7
fa
fc
fe
2
0
7
3
fb
3
fa
1
7
5
2
6
ff
fe
fb
8
fd
7
fa
fc
3
5
4
1
4
0
fc
ff
3
fd
4
fb
fa
fd
7
1
5
6
0
8
8
fb
4
6
1
4
2
fb
8
8
fa
6
ff
f9
2
fb
fc
fe
fe
fd
0
4
3
ff
fb
3
5
0
5
fc
fb
2
1
5
6
2
1
5
6
ff
fe
fd
1
6
fe
fa
fa
5
fa
0
f8
f7
fa
fe
3
0
6
fb
2
fb
fa
6
0
fd
1
fe
0
fa
fa
fa
2
fe
f9
3
2
fe
fa
6
fd
4
fd
6
4
3
fe
0
fb
fd
3
fd
fb
fc
4
fc
fd
fe
fc
ff
4
5
ff
5
ff
4
fa
ff
fb
3
3
fb
fc
2
f8
fa
1
0
6
5
0
fb
3
fa
4
1
f9
4
5
7
2
ff
1
fb
7
4
fd
fa
fa
fe
6
3
fc
3
0
ff
fc
6
7
2
2
7
fc
1
9
6
fd
9
0
3
1
f8
0
2
0
fe
0
3
2
ff
4
1
6
fb
2
0
fe
fc
fc
fe
5
fa
3
fc
2
f9
fe
2
1
7
2
ff
6
0
fa
fe
fc
ff
7
3
1
fa
0
2
8
ff
fd
fa
fb
fd
0
fd
fe
fa
5
6
fb
5
fd
fa
6
7
fb
fb
fd
fe
ff
2
fc
3
3
6
fe
8
fc
fd
5
1
1
3
0
ff
3
1
7
fa
3
0
7
0
5
4
6
fb
fc
f8
5
f8
fc
fd
6
f8
f9
3
6
3
2
ff
3
5
3
5
7
fc
f9
f9
2
fa
ff
fc
6
f9
f9
1
7
0
fa
6
fe
3
1
1
6
ff
fd
7
4
ff
5
fb
4
7
7
ff
6
fb
0
fe
3
4
2
3
ff
4
f9
6
fb
fd
f7
f9
f9
0
5
3
fd
f9
fb
f7
fb
fa
f7
fd
fa
fb
f8
fc
1
fb
2
4
5
6
1
ff
0
fa
3
fe
f9
fa
ff
5
0
1
fd
6
7
1
f9
2
fe
fd
fa
f8
f9
2
4
6
fc
fb
2
fc
fd
fb
4
f9
0
1
2
fb
4
fc
5
fc
4
fb
5
ff
0
6
0
fd
f9
fa
ff
ff
fa
fc
fb
1
0
fb
1
fe
fb
6
f9
4
5
4
fe
fd
5
4
ff
5
fa
4
1
3
f8
6
ff
0
5
7
f7
fb
5
5
fd
ff
fc
1
6
fd
6
8
5
fb
fb
fa
fb
fd
fc
9
1
4
fb
fc
fc
fb
7
fd
ff
fb
2
fd
ff
0
fe
fe
fb
fc
ff
1
0
ff
3
4
fe
f9
fe
f8
3
fc
1
ff
fd
4
7
0
0
fb
7
f9
1
3
1
3
fe
5
1
0
6
fd
4
7
fa
fc
fb
f8
fa
fe
fc
f9
fb
fd
fa
fe
f7
fb
fb
fc
1
fd
8
fd
fc
fe
5
fa
fd
3
5
fe
2
0
fe
f9
fa
5
3
fd
f9
8
fa
fa
4
4
0
0
2
fb
4
3
fa
1
1
7
fe
5
3
f8
fb
6
fb
fc
5
6
1
6
3
fc
2
3
6
1
fe
1
f8
3
f9
5
6
6
fd
2
fe
ff
fa
5
4
fa
ff
f8
2
6
6
ff
3
8
0
3
fd
fa
0
5
fa
4
7
fb
fa
2
ff
fb
fc
ff
2
7
fb
4
fb
f9
7
fa
fe
f9
fd
1
ff
0
fb
2
6
fd
3
3
fc
fc
4
2
3
5
8
fc
fe
fe
fe
ff
5
2
2
fc
fb
fa
fe
8
ff
fb
1
5
3
fe
ff
3
fe
3
6
f9
ff
fc
5
fe
0
ff
7
5
4
fe
5
ff
fe
2
4
2
0
1
f9
fe
fe
3
0
fe
fd
fe
fb
f9
fe
fe
3
3
fd
8
0
3
6
fc
ff
1
6
ff
f9
0
ff
5
7
4
4
5
2
0
fa
2
fb
2
fa
6
fd
3
ff
1
1
fe
2
2
7
ff
fa
fb
f9
1
fe
f8
7
fa
6
1
3
f8
7
4
1
5
fd
0
fb
fc
ff
fa
4
5
ff
7
f9
fb
fb
fc
6
fc
ff
fa
2
f9
1
5
fd
fa
0
8
ff
3
6
fd
f8
3
6
2
7
4
0
1
f6
4
6
f8
4
3
7
fe
0
ff
ff
f9
2
fc
f9
0
3
fb
0
fd
fd
5
6
ff
0
f9
0
fc
3
4
fe
0
fa
fe
8
fd
4
fb
7
2
fb
0
3
0
1
4
2
fc
4
7
7
fb
6
ff
7
fc
2
1
6
fb
1
fc
f8
ff
f8
fb
ff
fc
3
0
fd
ff
0
fe
fc
2
3
7
2
5
2
6
fe
3
fa
fa
f8
2
7
fa
3
fe
fb
5
7
fa
ff
8
fc
fa
4
4
f9
fd
5
fd
2
fc
fe
2
f9
0
fe
5
3
fc
ff
5
4
6
4
4
1
1
ff
f8
6
ff
2
fb
6
4
fa
3
ff
fd
fe
6
ff
fe
fe
6
fc
fb
fd
fd
fe
fc
ff
4
6
2
fb
5
f9
fa
5
1
fc
fe
fb
5
7
f9
0
fd
6
f9
1
1
0
fa
5
4
1
2
ff
fa
fb
fe
4
fd
4
7
6
5
1
fe
fe
fc
0
2
fd
0
fc
2
5
fc
0
f9
fe
0
fd
fa
ff
5
5
fa
7
4
5
1
4
fb
fc
8
fb
4
7
f8
1
3
0
ff
1
fb
fa
2
0
f9
1
fd
fa
1
3
fc
0
9
fb
2
2
fd
3
fb
fb
2
1
7
3
5
1
1
5
f9
2
fc
5
2
5
fc
fc
4
ff
fb
8
5
0
ff
fe
fb
5
f9
fc
fb
fc
0
ff
ff
0
fd
f8
4
4
9
4
4
ff
3
6
4
fe
8
fb
8
6
0
fa
1
f8
fe
3
4
3
7
fd
5
1
ff
2
1
f9
5
3
fc
fe
fa
ff
fa
fc
f9
5
fe
2
0
fc
5
6
fd
fb
f7
0
fc
f5
1
fe
f9
5
3
0
5
fa
fe
3
fe
ff
ff
5
1
fd
4
6
2
fe
fc
fe
fd
fc
7
fb
fc
fd
fc
fe
ff
fe
3
6
0
0
3
4
6
3
2
f8
ff
3
f8
2
1
7
fe
3
2
ff
3
ff
6
fb
1
fc
fd
ff
6
0
3
2
3
fa
fd
fe
fc
4
4
0
fd
7
3
3
fe
fe
2
7
ff
2
7
4
8
6
f8
fb
fa
6
fd
5
1
1
3
fe
fc
fb
5
1
f9
4
fb
fe
4
fe
ff
fb
8
5
4
fa
2
1
6
8
f9
7
fd
f8
fd
5
fc
f8
5
fe
5
4
ff
fb
ff
fc
fe
2
4
1
fd
fc
4
4
fa
6
fa
2
5
fc
fa
4
fb
fe
8
1
fa
f9
fb
5
ff
fb
7
fb
6
3
1
ff
f9
fa
0
5
ff
2
0
ff
2
f8
1
3
2
fd
3
fb
0
fb
fd
0
3
3
ff
ff
2
3
1
fc
6
3
fb
5
f9
fd
fc
fb
3
5
5
fa
fe
f9
5
5
ff
f9
0
fb
5
fd
4
fa
fb
0
ff
fb
6
2
ff
7
f8
4
5
fd
f8
fa
3
2
0
5
fa
5
fe
3
fe
f8
3
f8
fb
4
7
3
fa
fd
f9
0
1
0
ff
7
7
fd
7
3
1
fa
0
5
fb
ff
fb
0
3
ff
fe
fa
4
2
3
fa
fd
6
fb
4
0
ff
f9
fb
fe
ff
fb
3
fd
fc
fc
fe
4
5
fe
f9
ff
fd
5
fa
fc
2
fd
fb
5
fd
5
2
ff
2
2
7
fa
7
fd
2
f8
5
ff
2
1
f8
fc
fd
ff
6
2
fd
2
4
1
4
0
8
fa
fc
fa
1
fe
3
2
5
6
5
fa
6
fc
1
4
fd
fb
f9
1
0
f9
ff
8
f9
5
fd
fb
1
fb
6
fa
3
fb
fa
fa
fd
2
2
3
6
0
4
fc
4
2
ff
6
fd
ff
1
6
fa
8
3
fd
fd
9
f9
f9
fc
ff
fa
6
3
0
fa
5
fe
fc
0
fd
4
fa
fb
4
5
fb
fc
fe
f9
fd
ff
2
fd
fe
0
3
5
3
fb
2
fc
ff
f9
1
2
fe
f9
fc
fb
1
3
2
ff
fb
fa
fb
4
7
fe
ff
4
fe
0
fc
7
ff
ff
fb
4
6
0
fa
3
f9
2
8
fa
f9
1
1
fb
fe
fa
fc
0
1
7
ff
fa
1
1
6
4
1
fd
4
0
fd
0
4
0
fd
ff
7
fa
fc
5
2
fd
ff
2
2
f9
4
0
fa
fc
ff
3
f9
3
f9
5
fc
fa
4
fd
7
fe
7
fd
fe
fc
f9
3
fb
4
0
3
5
fd
fa
0
5
5
fd
4
2
4
fe
f9
9
0
ff
0
fb
ff
fa
fc
7
4
7
7
fe
5
1
ff
8
fb
0
4
6
f8
fc
2
2
fb
fd
fc
5
0
2
fa
1
5
fb
4
3
1
2
ff
ff
f8
fa
1
1
fc
fe
1
6
fb
4
1
fa
fe
fb
5
4
4
fa
5
fc
3
4
fb
fb
fe
4
fc
fc
fb
fa
fe
2
f9
0
2
7
6
fe
7
ff
0
0
1
fc
fa
f7
fa
1
ff
ff
2
6
6
3
6
0
fb
0
6
fe
ff
f8
0
8
fd
fa
7
fe
fb
fc
2
ff
2
fd
1
fb
fa
4
2
5
5
4
2
1
9
1
0
7
fa
fe
f9
fd
ff
5
fc
2
9
0
fc
fd
5
fc
fa
fb
fd
6
0
fd
6
2
ff
fd
ff
7
fa
ff
fe
0
6
fe
9
ff
3
6
7
fa
fd
fb
fa
5
6
0
f9
2
2
5
1
6
f9
fb
fc
0
3
fb
fe
3
fc
2
ff
1
ff
fc
fd
4
6
2
fc
5
ff
f9
3
fc
6
9
0
2
4
5
7
5
fb
fa
f8
fd
2
5
3
fe
7
fb
6
3
1
fa
3
6
4
fd
fd
5
f9
6
fd
fa
1
fa
5
6
6
fa
fa
5
fa
7
ff
2
1
8
2
6
4
f8
fe
fe
fc
f7
fa
fe
fe
fa
2
0
2
5
ff
0
6
fb
fc
ff
fc
2
ff
0
2
4
fa
fe
1
f9
2
fc
fb
4
2
5
8
fc
fb
fd
2
1
4
fc
1
4
fa
0
8
fa
ff
4
fd
fc
6
0
f9
0
3
fc
f6
fd
f9
2
3
fc
fb
fe
fe
6
f9
0
fa
1
6
1
1
5
fe
f9
0
fe
7
fa
5
0
fd
6
fb
f9
5
4
ff
ff
7
4
fa
fc
9
5
6
6
7
fe
1
fe
3
3
6
2
f8
2
0
6
5
f9
5
6
fb
1
1
fa
2
ff
fd
fd
5
fc
fa
6
f8
f9
ff
2
fc
0
3
4
4
3
2
4
f9
4
fe
f9
f9
0
ff
7
6
7
ff
fa
fe
2
fb
fa
ff
f8
3
fb
fa
2
6
3
f9
ff
fc
3
6
5
3
4
1
ff
fb
4
6
fa
8
ff
8
6
2
4
7
fd
4
1
0
fa
7
fe
ff
f9
fa
5
6
1
5
0
fd
0
fd
fe
7
fd
fe
0
fa
1
6
1
fd
fc
0
7
8
6
7
fc
8
fb
4
3
0
f9
fe
6
f8
f9
0
4
ff
1
fc
f8
4
fa
fc
5
0
3
4
3
fc
fc
f7
f8
6
6
fe
0
0
ff
1
5
0
fc
fd
6
fa
fe
fb
fd
ff
6
fe
f8
f9
ff
1
f9
fc
4
1
5
6
fd
fd
fe
3
3
4
fc
3
7
fe
f8
5
4
fa
3
4
2
f9
fe
fa
ff
7
fa
5
0
4
fe
1
fa
5
fe
0
4
0
3
3
3
f9
2
f8
2
2
0
f7
fe
ff
2
5
fa
fb
fb
f9
fb
6
6
3
7
f9
2
ff
2
f9
ff
2
0
f8
fb
4
fd
fc
fe
5
2
fc
ff
fe
fb
fd
ff
2
fd
5
3
2
0
fb
fd
fd
ff
fa
5
fb
f9
4
2
5
3
ff
1
6
fc
1
5
3
5
4
fc
5
fd
fb
fe
1
3
2
3
2
8
f9
f9
fe
fb
5
ff
7
2
1
fe
7
ff
4
2
f8
fe
4
fc
4
3
0
2
fb
f8
0
0
2
3
6
ff
6
fc
5
2
1
3
4
fa
7
fb
6
fe
1
fc
6
2
1
6
ff
1
fe
2
5
6
0
f9
fe
fb
fb
fb
7
fe
7
7
f9
5
f7
3
6
fb
3
6
0
fd
6
4
fa
fb
8
3
ff
3
2
fb
ff
7
6
4
2
6
fb
fa
2
fa
ff
7
2
5
ff
ff
1
3
5
f8
2
fe
fe
f8
fc
1
0
fe
5
4
6
2
fb
2
6
fd
fe
4
1
fd
fd
5
6
ff
1
4
0
fd
7
fa
fe
2
3
7
6
3
0
fb
fd
2
fb
6
2
f9
6
2
0
fd
1
fd
4
fe
ff
f8
5
5
fc
6
fd
fd
4
ff
fb
f9
fd
7
2
0
fd
6
fb
fb
fb
6
fe
6
ff
fc
f9
5
0
0
fb
2
1
6
ff
fa
fa
ff
3
fe
2
1
fe
4
6
5
4
ff
fd
7
0
f9
2
f8
2
2
3
0
7
fe
1
5
4
2
fa
6
2
1
2
5
2
4
fd
fd
fa
3
fc
fb
fa
5
4
fe
fd
fa
fd
ff
5
f9
fa
f9
fc
3
ff
2
fe
fc
1
7
fc
fa
fc
fe
fd
fd
fa
1
fd
fa
f9
1
fa
5
fd
4
2
7
fb
6
0
1
f9
fd
ff
fb
5
0
f9
5
0
fd
ff
7
2
f8
fe
4
fc
4
fb
1
fe
fe
0
2
1
6
fb
fd
fb
6
6
2
fd
4
4
fd
fc
fd
fb
f8
fc
fa
3
2
0
ff
2
f9
2
6
1
0
5
fa
f9
0
0
fb
fd
fc
fc
3
fc
6
3
6
0
4
0
0
6
2
fb
fc
3
6
7
3
f9
fa
7
3
fc
5
fa
1
4
1
fc
3
4
fc
1
7
ff
f9
fa
fe
3
fd
fd
f9
0
fd
2
4
f8
2
2
fe
f8
f8
fd
fa
fb
2
ff
f9
fd
fa
5
5
fd
0
4
5
1
f9
fe
1
fe
2
fa
2
2
1
2
fa
fd
4
fb
5
fe
fb
fd
fe
fb
fb
3
fc
1
5
2
7
8
fc
fb
fc
ff
2
7
5
f9
ff
3
0
2
4
ff
1
fc
6
fd
6
fa
fc
1
2
1
fd
2
fb
4
5
fb
f8
3
2
fb
fc
fc
f9
7
fc
7
fd
2
1
ff
2
f9
3
5
fd
3
fa
fd
fa
fe
fe
3
0
0
4
0
7
fb
fc
fb
2
3
ff
fd
1
fd
3
2
ff
4
ff
8
1
fb
fc
2
fa
6
1
fc
fe
4
f9
0
ff
fd
fb
fb
fc
fb
6
fe
7
0
ff
2
f9
fb
4
fa
4
ff
2
fd
2
0
6
2
0
ff
5
2
7
fe
fd
2
fb
0
4
7
fd
fd
1
0
fb
fb
6
2
4
0
8
fa
fe
7
3
fc
fd
f9
f9
fd
f9
5
7
4
5
fe
0
fc
2
fb
fe
0
3
0
fc
fc
2
fd
5
fc
6
0
2
fd
fc
fc
fc
1
fe
fb
1
0
7
fa
3
fc
fa
fb
0
3
8
fd
8
4
f9
fd
fa
7
fd
fd
7
fe
0
fa
3
2
1
fb
3
0
f9
f9
ff
0
f9
fa
6
2
fe
4
fe
4
4
fd
1
ff
2
f9
fa
fe
5
fb
fa
0
6
3
4
f9
fc
fa
fd
fb
fa
f8
2
4
0
fb
6
7
0
2
f8
f9
fa
2
fa
fb
0
3
fc
4
fd
fb
5
4
4
3
3
fe
7
7
fe
3
6
6
3
fe
ff
5
5
fe
4
fe
4
4
0
3
5
4
3
ff
fd
4
4
6
6
ff
fd
6
fe
5
ff
7
9
3
3
fd
8
2
fc
7
6
2
5
ff
fc
fc
2
fc
3
f8
fb
6
7
fa
4
6
fe
7
6
fc
3
4
fc
6
6
2
fc
f9
1
6
3
6
2
6
6
fc
6
2
8
fe
6
9
fc
fd
fa
3
2
0
fc
1
7
ff
f9
0
5
fb
8
f9
0
ff
fa
3
3
6
fc
4
5
0
1
2
5
2
fc
fd
fc
fc
fb
fb
7
fb
1
2
4
4
f8
f9
6
f8
3
fd
fd
4
0
0
6
fc
fa
3
5
f9
6
6
f9
fd
fd
6
5
fc
6
ff
fe
0
fe
3
2
fa
f9
f9
0
fc
fe
fc
6
2
1
2
fb
3
5
fa
0
1
1
fa
2
4
1
f8
4
1
2
fb
fd
1
5
4
6
fd
fb
fb
fc
6
4
3
fa
0
1
1
fd
5
6
7
2
f9
3
fd
4
4
fc
3
ff
ff
fd
fc
f9
5
3
ff
fe
0
7
fe
fd
fb
fd
5
3
f9
2
2
f9
4
5
1
0
2
fe
5
5
2
7
ff
7
fc
7
3
fd
f7
5
f8
fc
1
fa
0
1
fb
fc
4
2
fa
1
fa
4
ff
5
ff
4
fc
1
fc
5
f9
fc
fd
6
0
0
fe
f8
5
f8
1
fc
fa
fb
fe
1
ff
fa
7
8
4
f9
fa
7
fb
1
0
fb
ff
fa
6
f9
6
fc
2
fd
fe
f8
fd
1
1
fc
5
f9
fc
fb
7
8
fc
6
fd
fd
0
6
6
fe
6
1
1
fe
7
ff
fb
fe
fd
0
ff
f9
3
fd
6
1
f9
fe
fe
fe
1
8
fb
f9
6
5
fb
fb
fa
6
ff
fe
f9
fd
fe
ff
3
f9
fa
2
3
3
4
1
fd
4
1
fb
1
f9
2
fe
8
4
fb
4
fd
7
0
fd
0
7
fd
6
ff
1
4
5
1
fb
6
3
8
1
1
2
2
4
8
0
7
ff
fd
7
fc
4
fd
1
fb
fd
8
fd
6
1
6
2
fc
2
ff
2
ff
2
fa
3
2
8
fc
6
7
1
7
2
4
3
6
4
7
5
f8
fc
fe
8
fe
8
7
f7
fa
f8
f8
f9
2
ff
ff
fc
8
5
6
0
0
fe
7
6
fe
fb
3
6
7
fa
fc
1
f9
4
fd
2
fb
4
3
fe
fd
5
fd
4
3
1
fe
fa
fe
5
fe
fa
1
7
fc
fc
1
2
1
5
6
1
ff
6
2
fb
4
f9
fa
8
fe
6
fc
fc
1
fe
f9
5
fd
ff
1
fb
0
fb
8
fa
f9
5
2
5
f9
7
6
fe
fa
fa
fa
2
5
2
1
fe
8
f9
ff
fc
fe
2
5
fd
6
0
0
6
fb
fd
2
6
1
fd
fd
fd
ff
3
fb
0
1
ff
4
4
ff
f9
fe
8
fc
fa
ff
6
2
fb
1
2
fa
6
7
6
7
3
fb
2
fc
fb
2
2
fb
4
0
0
ff
6
fa
fa
fb
7
4
fb
3
fa
2
fa
ff
fe
0
fd
7
4
1
fc
fa
3
3
4
4
3
3
2
fc
f9
6
0
fb
fb
1
fd
1
f8
2
6
f9
5
6
fb
1
1
fe
fe
ff
fe
0
7
fd
7
fb
2
2
fc
fe
9
5
5
6
fd
1
f8
fa
2
ff
5
fd
6
5
ff
fd
f8
3
6
6
fe
fe
fd
fd
7
3
1
3
6
0
fb
1
5
6
fa
1
2
f9
1
fc
0
f8
2
1
2
4
fd
2
0
ff
4
3
ff
5
f8
1
ff
0
7
fd
fe
3
1
6
fa
fa
1
ff
5
4
fa
fc
3
3
2
7
7
fd
fe
fc
3
6
fb
ff
5
fe
4
5
5
1
2
3
f9
fe
ff
0
6
fe
3
fe
2
fb
fb
fa
fe
2
fa
0
2
f9
0
6
fc
1
fc
5
7
5
fa
2
5
0
8
1
7
6
5
fb
fb
fc
fd
4
fe
f9
fb
ff
0
3
0
1
fd
0
fd
4
fb
fc
fe
0
fb
fb
ff
2
1
fe
3
5
6
fe
fe
1
4
3
4
2
8
fc
6
2
6
4
0
fc
2
5
fa
0
fe
6
5
fd
ff
5
1
ff
fc
fb
2
6
fd
1
1
1
fb
1
4
fa
5
fc
2
ff
fe
f9
fb
ff
ff
0
3
4
5
6
fe
1
fe
5
3
fc
fb
f9
ff
fe
fb
7
8
8
f9
5
fd
fc
fd
4
fa
fa
5
4
1
3
fb
fb
2
ff
3
fd
fd
0
1
fc
ff
fe
8
f9
ff
6
5
2
6
7
ff
0
5
0
5
6
ff
2
fa
2
1
7
4
1
1
fa
3
fb
5
8
fc
4
2
fc
5
0
ff
0
4
4
8
fa
6
4
6
fe
7
f9
7
fc
f9
fd
1
4
ff
fe
fe
2
fc
fc
f8
f8
fe
fe
f8
fd
f8
5
fa
6
f9
6
fa
2
8
5
7
4
fc
1
8
fe
ff
fd
5
3
1
f8
fe
fd
f9
fc
fc
2
fa
2
fc
fc
fd
3
fa
7
7
f9
fa
fc
f7
4
fa
f8
3
3
fe
5
0
fe
8
5
ff
fe
fa
1
4
fd
5
5
1
fe
3
fb
3
fd
4
ff
5
0
6
fb
3
5
1
fd
6
ff
1
fb
fc
fe
ff
6
fd
2
fa
2
fc
0
4
1
4
4
fa
0
0
fb
3
fa
3
7
fb
ff
5
0
3
5
5
4
ff
fc
fb
3
f9
fc
fb
5
fe
fa
fe
ff
f9
fd
6
4
6
ff
fa
2
f9
fe
6
6
fd
3
fe
2
ff
5
fb
fd
f9
f9
fa
4
4
4
1
fb
5
4
f7
fa
fe
7
0
6
3
fc
fd
4
6
6
4
2
5
1
6
ff
f8
fa
ff
8
5
fb
fa
3
f8
fa
6
2
fd
5
fa
f8
fb
f7
f7
7
9
0
fb
2
f8
0
fe
fe
2
f9
fa
6
f8
fc
0
fb
6
1
fc
fe
fa
3
1
fc
2
7
0
fb
3
1
3
5
fb
3
fa
fb
7
fa
fc
4
0
ff
fe
fe
fb
3
2
4
2
7
fe
fb
fe
f8
f8
fa
f8
3
1
7
fb
2
fc
fd
0
6
5
fb
f9
f9
4
ff
fd
fc
fc
4
fc
ff
4
fb
fe
3
5
7
7
fe
2
ff
5
fb
fb
3
fb
1
2
1
f9
fc
7
fd
3
fd
2
1
6
ff
6
fb
1
0
fa
fc
fb
f8
fd
fe
fe
2
fa
0
6
6
fb
fc
fd
fd
2
3
6
2
2
2
f9
fe
fd
ff
6
fb
5
8
0
1
7
4
fd
f9
5
1
f9
fe
fa
f9
fb
1
1
fd
2
1
ff
f8
1
fa
fd
7
3
ff
fb
2
3
7
3
ff
2
1
1
0
fe
1
ff
fd
fc
7
0
9
ff
1
6
fa
3
5
5
fa
fc
f7
4
fc
f7
0
fa
5
fb
ff
1
ff
2
6
7
f9
8
7
f9
ff
fc
fb
fd
1
0
3
fa
fe
4
fb
7
3
5
fd
fe
ff
fb
0
fd
0
f9
0
fd
0
f8
fe
fa
4
0
6
2
fc
fc
fd
fa
fe
5
fa
ff
8
3
f9
fd
ff
2
1
3
fc
fb
5
f9
f7
fe
1
fd
fe
6
fc
fc
fd
ff
5
7
fc
fe
fd
3
ff
4
6
0
fc
4
fc
5
0
4
3
3
fd
fe
4
4
f8
3
fd
fd
1
fd
ff
fc
fb
0
ff
1
f9
f7
5
3
0
0
fc
3
4
1
0
6
fd
fd
ff
3
f9
fc
0
f8
fa
3
0
6
0
fa
fb
7
f9
5
2
ff
f8
fd
5
3
6
1
1
1
fb
7
fb
fb
fa
6
ff
4
fd
ff
fb
fa
2
3
fe
fa
5
fa
fc
0
fd
fc
6
3
7
3
4
f9
fd
3
5
f9
4
5
f9
3
fd
f6
3
fc
fd
0
fb
fa
6
fc
0
fb
1
2
1
7
6
ff
1
8
2
1
5
0
6
fd
7
fe
fb
fc
fc
4
fa
3
6
1
7
1
fc
3
6
ff
fd
2
fe
3
fc
fd
6
2
fb
0
f9
fa
fc
fc
1
6
1
2
5
6
fc
fe
2
4
5
fc
fa
fe
5
fc
fe
3
fb
3
fd
fb
fd
3
ff
0
0
ff
2
5
fe
ff
ff
fa
7
ff
2
0
fd
fc
6
fd
fc
1
fb
fe
3
2
ff
2
fa
5
2
fa
3
f9
7
2
fc
1
0
fa
4
fa
8
1
fb
fe
0
fd
fd
3
7
2
fe
fc
fb
ff
3
ff
4
5
2
6
fc
1
8
fb
7
8
f9
fe
fd
0
1
0
fa
f9
6
fc
6
6
f9
ff
6
ff
6
0
2
fa
1
ff
3
5
fa
2
fb
f9
fa
fa
5
1
fc
0
fa
8
7
ff
6
4
6
5
5
5
8
5
0
f8
fc
4
fc
f9
7
6
ff
fb
0
fd
7
4
fe
f9
3
0
3
0
fd
0
3
5
2
4
1
5
fa
0
fb
fa
0
4
4
6
7
2
fc
3
fc
8
fc
5
5
ff
fe
4
2
fe
0
8
0
ff
4
fb
fc
8
9
5
4
6
7
0
0
fb
fd
5
fd
ff
fc
fc
fd
7
1
fb
0
1
fd
fd
fa
fc
fc
f9
ff
4
2
0
f9
2
fe
fb
6
f8
3
fb
fa
3
4
3
8
7
6
8
1
3
2
2
fa
0
1
fd
2
5
fe
3
fb
1
fc
3
fb
f8
2
0
fd
2
6
f9
7
3
fa
fb
fc
f8
0
fe
4
fa
fa
fb
ff
fb
4
5
ff
3
1
fc
fb
fb
4
4
6
f8
fa
ff
f6
fd
6
4
2
f9
f9
3
0
2
5
fb
4
2
fc
fb
3
f9
3
5
5
5
1
fd
5
4
fc
6
fb
fb
6
fa
6
0
2
fe
6
fd
6
fc
4
0
6
fa
fe
ff
1
fb
fc
fa
6
fe
f8
fe
4
4
4
fe
5
1
5
fe
0
1
fb
f9
0
2
4
2
fd
ff
2
7
ff
fc
5
3
3
ff
4
fa
5
fc
f7
5
1
ff
fe
fc
fc
2
1
fb
0
f8
3
fa
5
fd
1
fa
0
5
fb
6
5
1
fb
ff
ff
fb
f9
0
0
ff
3
6
6
6
fa
ff
1
1
fc
3
6
5
f9
fe
6
fc
6
1
7
4
4
3
5
2
f8
0
fa
5
fc
0
2
5
4
fd
fb
2
0
8
0
3
fc
fc
2
7
6
7
fe
8
f9
5
ff
f9
fe
ff
6
3
1
5
f8
2
f7
fe
3
3
fb
0
2
3
fd
0
3
fa
f8
fb
0
fb
1
fc
fe
fe
0
f9
5
f9
fc
0
4
fd
f8
fb
3
4
6
6
f9
fc
0
f8
0
5
0
fc
4
0
0
0
fa
fc
6
6
4
3
fa
f8
3
1
2
5
fc
5
fe
3
6
fe
7
2
fb
f8
fc
f9
0
3
fc
fd
f8
f9
ff
4
fc
4
3
1
0
f8
ff
0
f8
0
f9
4
fa
fd
fb
0
fb
7
fb
8
fa
fa
5
fb
ff
fa
5
2
1
f9
1
3
1
2
5
fb
0
1
ff
7
fc
2
1
2
fa
1
fc
6
7
fd
3
fc
fd
f8
4
fb
4
f9
7
ff
5
f8
3
2
0
3
f9
8
fb
0
fe
fa
4
5
5
0
f9
f9
f8
f9
fc
ff
2
fd
0
fe
f8
5
ff
f8
f8
fb
fd
ff
fc
2
fb
7
5
fa
fc
2
fc
3
6
5
4
f9
fa
7
fb
4
3
5
fd
6
f9
4
f8
1
6
6
fe
f9
3
fb
ff
4
fb
fd
0
5
fd
fb
f9
1
fe
3
2
fe
2
fa
fa
ff
2
3
3
f8
0
fd
6
fa
f8
5
4
2
1
fa
3
fd
fa
ff
2
4
4
fe
fc
fa
0
f8
2
1
2
2
f9
fe
4
1
ff
f8
7
4
6
fb
fb
1
0
3
6
f9
fa
fd
ff
5
4
5
fd
fd
0
4
2
6
5
4
2
fb
5
3
2
fb
1
4
ff
fa
fd
ff
fe
7
ff
1
fd
5
ff
fb
2
ff
fd
fd
fc
3
0
fb
5
5
2
fa
3
fd
fb
fc
3
ff
fc
4
fc
fe
ff
fb
ff
f7
fb
2
ff
0
0
5
0
ff
4
2
fa
4
2
3
f9
9
7
8
fb
fa
0
fc
1
6
fa
0
2
5
fd
6
2
0
ff
4
fb
0
fc
fe
1
2
fc
fa
4
fe
ff
5
3
1
ff
2
f8
fb
fb
3
6
7
1
0
fd
3
fb
fc
0
ff
ff
fb
1
6
fb
6
fc
f6
1
fe
3
5
0
fb
0
f8
0
7
2
2
1
0
3
fa
fd
fa
5
fc
f9
ff
f8
3
0
f9
fe
fd
4
fd
f9
fb
fd
0
fb
6
1
ff
6
6
0
3
4
6
ff
7
fb
7
fc
7
3
6
1
fb
6
fc
4
f9
f9
4
7
fc
fa
3
1
fc
3
f9
6
0
3
4
fa
3
2
6
3
fa
6
3
6
1
fc
fb
2
7
6
3
0
f7
5
ff
3
fa
5
fb
7
fc
5
fa
fa
0
7
ff
6
3
5
1
f9
f9
fd
3
fa
3
fe
fa
fd
fd
2
fc
fe
5
fe
3
fb
ff
2
3
6
4
fd
3
fb
4
5
1
2
fa
4
fb
1
2
4
fb
1
1
2
4
1
f9
3
fc
1
fb
4
3
0
fd
fb
ff
fe
2
0
3
fa
7
2
4
f9
3
3
fb
4
fb
fc
5
1
ff
f9
6
fd
1
ff
fb
fd
fa
ff
6
2
fe
6
fa
1
fa
f9
fc
f9
f9
fd
4
f9
fa
ff
fe
3
fe
2
fe
f8
fc
f9
fe
1
fe
5
2
fe
fb
2
1
fc
f8
fe
f7
fb
fe
fc
fd
4
1
fc
fe
ff
ff
fa
fc
6
fc
fa
7
8
fe
fa
fa
0
fe
fe
5
6
f8
fc
5
5
fd
ff
fb
fb
3
4
fb
ff
4
fb
fa
f9
1
fa
fb
fa
0
5
1
fc
1
0
5
fe
0
fb
ff
2
7
fa
3
ff
2
1
ff
4
fd
fe
1
5
7
f9
f8
f9
fc
fa
1
4
5
3
fd
0
fa
f8
4
2
fb
0
1
1
4
fe
fe
3
fa
8
fc
fd
4
3
fa
0
3
fb
1
ff
fa
fe
fe
fa
1
1
4
1
3
2
fb
fd
1
4
fe
6
3
fc
2
fa
7
fe
f8
ff
3
fc
f9
fd
7
fa
fa
fc
5
ff
fc
ff
5
0
3
fd
fe
fd
fd
8
5
fa
1
fc
5
fc
fe
4
f7
1
6
fa
6
7
1
fc
6
ff
fd
5
fb
fe
fb
4
ff
f8
1
3
ff
fe
4
5
fc
2
1
fa
0
8
6
fc
fb
1
ff
6
2
fe
3
6
f8
fd
f9
fd
1
fb
fc
7
f9
fa
6
0
4
fc
8
7
4
fa
fd
4
fd
2
6
fb
5
ff
f9
fe
2
fb
2
7
4
8
9
2
1
fa
0
f9
f9
0
f9
0
7
fb
fd
0
fc
4
0
6
0
4
3
fc
fb
5
6
8
5
5
fa
4
ff
2
fb
fd
3
fa
fb
1
4
6
3
5
7
6
2
5
3
f9
0
3
4
4
fc
fd
fc
5
fb
fb
f8
3
fa
1
fc
fa
fb
f9
6
0
6
fe
0
6
0
6
4
fe
fc
fa
6
1
7
6
1
f9
6
f8
8
5
fb
fa
5
fb
5
fd
5
5
0
3
6
3
4
fe
3
3
f9
fc
f9
3
3
7
4
4
2
7
fb
fe
fa
fc
0
f9
4
fd
2
fa
1
f9
0
3
fa
fe
1
1
2
fc
ff
fc
fd
f9
fc
1
fe
1
fd
1
fb
fb
fa
fd
2
5
f9
fd
8
f8
6
ff
4
4
0
f9
3
1
f8
ff
ff
fe
fc
fc
fe
7
4
0
0
4
3
4
0
1
fc
fb
5
fe
fc
0
ff
fb
ff
fe
fc
7
0
ff
5
fe
fd
fb
2
fa
1
fd
5
3
fb
2
1
fe
0
2
1
2
1
4
ff
1
f8
0
2
fb
fb
3
2
6
6
7
f9
3
fb
fd
4
7
fe
7
3
1
0
2
0
f9
f9
fe
6
fa
6
2
f8
ff
0
7
7
0
4
fd
5
1
fc
1
ff
4
1
fb
6
fb
fa
4
ff
fe
fa
5
5
6
2
fd
3
fc
fc
fb
f9
3
fa
f9
fe
3
5
2
fb
2
1
2
fb
0
2
1
fa
4
f9
0
fe
5
8
6
fe
fd
ff
0
1
0
3
fa
ff
fe
fc
7
1
0
fa
fc
3
fa
0
fc
0
3
fa
fd
6
f9
6
3
6
7
fd
fa
5
5
f9
ff
7
f9
ff
7
fc
6
4
fd
fb
5
fe
6
fd
1
fd
0
1
fd
0
fd
fd
2
6
8
ff
1
ff
f9
fc
fe
0
3
3
5
1
f9
f9
2
1
3
1
fd
7
fd
fa
4
1
2
4
fd
0
6
ff
fa
7
6
3
0
fe
fb
1
fe
5
5
2
8
fc
4
fd
6
fb
4
ff
4
2
5
f8
0
f9
4
fc
1
fe
2
fb
2
fb
3
fc
0
5
4
fe
fe
f8
2
fb
3
5
8
1
5
fd
5
6
6
3
8
5
fe
4
1
ff
fb
5
f9
fb
7
4
fd
ff
fe
fe
fd
f9
1
fb
4
fc
fe
f9
1
fb
2
f9
1
4
2
6
0
5
6
ff
1
4
fe
fa
ff
ff
2
7
fb
fc
3
fe
3
ff
fb
7
7
0
f9
ff
6
f9
fb
1
fb
4
f9
4
f9
7
0
fd
fc
2
fb
4
fe
fb
fc
3
4
0
7
fa
0
fb
3
0
8
1
8
fd
fa
6
fd
fd
0
fe
3
fa
1
6
8
fb
fa
0
7
6
fd
ff
fd
6
8
fc
ff
2
fe
6
7
8
6
2
fc
fd
fe
1
fd
1
fe
fe
fc
4
0
fc
0
0
fb
1
fc
0
fa
2
1
f8
fc
6
f8
0
7
4
3
3
3
f8
3
f9
fc
f9
5
ff
1
fe
6
ff
6
0
1
2
fd
0
fd
fc
fe
fe
fa
3
3
fd
4
f9
4
2
fd
f9
fc
fc
ff
4
fa
fb
8
7
fb
1
fb
fe
7
ff
5
f9
fb
fd
4
ff
fe
fc
5
3
0
fd
fb
6
0
fa
4
fb
fc
fb
4
4
7
1
5
1
5
fe
fc
fd
6
fd
7
fa
2
fa
fc
0
2
6
fe
fa
f9
fc
0
fc
fc
1
fa
fe
fa
4
0
fb
fa
fc
fa
fc
fe
8
0
ff
fe
4
4
6
fb
fa
fe
6
5
1
6
5
3
fa
5
fa
6
1
5
fc
1
6
0
ff
fd
1
7
fa
fd
f8
5
ff
fe
8
fc
6
0
6
fd
fb
fd
f9
0
fd
1
fe
ff
fc
ff
0
fd
f9
ff
6
fa
6
fc
3
fc
0
1
fe
fc
fc
fd
5
fa
6
fc
1
f9
3
6
f9
4
fa
5
4
0
2
fc
2
f8
fd
0
fe
0
6
ff
f9
0
f9
4
3
f9
4
fc
fa
fd
6
7
fb
6
3
ff
6
fc
8
fb
6
fc
2
fa
6
4
fe
f8
fe
9
5
fc
6
7
fd
1
0
6
4
2
6
fb
fd
7
0
4
7
0
fb
5
fe
1
6
1
fb
f9
7
ff
2
0
fc
5
2
fd
ff
ff
fe
fa
ff
fc
ff
fe
fd
5
2
6
fe
0
fd
fa
4
0
fe
6
5
0
6
fe
7
5
f9
6
2
9
3
fa
f9
1
fa
f9
fd
fe
fc
2
4
5
0
3
fc
fe
5
2
0
fc
fe
fc
fa
0
4
a
7
1
fe
fc
6
fb
fb
ff
ff
5
fb
7
8
fa
7
2
3
f8
f9
5
fe
fd
5
fd
5
f9
0
fb
fb
fe
ff
fe
1
fd
0
fe
fd
6
4
fc
0
5
fb
4
0
5
ff
5
2
fc
3
fa
fd
3
ff
4
3
4
3
5
f9
0
f8
fa
6
0
fa
6
4
4
5
fc
0
5
5
7
fb
fc
fe
fa
fe
fb
6
7
3
ff
4
4
fe
5
fb
4
fe
f9
f8
5
3
4
3
1
5
f9
7
3
0
fb
5
fe
2
0
fc
fd
1
3
2
6
4
fe
fb
5
3
ff
7
fb
5
fc
0
8
4
6
7
1
0
fb
3
4
5
4
ff
ff
f9
fd
fb
0
5
3
0
fb
fa
ff
3
1
f8
fd
4
1
ff
fc
ff
1
fd
3
fa
2
fa
4
5
5
0
6
fa
3
fc
fe
0
3
6
6
1
8
0
3
6
5
ff
4
fa
f9
fa
fe
0
7
fa
fc
7
7
f9
0
3
ff
7
fa
f9
fd
fc
fb
3
ff
0
8
fc
fd
f9
4
6
fa
7
fd
5
1
fc
0
2
fe
0
fb
5
4
fd
fe
f9
3
4
6
7
fe
1
3
fe
f9
1
5
fd
fe
0
2
6
fd
fa
fc
1
6
5
4
3
1
4
4
fd
fb
fc
fb
7
fe
2
7
f9
ff
7
ff
5
3
f9
fe
1
fe
5
6
fe
4
fa
3
2
7
4
3
fa
7
fb
5
fc
3
5
fe
ff
fc
fd
fa
fc
5
fb
3
fa
3
0
4
fd
5
fd
fe
fb
0
fa
2
1
1
fe
0
fb
fb
2
fa
3
fe
ff
3
f8
2
fb
fe
7
0
1
0
1
fc
ff
fc
0
1
5
6
fd
fb
f9
ff
6
fd
fb
fe
0
2
fe
6
7
1
fd
fc
2
4
fe
4
fe
0
2
fb
fa
fc
fb
fb
ff
7
4
fa
6
0
fc
0
fd
0
ff
ff
f7
f9
fc
f9
fb
f7
5
fe
f9
4
1
4
fe
fd
fe
ff
5
5
fb
2
fd
4
fa
1
6
fb
fd
fa
fe
1
f9
0
fc
0
1
fb
6
f9
3
fb
fc
5
ff
0
5
fe
f8
3
3
fc
3
6
fe
3
7
fe
0
5
3
fd
6
6
fe
fb
fc
4
6
ff
7
f8
ff
6
fc
fa
fe
fd
fc
2
0
fe
fc
0
fe
3
fb
fa
fd
6
5
fa
2
fe
5
1
5
3
fc
4
fd
0
2
2
f8
fa
6
5
fb
7
5
9
4
0
fc
fc
f9
0
fc
0
fa
f9
6
f9
f9
fc
2
6
8
2
fc
7
fc
f7
fa
6
f9
4
5
f9
0
ff
6
fd
fb
1
fb
0
6
3
fb
fa
5
fc
fa
fb
2
2
fd
f9
7
f9
6
3
4
f9
3
ff
3
6
fa
f8
5
fe
5
0
fe
5
f7
6
9
7
7
9
3
fa
fe
0
5
4
fe
fc
fc
fc
2
1
ff
3
f9
fe
7
fe
7
fe
ff
f9
f9
3
fc
1
5
7
ff
fc
5
5
0
fc
5
5
3
1
fa
5
fe
5
f9
fa
fa
fb
4
ff
1
ff
5
3
6
2
4
3
2
fb
fd
3
2
4
fa
f9
f9
fb
fc
f7
6
fb
f8
5
fc
5
ff
3
f9
ff
f9
0
fc
fc
fc
fa
1
fe
5
4
f9
6
f9
fc
3
2
fc
fd
0
6
3
ff
fd
5
fe
fc
2
4
f8
0
f8
6
2
fc
4
fe
fb
2
ff
2
3
fd
f8
0
3
8
fc
0
f9
4
fb
2
f9
0
fc
2
3
3
fe
fc
1
fe
ff
1
5
fe
8
3
ff
5
ff
fb
fc
fc
fe
1
7
4
fc
fa
f8
1
fb
3
7
5
3
7
7
0
7
ff
f9
3
1
4
fd
0
ff
1
fb
2
0
0
5
fc
fe
4
ff
fb
3
0
fa
fc
ff
ff
ff
0
fa
fd
7
7
ff
6
6
f9
5
8
5
f8
0
fd
1
f8
0
fb
5
2
5
6
5
ff
5
2
1
fe
4
0
fc
fd
fd
f9
ff
fe
fc
fb
fd
7
2
fa
f8
0
fc
6
7
fa
7
fe
5
8
5
1
fc
fb
f8
1
4
2
ff
ff
1
7
fb
ff
7
3
fe
8
2
f9
fd
0
fa
f8
fd
ff
3
fb
fa
2
7
f9
9
2
3
fb
fc
7
6
f9
2
fa
fc
fb
fa
8
fc
7
8
fc
7
6
2
2
fb
3
fa
fd
0
1
4
fe
fd
fd
f9
fe
fd
fa
2
3
fe
7
f9
7
0
2
7
fc
7
1
ff
fb
0
6
fb
fc
fc
0
f8
fa
f9
3
3
1
fb
5
ff
0
f9
fa
fe
fd
6
fd
fd
1
fe
f8
1
f9
fd
ff
2
2
3
1
4
2
fd
fa
7
fd
fb
1
ff
3
4
f8
fd
3
f9
4
fe
f8
2
0
7
f9
fb
1
2
4
fb
0
1
f9
2
f9
fc
fa
5
2
6
1
fc
4
5
fc
5
3
0
6
0
fe
fa
2
6
fb
5
7
4
8
fa
f9
7
7
4
f8
1
7
0
fb
ff
fc
2
6
7
4
fe
fb
fc
fd
0
4
fc
5
6
5
fd
0
3
fd
fd
5
0
fd
fc
5
fa
fd
fb
1
0
6
fb
3
1
ff
5
1
fd
ff
fa
1
5
fe
4
fc
fa
4
0
fc
6
3
9
1
2
ff
fc
fe
1
fc
7
8
ff
1
f9
3
fe
3
0
fc
ff
5
4
1
0
fa
5
3
7
6
6
f9
fd
3
3
f9
7
fe
5
4
fd
fd
fe
2
3
6
fb
3
0
fe
fc
f9
fa
fd
ff
fa
8
9
fa
fe
ff
fd
ff
fe
7
fb
fa
fd
8
6
fa
fb
ff
fc
fc
3
3
f9
fc
fe
fd
ff
fb
fd
0
4
ff
fc
4
f8
1
3
f9
4
ff
3
fe
fd
4
f9
fd
4
fd
2
7
4
7
7
0
0
3
fc
fc
ff
2
ff
fd
fd
fe
fe
2
6
5
ff
ff
5
3
2
5
fd
fc
6
f9
5
1
0
6
2
5
0
6
5
fb
fc
fe
fe
fe
5
fe
2
fb
7
ff
1
0
fe
1
0
f9
fe
5
f8
6
fd
ff
fb
ff
1
f9
f9
5
fe
3
2
ff
7
fb
8
4
5
fc
fd
fb
6
fa
2
3
1
ff
fd
fb
fe
5
6
1
7
fe
6
3
fb
0
0
ff
fa
2
2
ff
fc
fe
0
6
fe
ff
0
1
4
8
fb
3
ff
7
fc
fc
7
ff
7
8
4
8
5
7
8
fa
ff
fc
ff
fc
fa
6
0
fb
3
1
fb
fb
2
0
fa
3
fa
fb
2
7
fa
0
fb
f9
fe
ff
fb
2
4
ff
5
fd
4
3
5
fd
fb
6
6
4
ff
3
7
6
fa
fb
fd
fb
4
fe
fc
5
fb
fe
4
8
5
3
ff
fd
fb
fd
8
8
4
7
5
0
fb
3
fe
fd
ff
fa
f9
ff
fb
0
1
fb
fa
fd
f8
fc
2
0
fa
3
fa
f9
fd
2
ff
1
1
fa
0
5
fa
6
6
2
fe
ff
0
fb
f9
f8
2
fe
5
5
f9
4
fa
2
5
7
2
4
f8
4
fe
f8
0
6
fb
fc
3
8
4
fc
fc
ff
6
fd
6
fa
fa
fc
2
3
fa
5
5
8
2
2
fe
fb
3
3
3
ff
f7
fb
1
2
fa
2
5
3
fd
7
2
1
fc
fc
1
1
2
fc
fd
fe
fe
1
3
1
ff
fc
5
f8
4
0
5
fd
1
f8
f9
fa
fc
1
fb
2
fd
5
4
5
f9
fb
f9
fb
9
fa
6
fb
f9
ff
fe
2
1
3
fe
fc
fd
fb
6
fc
6
7
ff
fc
3
fd
0
fc
f9
ff
fd
fa
5
5
fe
2
fd
fc
fa
1
f8
fd
7
6
ff
8
fb
f9
fe
fe
fe
6
6
fb
1
5
2
fb
4
f9
5
fb
fd
3
0
fa
0
7
0
f9
3
1
fe
fb
2
fa
7
6
fd
4
ff
fb
7
2
f9
1
fa
fd
fa
fd
0
fb
5
4
0
6
f9
f7
2
3
fb
4
2
fa
4
8
4
5
fb
7
5
4
fd
6
5
fd
fa
6
2
ff
1
f9
fa
fd
fd
5
ff
1
8
fe
1
fb
fc
5
4
6
fe
7
fd
7
6
fe
fa
fc
7
fd
0
7
1
fc
7
fe
1
1
4
fc
ff
ff
6
4
fb
fb
1
fa
0
7
fc
ff
2
3
fe
2
fd
6
fe
4
6
f8
6
f9
fe
fc
3
fd
2
fe
3
7
1
fd
fb
ff
ff
1
f8
ff
8
0
fb
2
f9
2
fb
0
3
0
7
9
fc
fd
fd
3
6
6
fd
fc
3
fa
5
6
ff
3
0
3
0
5
ff
3
0
3
3
fc
fd
1
fa
fb
fa
fb
6
fe
fc
3
f9
3
fe
3
0
f9
fe
1
4
4
fc
fe
5
4
4
6
f9
fd
fc
6
fe
5
3
3
fe
fa
4
3
fd
fa
fa
fa
2
fc
ff
3
5
fa
1
6
5
f9
fa
5
fb
6
4
0
0
fe
3
3
fa
3
6
5
fb
fe
7
4
0
fb
fa
fa
4
0
fd
fd
5
5
5
0
2
fd
0
fd
fd
8
fc
7
6
7
0
8
ff
6
7
3
ff
0
ff
ff
7
fb
1
5
fe
1
5
8
ff
7
fe
fc
5
3
0
6
8
4
fa
2
fe
6
fa
fd
fb
fb
7
6
f9
fb
7
f9
fd
2
f8
0
4
fe
6
0
1
fd
6
0
5
5
f8
fc
0
fd
fc
2
fd
5
f9
ff
fe
ff
fd
5
fa
ff
fb
f9
3
2
fb
ff
7
fc
0
6
fb
1
f8
fd
ff
4
4
ff
f8
7
fd
5
0
3
3
fe
4
fe
fd
8
6
1
ff
3
f9
f7
5
f9
fd
0
3
6
3
4
fc
fa
7
fc
3
f9
3
1
fe
7
4
fb
0
3
7
fa
1
8
7
fb
2
4
3
0
fd
fb
7
1
0
8
fe
fa
2
0
0
fb
fe
6
6
4
8
4
fa
fe
fb
4
2
fc
2
8
6
f9
fb
fd
8
8
3
3
fd
4
4
f8
fa
3
fc
fb
fd
6
fc
fb
fb
fe
fe
ff
6
fb
fc
4
fd
0
fc
f8
f9
5
f9
2
5
fb
7
4
fb
1
2
ff
f9
ff
fc
fd
7
fe
fd
5
fc
5
fb
2
5
3
fc
4
3
fb
2
fe
0
fb
f9
7
5
fb
2
fc
f8
fd
fa
f8
6
6
fe
fe
fa
3
3
fe
6
3
3
7
fe
fb
fb
fb
7
fc
2
4
fa
8
ff
7
fd
fc
0
fa
f9
3
fa
3
fa
fd
1
6
fd
ff
fe
2
2
f8
f8
fe
ff
ff
3
fd
6
ff
3
fc
fe
ff
3
fc
5
fe
4
fd
4
7
fd
fc
fa
fb
1
3
fc
4
fe
4
ff
fc
3
2
f9
5
0
fc
f9
fe
fa
5
3
fe
fd
fc
fc
fa
1
4
fa
3
3
1
3
0
1
0
7
4
4
fc
fb
5
4
fb
1
fd
3
fc
ff
f9
3
1
5
fa
4
f9
1
5
4
4
7
fe
fb
2
1
1
f9
fa
fe
fb
7
5
4
fa
fb
fc
1
fe
ff
5
fd
5
2
fd
f9
fd
fc
fa
f9
2
5
f9
fb
fa
fe
f8
5
2
7
fa
7
fd
fe
fb
fe
fe
fb
fd
ff
f9
fe
5
f9
fd
fe
f8
ff
6
fc
fd
ff
4
3
fb
0
5
0
1
0
5
6
1
fb
2
fe
fd
f9
2
fa
7
f8
7
5
3
fe
2
fe
1
5
5
3
0
0
fe
fd
6
fd
f9
2
1
4
fc
fb
6
fe
4
5
ff
fd
1
2
fd
2
6
fb
fd
fe
4
fa
6
fb
7
8
fe
2
ff
1
fc
2
fc
5
fc
1
fe
1
4
fb
fd
fa
2
fe
ff
f9
fe
5
4
0
5
fb
5
fd
f9
3
3
6
5
3
fd
f9
5
fb
2
2
5
1
7
1
fd
fa
fa
4
4
2
1
f8
fa
fd
1
4
fd
3
6
fe
3
f9
0
3
ff
fd
fb
6
6
fa
fb
ff
fd
1
fb
fd
1
fe
fe
7
7
fd
6
fa
2
5
fc
5
f9
2
fe
fa
5
fa
6
5
ff
2
fc
fc
fa
fe
2
8
3
4
fd
fe
ff
0
fd
fa
4
fd
f9
fa
3
6
8
1
fd
fe
ff
4
ff
6
0
7
1
fa
6
6
5
3
2
0
7
7
fa
2
1
fd
4
0
7
3
fc
5
8
5
fe
3
f9
fc
1
fa
fb
7
f9
f8
fe
3
7
fa
fb
2
2
fb
3
5
fd
ff
1
2
fe
fc
fc
7
8
7
4
fd
fd
fc
fe
f9
7
fc
fa
1
f9
5
fb
fb
2
fe
2
2
fe
fd
6
f9
fa
3
0
fe
4
fa
6
1
6
fc
5
2
ff
6
2
0
f9
7
f9
4
fe
1
6
0
fd
3
4
7
fd
fa
4
1
ff
fc
fa
4
0
f8
fa
ff
ff
fe
1
ff
6
fe
3
1
fc
f9
fc
3
7
0
fb
3
5
2
fb
fe
1
6
4
2
3
1
0
5
1
7
0
1
1
fd
fe
f8
3
6
0
1
ff
5
0
4
ff
0
fc
f9
3
2
fc
fb
2
1
0
3
fe
fd
fa
7
f8
7
5
fa
6
7
fa
1
6
f9
f8
3
f8
3
f9
4
5
6
fb
f9
5
7
0
fe
fa
fe
3
0
fa
fd
1
3
6
ff
f9
f9
6
4
7
fc
f9
6
fc
0
fe
8
1
ff
7
ff
2
7
fd
fb
fe
6
3
fe
3
0
3
fd
5
fc
1
3
5
0
fa
6
fe
3
1
5
5
fc
fc
4
0
4
fb
fc
3
fd
0
5
ff
fe
ff
fc
3
0
5
5
2
fb
4
0
6
6
1
6
5
0
fb
5
2
fd
ff
2
7
8
1
f9
fb
3
f8
3
1
5
f9
0
fd
1
7
6
fd
6
f7
4
5
3
2
5
4
7
7
8
4
fe
4
fe
f9
f9
fa
ff
2
2
fe
0
f9
3
1
fa
4
fd
f9
2
7
fc
fc
f9
0
fd
f9
1
fc
5
fd
6
6
fa
fd
7
f8
5
6
f9
5
0
0
2
1
4
4
1
fe
0
fb
fb
2
1
4
fd
3
f8
1
2
7
2
0
5
fb
f9
fd
7
6
7
f9
fe
1
1
fc
3
fb
0
0
1
3
fc
3
fc
fb
3
fd
1
7
3
6
4
fd
2
5
fe
ff
fe
4
fa
fa
6
ff
8
fe
7
fc
ff
fd
2
fe
fb
5
0
f8
0
fa
0
fd
4
3
1
fc
1
fb
ff
fb
2
fe
fd
ff
2
0
fc
4
4
5
fa
fb
0
ff
f9
5
fd
fd
fe
fe
4
ff
fd
5
fa
1
6
fc
7
6
fc
f9
fd
fa
0
4
5
fd
fc
4
fc
5
ff
4
3
5
4
4
fd
fe
1
6
fe
2
fc
1
fa
0
fa
0
6
ff
f9
fd
2
3
fa
3
3
fe
fd
f9
fe
fa
0
1
fc
ff
f7
0
fe
1
3
6
1
2
ff
f8
fd
fc
8
fc
2
7
fd
fb
5
fd
6
0
fe
fc
f9
fa
3
3
4
6
2
fd
fc
2
2
ff
fb
7
fb
fc
f8
4
fd
fa
5
fa
2
1
fc
8
fb
3
fd
7
3
0
fd
2
7
8
ff
f9
7
2
fb
fb
fd
1
fd
0
fd
fd
4
fc
f9
f9
fc
fd
fc
ff
fd
2
1
f9
f8
2
fc
fe
0
6
fb
fa
f8
0
3
fb
fb
5
6
3
f8
7
0
3
3
5
1
1
fe
5
fe
4
f9
f7
fb
4
fe
0
3
6
fa
fc
8
ff
f9
5
6
3
1
7
7
2
0
fa
fb
5
1
7
fa
f9
fd
fe
0
7
fa
f9
fa
fb
fa
5
f9
8
3
3
fe
1
ff
fe
f9
7
2
fe
fb
1
f9
fa
2
fc
fc
4
fa
fc
ff
0
ff
fd
6
8
fb
6
5
fa
4
1
ff
5
fd
fd
5
6
fd
fb
4
fb
fe
5
4
2
fe
6
fd
f9
ff
f9
fc
3
fa
0
1
fa
3
fb
fa
f8
0
ff
f9
ff
1
f8
ff
4
6
3
7
fe
6
5
fa
2
5
5
5
fe
fb
2
1
1
1
fe
6
fc
4
f8
5
4
fa
3
ff
5
1
4
6
fd
3
3
4
fc
3
fb
4
2
3
1
ff
0
2
4
6
fd
fb
ff
1
fa
8
5
f8
fb
5
fc
8
fb
fc
2
7
f8
5
1
fc
1
7
fb
5
fc
fa
fa
ff
fd
2
ff
fc
fb
2
ff
4
0
7
fc
fd
6
fc
fd
2
fa
4
fe
ff
fe
3
5
ff
fa
6
fc
fd
fb
6
3
0
7
5
4
5
fb
f9
6
f9
1
5
0
ff
f9
fa
fe
fa
fb
1
ff
5
2
6
1
fa
fd
0
7
4
fc
fa
4
f9
5
5
fd
5
ff
7
2
fd
fe
1
2
fd
6
fa
8
8
8
2
6
1
2
fa
fc
7
ff
ff
1
ff
fa
fe
fb
fb
fe
2
8
fb
7
fd
ff
6
3
6
fa
3
0
2
fa
6
fd
6
fc
ff
fa
fe
7
8
3
fc
f9
f9
4
3
4
fe
fb
2
fa
3
5
1
fd
1
fc
4
3
0
ff
1
2
7
fc
fc
fb
fe
fa
2
fd
1
fd
2
3
fa
1
ff
f7
fa
fe
f7
fe
8
4
5
5
ff
fa
fe
6
6
fc
fb
6
fc
fb
5
fd
8
6
6
1
fe
1
fd
fb
fa
5
4
fa
fb
fd
1
fb
fd
fc
fd
ff
f9
ff
ff
ff
5
ff
fc
9
fb
fe
ff
ff
fa
f8
fa
1
fb
2
fd
2
5
fb
3
fd
6
fe
0
fb
fd
0
fc
fd
5
fc
f9
7
fe
5
fd
fa
fc
3
fe
fb
1
2
7
7
1
ff
ff
2
0
7
1
fd
7
fa
6
7
2
ff
7
4
fe
fa
2
fa
fa
fe
f8
4
fa
4
ff
6
fd
fb
fd
3
fe
ff
fc
fe
6
fe
fb
fa
1
5
3
fa
0
3
fe
1
fb
1
5
ff
0
fe
fe
4
6
ff
ff
4
ff
f9
5
4
fb
fc
6
3
5
fb
5
4
fe
fe
ff
6
2
7
7
1
5
fc
2
1
7
fa
fc
4
ff
fe
4
fd
2
fa
3
fa
0
fc
7
0
f8
6
fe
fc
5
6
2
4
0
6
4
3
3
3
2
5
5
5
fa
2
7
fa
4
fe
fe
fe
5
ff
8
fd
fd
f8
2
fa
fa
7
4
fe
4
5
fd
2
f8
0
fe
2
2
ff
fd
fc
4
f9
5
f9
1
3
8
fc
7
0
fb
6
7
1
4
2
fb
fc
fe
fa
3
ff
2
0
fe
6
6
6
5
1
fe
3
fa
5
2
fb
0
fc
1
fd
8
1
4
fe
fb
4
ff
4
fc
fe
fa
5
2
6
3
0
1
1
fe
fa
fb
fd
ff
4
2
8
5
fb
7
fb
6
f9
fb
2
7
6
fa
5
fd
ff
8
ff
fe
fe
ff
fd
fb
4
2
6
7
5
fb
3
5
fb
7
fe
1
ff
4
6
4
5
6
fa
ff
6
1
8
4
fb
f9
3
5
fa
fe
fe
6
8
fc
0
fc
1
4
3
ff
fd
3
ff
5
6
4
fc
ff
3
fb
5
fb
fe
fe
3
fc
5
f9
2
4
fd
fc
1
6
ff
7
0
f9
fb
3
1
0
4
4
5
0
f9
5
5
fc
1
3
2
fa
fc
5
8
4
7
fc
2
f9
fe
1
fd
6
6
3
fc
fb
f7
1
fe
ff
7
6
fe
0
ff
ff
fc
7
7
fd
4
1
fc
1
6
6
5
fb
f9
fb
5
5
fd
0
2
f8
6
fd
fd
5
5
ff
fb
1
1
fd
2
5
f7
1
fc
2
4
fa
5
fd
f9
5
4
3
7
fd
0
ff
6
fe
3
5
fb
5
fb
fc
4
8
2
fb
fd
fa
fa
fc
1
fe
1
fd
2
1
fc
fd
fe
fb
fc
6
0
5
5
0
fd
fe
1
fd
fc
fd
0
0
fb
3
6
8
fd
fa
f9
fd
fa
4
0
5
6
7
ff
3
f7
ff
8
4
fe
1
1
4
3
fa
1
7
ff
fd
2
fe
fc
fe
f9
2
fd
5
fb
7
ff
fd
0
fb
fa
2
0
5
fc
6
f8
fe
4
0
fa
ff
fa
fc
5
3
1
fe
ff
fe
ff
fe
fb
2
ff
2
ff
fc
7
1
fc
fe
fc
fe
fa
fe
fe
f8
1
7
4
1
fc
fa
fe
0
2
7
ff
fc
fc
fe
f9
3
1
2
1
0
5
7
ff
0
fe
f8
2
5
fc
6
f9
fe
2
1
fa
fd
ff
3
7
fa
4
4
fc
fb
0
f9
7
7
6
3
8
fd
fd
3
fd
0
ff
f9
1
6
3
4
5
5
5
1
fc
f8
3
5
fd
5
fb
fe
3
6
5
3
fe
0
1
f9
6
fb
1
8
1
1
1
5
ff
0
4
fa
1
5
fd
f8
fa
fa
0
fe
f9
fb
7
fa
8
fa
3
2
0
4
fd
1
fc
0
fc
7
4
f9
3
fa
f9
fb
4
8
ff
fa
ff
fa
ff
1
2
6
fb
fc
ff
2
fa
fb
3
4
f9
fb
fa
fc
fe
0
fb
1
7
fb
3
fe
5
ff
4
5
fe
fe
0
7
ff
fe
7
fd
6
0
fc
4
6
4
3
8
f9
5
3
2
0
fa
fe
4
2
6
f9
fa
5
fd
3
fb
3
8
4
fe
fd
fc
ff
f9
8
fb
0
8
6
6
f9
1
f9
fd
fc
3
5
fc
fe
fa
f9
0
fb
fa
fe
fb
fc
2
4
fb
ff
fe
7
5
4
ff
7
f9
f9
fa
ff
fd
f9
fe
3
3
3
fa
0
ff
ff
4
3
4
fc
2
ff
1
7
ff
fb
fe
5
2
fb
ff
ff
2
f9
3
ff
7
fe
1
2
fe
ff
7
5
1
1
ff
ff
1
fe
fb
f8
4
7
2
2
7
2
5
7
ff
fe
5
1
ff
fb
fc
1
7
1
5
2
5
fd
fe
f8
4
fe
ff
fc
3
7
4
fd
8
0
fd
3
7
1
3
6
4
fe
1
f9
7
4
fa
fb
ff
fc
1
f9
fc
fa
fd
fa
4
1
2
7
fd
0
7
5
3
6
fc
ff
0
7
fe
f8
2
1
fd
fa
fa
7
fc
5
0
0
fd
fc
ff
fd
7
fb
fd
0
3
fa
fc
4
4
fd
5
ff
0
7
fc
7
0
fc
3
fc
4
fe
8
fa
fa
4
4
8
fe
0
fa
7
0
ff
4
fa
2
f8
fa
2
4
fe
f9
fd
2
f8
f9
2
f9
7
fe
4
8
fb
fc
fd
8
4
5
fe
1
ff
0
f9
fc
5
fc
0
fc
1
4
fe
fd
ff
5
3
fa
fc
fb
fa
6
7
fe
fb
6
ff
fd
1
5
ff
6
2
6
1
5
4
fa
fa
2
0
fd
fc
0
1
0
3
fe
fc
6
ff
0
fd
2
fb
f9
3
f9
fc
f9
4
fa
ff
3
fc
fa
fd
fa
2
6
4
0
8
f9
fd
5
1
f9
0
ff
2
6
2
7
ff
1
1
1
3
1
fb
0
4
6
fd
fd
ff
4
fc
fb
f9
fb
fa
0
4
f9
fa
5
fd
fd
fb
3
5
fa
fb
3
fe
fe
fe
6
7
7
2
fe
3
1
8
6
fc
6
0
fb
fd
fb
6
4
fe
0
5
fb
4
2
fa
5
ff
ff
fb
0
f8
1
fd
0
fa
1
fa
fb
1
1
fe
fd
0
fc
2
ff
ff
0
fa
f9
fa
f9
ff
fa
4
4
fa
fc
0
ff
1
fc
fa
1
f9
1
1
f9
fc
1
3
fd
7
1
6
fd
fd
0
8
2
8
4
0
5
fa
fd
fe
ff
8
7
fa
fa
f9
f9
f9
fa
ff
fc
fb
ff
ff
3
2
1
fd
4
fe
6
4
2
ff
f8
7
6
fe
7
2
3
4
fe
3
1
f9
ff
f9
0
fe
4
fb
fa
6
fc
2
5
f8
6
fe
5
ff
fb
3
4
fa
7
fe
1
1
fa
5
f8
5
fb
0
1
fd
1
3
4
ff
1
fd
6
fc
fe
2
3
fb
7
7
fa
7
fb
f8
ff
f9
2
3
2
f9
5
fa
5
3
6
fa
ff
fe
fc
fc
fa
fb
6
ff
fc
4
2
f8
2
fe
fe
4
1
3
fa
5
5
fd
3
fb
fd
fb
fa
1
f9
6
5
fe
6
0
fb
fe
fb
4
2
4
fd
0
fd
fa
1
8
6
5
f8
fa
7
3
fd
0
6
fc
fd
ff
6
f8
fe
4
fb
8
fa
fb
1
7
f9
f9
7
f7
f8
2
f8
fd
fc
1
5
fc
5
6
fd
3
7
5
fe
fa
fd
fd
fe
fe
fa
fb
1
5
3
0
fb
fb
0
1
1
6
fb
fd
3
fc
4
f9
f9
5
f8
3
6
f8
fc
1
1
4
f9
f9
4
ff
fc
f9
fb
1
0
3
1
2
5
4
fc
0
2
f9
2
fb
2
6
4
8
4
f8
2
3
6
ff
2
4
f9
7
fe
f9
2
5
fb
1
fe
0
4
ff
2
0
f7
ff
fa
6
3
fe
6
f9
fd
fd
fc
5
fe
2
4
fc
0
7
7
3
fc
fc
3
f9
1
2
3
f7
5
0
fd
ff
0
fd
fb
fb
6
fa
fd
fb
3
fa
f9
5
0
0
fe
fa
ff
3
4
fa
fc
6
4
fb
4
5
0
4
f9
fc
fb
fc
1
0
0
ff
fd
fc
5
6
ff
f9
fb
0
0
3
fd
2
f9
fe
f9
fa
5
7
ff
7
ff
f9
0
f7
fe
0
fb
fe
5
2
1
f9
7
ff
4
fb
5
7
8
fc
7
fe
fe
6
3
fb
4
8
ff
6
2
3
f9
4
0
fa
fc
1
fa
fd
1
fe
3
5
0
fd
2
fd
0
fa
1
fd
fd
f9
fa
fe
f7
fc
3
f9
f8
f9
fa
0
2
1
3
fa
fa
5
ff
f8
fb
ff
0
4
fa
5
fa
3
4
fb
6
7
5
fa
4
7
4
fe
0
fe
fb
4
4
fb
fa
ff
fe
4
5
3
f9
fe
f9
3
fe
2
1
fc
fe
fe
0
fa
0
1
fc
1
2
fc
1
fe
3
fa
fc
fa
fb
fa
0
fb
2
3
ff
5
8
6
fb
fe
0
7
fe
3
fa
2
4
5
2
fe
fd
ff
f8
ff
f9
fc
5
1
5
fc
2
0
fb
7
3
5
1
6
f9
ff
7
f9
5
ff
5
0
ff
1
fc
fb
6
6
fc
3
6
fe
3
3
6
2
fd
0
ff
7
1
fc
0
3
1
4
0
2
4
4
fe
8
fd
0
0
fd
8
1
4
f9
6
f9
fe
fd
1
fa
7
3
0
fe
fd
fd
1
5
fd
