fd
f4
f5
ff
2
8
7
f8
f8
f6
4
2
ff
ff
8
b
f4
ff
f1
4
fb
f6
11
f9
6
1
d
5
5
fc
fd
d
7
ff
0
f7
10
f9
2
ff
c
c
f1
a
d
5
0
4
f5
fa
ff
f5
8
f
f
d
e
f1
fa
f9
d
7
fa
ff
f7
fc
f6
2
fd
9
f0
fc
0
f1
f6
fe
ff
fa
fb
f4
f4
a
c
8
f6
6
f7
d
fc
f6
f2
a
ff
0
10
7
fb
10
f0
6
a
fb
f6
b
9
f7
f4
f5
fe
f6
d
f9
f2
0
10
2
f2
f5
a
fa
f6
f9
fe
f8
f1
f5
f6
10
9
a
3
6
fd
f7
fb
f8
7
f2
2
9
f6
fc
f3
8
f
f2
2
d
f2
8
fb
e
9
2
d
7
9
4
ff
ff
b
f4
f7
f4
10
2
6
f1
1
f0
1
f2
fc
7
10
e
ff
a
fc
fb
f1
f9
5
4
ff
a
4
fc
fc
e
f2
9
fa
f9
8
fd
fb
6
f1
2
c
a
f2
3
f2
2
a
f2
ff
0
b
2
f8
d
f7
f3
f
f5
d
5
4
3
fe
f9
c
f4
f2
f9
0
fc
3
7
f
f6
9
9
f6
d
8
fa
a
11
7
ef
b
f1
fb
b
d
fd
9
5
8
ff
fd
f3
ff
7
f9
0
c
ff
5
8
f1
f3
f5
6
f2
12
5
f2
f4
f2
f
2
ee
f2
3
c
6
b
3
1
ec
f7
f6
f2
9
f4
f0
f2
ef
fa
b
9
fb
f9
fa
6
fa
f7
fc
f3
fb
8
fb
f4
fe
8
f3
fa
d
a
7
5
6
10
f8
c
7
fd
f3
8
5
fb
f6
0
2
f5
0
f6
10
9
fe
6
9
b
b
f2
ff
8
fa
fa
f2
3
fb
6
fc
c
f9
8
ff
f3
fb
b
f0
f0
fb
f7
f9
f3
fc
6
f1
2
fe
1
f3
fa
ff
f6
3
7
c
e
3
f5
3
9
fe
c
f9
8
8
f4
1
fa
f2
7
d
ff
0
f8
fc
4
f7
a
fc
f4
c
6
1
fd
9
5
f9
d
f1
fe
2
f2
fd
6
1
f9
9
f3
fd
fb
f7
f6
f6
f9
0
b
c
0
4
f7
fc
f6
a
f6
b
3
f1
f8
0
f1
fc
3
fc
5
8
b
f3
7
6
2
2
fd
0
fe
f7
a
e
a
d
f8
fe
a
a
fd
fb
8
d
fd
8
f2
0
4
ef
7
5
fe
ef
b
fd
f9
f6
f2
11
d
8
f6
f0
fe
3
d
d
c
f8
fe
f4
a
f9
9
f8
f7
b
f2
e
0
9
f0
fb
fb
1
f
e
4
0
fd
5
c
fa
0
fc
fd
f9
f6
fa
f7
a
1
4
b
f3
7
4
0
f1
f5
5
f6
f4
f6
a
f7
9
4
e
1
f0
2
1
8
5
7
f8
fe
fb
a
f4
f2
2
f9
7
5
c
4
c
f6
f
f4
6
fc
a
f1
f3
1
3
3
ff
ff
f9
f6
c
d
b
6
f7
e
4
f1
f3
3
fe
f5
9
d
3
1
9
4
fe
7
2
ff
f3
f
f6
4
4
a
fa
f9
f3
f7
8
f6
b
f2
f4
fd
4
ef
4
f5
3
fb
f6
8
f3
c
f8
1
4
9
8
f1
6
f8
f0
f1
1
f9
3
f5
f6
11
f5
6
fb
9
8
fb
10
1
f5
f9
f
fc
f2
ff
f
8
f0
f3
f2
0
fd
9
4
f6
8
ff
6
fb
c
fd
8
a
f
fd
7
5
f6
f5
7
8
f9
3
f7
fb
2
7
2
f8
f2
fd
ff
a
fc
f1
f4
4
0
b
f1
f4
f4
a
f8
fe
f9
f2
fb
f4
fb
f8
7
2
f9
f2
f
fd
e
b
f6
fa
fb
5
fe
f2
f1
f1
0
ff
f4
fd
d
8
f4
f5
f8
f0
5
8
5
f5
f3
c
f7
8
9
8
fe
f5
f2
fe
ff
11
f0
f5
d
f6
3
f3
f5
d
f9
e
fc
4
9
fb
e
f2
8
2
fe
fe
f7
3
fe
f7
3
f2
b
d
f
7
f4
f8
f
5
fd
7
a
b
fc
10
f8
6
f1
fc
e
f7
f6
0
f9
4
c
ff
10
f7
4
f6
5
f7
fa
f
e
6
fd
f
5
7
f8
e
f
8
fd
5
f1
4
1
5
0
ff
c
fd
ff
f1
f1
b
f0
fd
8
f3
c
f1
fd
fb
fd
3
7
f6
fd
fd
f6
3
8
5
f5
9
f3
fa
a
9
f7
d
ff
7
c
f6
fa
6
2
ef
f9
2
0
fd
10
6
3
f2
9
d
5
1
f5
3
fe
1
2
d
10
2
f6
a
fd
4
f3
f4
fb
f4
5
c
0
e
f0
fa
e
fc
f7
f6
8
1
fc
fc
fb
2
fe
fb
f7
f4
fa
f3
f2
fa
f2
f0
f2
5
c
fb
f1
f2
fe
e
ff
fa
9
3
0
f6
3
f0
fe
fd
f5
7
5
8
c
9
f8
a
e
f4
a
e
f4
a
f5
f1
f
5
1
f9
fc
fc
b
f2
f5
7
fd
f6
f1
3
d
f7
2
5
9
9
0
10
fb
2
fc
f9
f6
0
f9
b
fb
f1
f
0
8
f6
ff
f8
a
3
f5
8
f2
10
f5
f
f6
fa
a
0
e
8
10
f2
fb
0
f5
f5
b
f9
f2
10
1
9
