e
fc
f6
f2
fb
7
5
f7
a
fd
f8
fa
9
f9
2
f8
8
fa
f3
ff
ff
3
fb
f1
f0
6
0
3
8
8
fa
5
a
0
f4
f9
f0
f9
f6
e
f2
0
f2
fa
f9
b
fa
f4
fe
f4
fa
f8
f5
d
fe
f7
fd
f5
4
fd
fc
9
2
0
f7
4
f5
9
f7
fa
7
1
fe
6
ff
c
c
2
9
d
fa
7
7
f8
fa
3
f5
b
9
7
10
f8
1
fe
f1
6
f2
f1
fe
e
f7
5
b
a
6
f8
fa
fd
3
f
0
6
3
fc
d
f2
ff
1
9
fc
d
f8
f7
2
3
f9
f7
f9
f6
5
0
9
b
c
4
f6
fc
0
f1
fe
e
3
2
1
8
f3
f8
f4
f4
f4
fc
f5
f3
3
f
4
f
5
fb
fb
2
5
3
9
a
f8
d
f0
a
f5
8
f2
10
fa
d
f6
fc
0
f
d
6
6
b
fe
ff
7
f9
9
fe
5
f2
d
f6
f3
fd
fc
fd
f3
c
fb
4
10
fc
6
3
10
0
d
5
1
7
6
5
c
9
fb
b
9
f0
d
f1
f6
f6
c
f4
2
8
c
8
0
ff
a
f6
f4
f3
fb
d
ff
9
fc
ff
f0
6
1
4
5
fc
fd
6
b
e
f9
fa
f
fb
f7
f3
7
ff
f6
f3
7
f
2
6
4
3
f
8
fa
f3
f1
4
f3
b
fc
7
f6
f6
d
f5
f1
ff
f7
0
7
f8
f9
1
f5
5
0
fd
5
5
fa
1
f8
5
fb
f
f1
a
3
fb
fd
f4
3
a
fc
0
f1
d
fb
6
0
1
b
d
f4
d
f7
f6
c
f9
fe
6
f1
fd
fd
7
3
f3
5
f
f7
e
2
a
fc
f5
2
f2
f8
3
f8
fa
fc
0
f6
9
f8
0
12
10
f
1
a
fd
b
4
e
2
9
b
f1
2
0
6
9
f5
f3
7
a
fe
fa
8
fc
f3
f
f1
ff
d
fc
ff
fc
f5
0
a
f5
fd
1
f2
f3
f
b
fb
f7
3
ff
fb
f3
f7
f8
6
0
fd
5
ff
4
f2
2
8
4
f3
f7
f3
fa
fb
f2
f5
7
d
b
f2
9
f9
f
f1
b
e
f3
f1
2
f5
f9
8
8
b
6
8
f4
d
ff
2
1
6
0
4
f7
d
2
fa
1
c
f8
0
a
fa
f5
6
3
b
f7
b
d
f
f
1
f6
10
4
d
4
11
f0
f9
f2
5
11
0
3
f7
f1
0
3
1
f6
fd
f7
1
fc
c
fa
fa
5
e
e
ff
ef
f
8
0
7
4
fb
f8
fd
9
7
9
ef
f5
fc
f7
f6
10
4
fb
9
f2
11
e
2
3
fd
c
2
fe
7
f9
f8
f4
d
1
c
f8
6
b
c
9
6
f
5
d
8
f9
f2
fe
1
f6
fc
4
d
9
fc
1
fd
f4
f8
1
fb
d
f7
3
fd
f9
11
f0
f5
f6
fe
3
f
f4
b
e
f5
d
3
b
5
fa
f1
4
f0
f2
4
8
f0
3
f7
fd
9
9
d
f2
fd
2
f9
f3
b
c
f7
5
fe
fa
f2
9
fd
a
f7
f7
9
f2
9
c
0
f6
a
fe
6
7
5
fe
f3
fc
1
a
a
fb
9
5
2
f9
6
b
f6
b
f2
1
f7
1
7
f1
5
f1
c
c
f7
fa
d
2
f0
c
f
0
f8
f0
f8
f4
3
1
5
fc
f9
ff
f4
4
0
2
f
f
ef
3
f9
f1
f8
fe
f5
9
f0
3
fa
1
1
b
f7
fe
e
f1
4
9
f3
f3
fe
c
f3
d
d
f7
9
f6
7
6
a
1
2
3
a
e
fb
fc
fe
6
fb
9
fe
fa
ff
ff
4
ff
f1
fa
f5
10
3
8
1
f4
8
9
7
f7
3
d
2
5
fa
f2
f4
9
f
b
fa
10
6
fe
fa
2
9
c
b
f7
5
f6
f3
f6
ff
4
d
f1
0
7
9
5
f8
fe
f8
fc
f3
fe
f9
f0
fe
4
c
5
9
f6
fa
d
c
f8
b
fc
f5
f3
f3
f
fc
1
f2
fa
ef
f5
4
b
f7
fb
10
c
11
10
f6
6
e
f8
0
8
a
f2
f1
e
f1
3
f
3
7
f
ff
fb
f5
b
6
9
1
fc
f4
f9
1
1
fa
8
3
f8
a
e
d
0
f2
fa
8
f9
f2
f4
2
8
d
d
fb
fe
9
f2
f4
f5
9
fb
f
6
1
fb
f5
f9
fe
c
f5
f7
4
6
d
13
5
f4
fd
1
fa
fa
b
fc
3
fb
f1
6
f9
fb
c
f9
0
2
d
fd
fb
e
4
f4
4
5
c
fd
f3
fa
f
e
4
f9
f7
b
fa
f6
f1
8
4
f4
fc
f4
10
fb
fe
f6
b
2
f7
3
d
f9
10
fd
a
a
1
ff
f9
4
f3
e
a
7
f4
fe
f1
f9
1
ff
f1
6
f6
f7
f4
f1
c
0
7
fc
f8
fd
fd
fe
2
d
f1
10
b
fc
fe
e
f7
9
fe
fc
f1
f0
fb
d
2
8
f3
c
10
c
f4
f3
f8
ff
f2
f6
f9
0
ff
f6
2
2
f3
8
4
f9
c
4
9
f3
c
c
fe
4
6
f2
5
f8
f5
b
8
f1
fa
f3
f9
fe
fa
fa
fb
4
5
b
f
