d
2
fe
d
e
b
f8
f1
f6
f6
d
5
f8
d
ff
8
4
d
5
f5
f2
fd
0
1
fe
9
6
fa
f4
a
b
4
f3
fc
9
f6
f6
f5
a
e
fe
fb
c
fd
fe
fe
a
3
0
f7
b
f8
f4
0
7
b
fc
f6
f6
4
1
7
f4
f1
fc
e
c
9
f5
4
f4
2
f7
f3
a
fc
f3
8
7
a
c
d
a
f6
fe
6
2
4
7
8
2
fa
f7
2
f5
0
f6
0
f9
f7
5
fe
b
fb
6
f5
f5
fb
ff
f5
4
b
f4
f2
f4
f2
8
fb
fb
f9
ff
b
5
fc
3
2
fd
5
0
8
0
f9
f7
f
a
fe
3
fd
fd
fc
0
d
1
f2
b
fe
7
b
9
e
fc
7
7
fe
a
fb
9
fc
a
fb
b
a
9
fc
f5
2
fb
f4
2
3
0
fa
f2
f6
f2
f1
fb
2
d
f8
6
f3
f8
b
6
f9
f3
f9
f2
d
0
f1
ff
fc
c
11
11
1
c
4
f2
3
8
9
fe
f3
4
f5
fc
f8
4
f5
fa
8
fb
fe
e
9
f5
7
fc
f8
fb
10
9
f5
4
a
7
f2
6
f3
f7
f5
fb
f
b
fd
f9
2
f5
3
2
6
4
fa
f1
d
2
c
d
f2
8
f8
fc
9
0
f2
f6
f7
fc
f6
f8
5
d
7
fe
f8
f4
9
fa
4
10
f2
fb
0
ff
8
f9
c
f2
fe
1
ef
f0
10
f8
2
f9
f8
fa
f4
11
3
ff
6
f8
f3
f7
ff
b
ee
b
a
2
7
f3
9
3
f9
f4
fe
f8
f6
8
f3
fb
d
a
1
f6
f1
a
d
f8
f
e
fc
ff
fd
fa
1
f2
2
3
f8
8
f2
d
f9
3
f8
6
f3
fe
b
0
9
2
8
f7
6
2
f3
ff
f8
f2
fe
fd
b
f9
f8
3
f3
3
fa
3
fe
d
fb
a
0
fa
8
fe
8
f3
0
4
fb
f0
ff
ee
ff
4
fd
fc
fd
f
fb
1
7
9
fb
ff
f7
f9
f7
5
1
2
f2
5
d
8
d
1
fc
0
f3
fa
6
f6
4
6
f9
f0
fd
f2
9
e
f4
f2
2
b
8
fd
fa
a
f2
f7
f1
f6
ff
fd
f6
7
f4
f3
7
8
0
f4
4
c
0
8
f7
b
f5
a
5
a
4
2
ff
9
f8
f5
fb
fe
fa
4
e
3
fb
b
f5
a
2
8
f5
5
6
fd
c
f2
b
e
4
4
0
f9
5
4
f6
f7
fd
fa
e
c
2
e
7
e
1
fe
fb
3
1
4
b
a
fa
7
ff
fb
1
fd
f3
f0
f2
f4
fb
e
fc
5
f1
fe
2
6
10
fa
f
9
4
a
3
f3
f5
f0
d
f0
4
f2
fb
f8
7
4
0
fa
f4
3
f9
f5
fd
f7
7
f5
8
f2
f7
f5
f5
9
8
1
f3
a
b
ff
9
f7
3
fc
3
ff
f4
fa
9
4
fe
d
6
6
d
f4
f5
fd
f8
f4
7
8
fd
1
6
f2
f6
f4
f2
5
fa
7
5
c
b
f1
fe
fb
c
0
d
f1
f5
5
7
d
fb
fb
ff
c
fa
8
7
5
f7
fd
ff
f6
5
fe
6
f7
fd
6
fb
1
f5
10
f5
9
fd
a
f8
a
f3
f5
f8
8
2
3
f8
a
5
fd
f2
f0
8
ff
9
c
f8
4
8
fa
fd
fb
f9
fd
5
8
4
f7
f8
5
6
e
3
fb
a
9
f9
5
e
ff
8
e
8
2
ff
0
6
b
0
e
f4
f6
fb
fc
fe
f3
4
f8
9
0
fa
1
fb
9
8
3
fa
2
fb
f2
ff
fd
fa
f6
a
e
f1
9
f2
f4
1
fd
1
f7
f9
8
fc
f0
2
f3
fd
f1
a
e
fd
b
5
fb
fc
f4
f6
2
5
5
f5
9
3
b
f3
9
2
fe
fd
fc
7
6
f2
f6
f3
5
f8
f
d
f1
f3
f4
5
4
8
c
0
ff
fc
fb
b
5
f7
c
5
f3
f6
8
4
5
ff
fe
f2
6
fa
f6
c
fa
f9
3
4
d
f7
f3
e
fb
f3
f1
fb
5
a
fe
9
9
2
fc
f4
c
fa
fd
2
0
6
b
f7
f5
6
fa
1
c
f3
f5
5
3
f9
b
9
d
6
fa
f8
f
f3
4
4
9
d
5
2
fc
f3
f3
4
c
f8
8
9
f1
fb
fa
3
fe
2
e
d
e
2
ff
f
fa
a
fb
fe
6
f3
0
f6
f9
c
fc
b
e
f9
d
fb
f3
f4
d
fd
1
c
2
fd
f7
6
ff
7
8
b
d
f5
c
b
fd
8
6
8
3
f6
f1
f2
2
f4
4
d
0
6
fc
f4
a
d
f8
0
6
5
f5
f9
e
9
f6
6
f4
f6
f5
f1
f4
f4
2
c
c
fa
9
f3
2
f6
f2
9
f3
fb
f7
c
f9
fa
f4
f9
fe
c
f8
7
f1
2
8
fe
fd
f3
f3
f1
f7
b
f
fc
f9
3
f9
3
f
4
a
7
f9
f2
c
f8
9
f
f9
9
7
7
f8
5
fc
f8
a
f2
f4
7
d
f2
4
f7
fc
0
3
f4
a
4
fb
e
f9
f3
f1
6
fe
f4
2
a
9
7
e
9
6
e
e
fd
f4
3
a
f6
3
4
10
e
6
0
ff
8
fb
f9
6
e
4
b
a
f
c
fe
f8
9
3
8
1
6
ff
f1
fa
f8
f
f8
f4
2
b
a
d
1
f2
fd
f4
fe
0
0
1
f9
0
fa
f7
8
f5
8
f8
fa
f6
e
5
a
f2
6
fb
f
4
2
f1
0
3
a
f7
f7
f1
fb
f4
f
f5
e
f9
10
3
f7
f9
8
5
fe
1
d
f8
8
9
5
a
f6
fc
2
6
c
fa
f4
6
f7
f9
f5
f4
fe
f9
0
a
a
9
f2
f5
6
f7
5
5
8
ff
1
f3
f9
d
fa
f5
d
f1
7
4
f3
2
f9
f7
ff
8
f7
f6
f7
