fc
fd
2
fd
2
fe
1
4
2
fc
2
fb
4
fe
7
7
8
fc
f6
fb
6
f7
fd
4
6
f7
f6
f7
ff
fd
f8
fc
6
fb
ff
0
fd
fc
9
3
f7
fc
7
fb
8
6
f9
f8
6
f9
f5
fc
5
f9
fc
fd
b
a
a
f8
f8
2
f8
0
8
fc
a
5
3
8
9
4
7
fe
3
6
f9
fc
ff
f8
1
4
7
5
8
f7
fc
f6
6
9
a
ff
8
a
a
3
6
fa
0
0
5
fc
fe
fa
f6
f5
ff
fc
6
5
0
fe
fd
4
2
f5
f9
f6
ff
3
fe
0
4
8
7
fd
7
ff
5
3
5
9
fb
f7
5
fb
fe
5
2
f5
fb
fa
fe
f7
2
1
ff
2
ff
fc
fd
7
fc
8
7
2
9
f7
f8
6
a
fa
fb
9
9
8
a
7
3
5
4
7
6
fa
f7
5
fa
f9
ff
f6
fa
fd
6
1
ff
4
3
6
0
f7
0
a
1
f6
fc
f6
fa
4
f6
fb
3
fc
ff
fb
fa
f6
1
8
f6
3
f7
9
ff
3
fc
fc
f9
f7
ff
f8
fd
a
ff
a
fd
9
1
ff
fc
6
f7
0
f9
0
a
7
1
fc
f9
a
f8
fd
ff
9
2
fe
fa
4
9
fc
0
6
a
8
fb
4
8
fe
9
fd
9
0
8
0
5
f8
fd
f9
0
fc
f7
4
8
4
5
4
6
6
5
6
6
9
0
4
0
8
2
5
ff
2
6
2
3
f9
fa
f6
8
fa
ff
fa
4
9
1
6
ff
9
3
a
8
f9
fc
0
0
6
ff
6
1
fa
9
fd
ff
2
9
f6
8
fe
2
0
f8
7
f6
ff
f6
c
6
fb
0
fd
4
f6
f4
1
fb
3
8
a
ff
fd
f5
f7
f7
6
fc
f9
2
fa
f9
7
7
9
fe
1
3
fc
1
7
6
4
4
7
fb
9
0
8
fc
1
8
5
f8
fd
7
a
fe
f7
fd
f8
5
f6
6
7
f9
3
fc
8
fb
f5
f9
0
2
8
7
0
6
2
fc
fd
fd
1
0
fb
9
5
a
7
fe
5
6
4
fd
7
fc
9
fe
f9
fd
8
9
0
fd
7
3
f9
4
fc
3
ff
9
f9
5
fd
f6
0
b
f6
3
fe
f8
a
6
fe
2
fe
4
fd
fd
0
fc
9
9
1
7
fb
4
fd
4
fa
4
1
f9
6
f7
f7
fa
7
f6
0
8
f8
2
5
5
6
4
fa
4
f9
fa
5
fa
3
fe
9
2
fa
7
fa
fa
2
f8
f6
f9
f9
ff
fe
8
a
2
ff
1
a
f9
0
9
ff
fe
a
2
f9
f8
fb
9
f5
9
f8
c
4
b
0
0
2
fd
fb
0
fe
5
fc
1
f9
fe
3
3
5
f6
5
fd
0
fe
f9
f7
fc
fb
8
fd
8
8
6
7
fa
2
4
fd
8
5
4
4
0
3
f5
f7
fa
fe
fe
fe
fa
4
3
ff
fb
f9
6
fc
fd
6
fc
fb
8
ff
f7
b
fb
fa
fa
f7
2
f8
9
7
f9
5
f9
4
5
fe
6
4
fc
ff
fa
1
b
a
2
f8
7
2
f6
7
ff
2
0
f8
2
fa
ff
b
fe
fd
fc
a
1
3
fa
4
f9
0
0
fa
9
3
2
fa
fa
fa
fd
a
9
ff
2
b
0
fb
f7
f9
4
f8
fd
7
f9
fb
fd
fa
1
6
3
a
1
4
1
fc
4
a
fa
4
3
0
2
a
f7
5
6
5
b
fe
fa
5
5
fb
f8
ff
f7
fa
1
6
5
1
ff
3
fa
fb
9
8
a
6
f9
7
6
5
7
fe
ff
8
f8
a
5
f8
2
5
1
6
1
fb
2
2
3
f6
6
fd
8
fe
fe
3
ff
fc
5
1
5
fe
fc
fc
0
a
7
2
3
ff
ff
f9
f8
f8
ff
ff
9
6
fa
2
fe
1
f7
fe
fc
ff
fa
9
0
fc
fb
fc
f9
fe
fd
0
f7
0
f8
0
fb
4
fa
1
f5
4
fa
f7
f7
5
a
4
f7
4
f5
3
f4
f6
fd
fd
9
2
7
8
3
3
2
4
a
fe
fe
f7
7
4
0
3
4
7
0
9
5
f8
8
5
8
0
7
fe
1
f6
ff
fb
2
4
5
1
3
f4
f4
3
f5
fa
fd
fa
b
f8
ff
7
ff
f6
7
f6
8
fe
fe
8
fe
7
8
f8
fa
4
f9
9
6
0
1
7
f6
1
fd
7
5
fb
f5
0
fa
fd
2
7
f6
0
4
fa
5
2
1
9
f7
fb
fd
1
f9
5
f8
fb
fd
fe
8
ff
fe
f6
0
f7
fe
4
f9
f8
0
4
fe
fd
3
fa
6
8
4
f9
fb
ff
0
6
6
f9
fd
1
fe
7
f9
ff
7
4
7
5
6
ff
7
0
1
a
fe
fe
2
0
6
0
9
2
0
7
ff
6
f8
f9
2
f7
6
6
4
fe
f6
8
9
6
2
fe
fe
4
4
1
7
0
8
9
8
7
5
f9
a
ff
6
f9
f7
5
8
fc
5
2
6
3
4
2
3
5
f7
f8
2
f8
f9
f6
2
fd
f7
8
fb
fd
fc
0
f9
fe
fb
f5
8
f6
3
f7
fb
1
fd
0
2
f9
f8
6
f6
6
fa
2
f7
f6
fe
1
fb
fc
3
fd
2
0
5
a
5
f6
4
f9
3
0
fb
fe
fc
5
fc
f6
fa
4
7
ff
f5
7
ff
3
3
1
7
0
f5
f5
f6
f8
8
ff
f8
fe
6
f5
0
9
fe
3
fe
f5
f8
f9
7
f4
ff
fe
7
fe
3
f8
3
fd
8
fc
5
5
7
f8
fc
f5
a
f9
f5
f6
7
ff
8
ff
5
fb
1
fb
7
f5
1
f9
f6
7
fb
0
9
f8
f7
fe
4
8
9
fa
fc
f8
6
fa
3
5
f6
fe
0
fe
fc
fa
9
fe
fd
fb
2
3
b
f7
f6
4
fa
2
6
f9
f8
5
f9
f9
5
f5
fe
ff
2
fc
fa
fb
1
ff
fb
fc
0
fb
a
3
9
9
f6
fd
ff
6
1
f6
fa
fd
fc
0
ff
3
5
f9
fc
3
f8
2
6
f8
7
f6
7
f7
fe
6
2
f7
5
2
8
fe
3
fa
fd
7
f8
a
1
fa
9
a
4
7
3
fc
0
ff
1
5
ff
ff
6
a
fa
fd
6
9
1
1
9
1
fa
f9
4
1
f7
1
1
f9
7
3
fd
fa
2
9
fe
fb
fd
4
fe
3
6
8
b
fa
f6
a
8
9
0
f8
fe
fb
3
fd
ff
f7
9
2
f9
ff
f5
fc
fb
6
4
fd
fc
8
7
fe
f6
0
fe
7
2
2
0
1
f8
fe
6
0
0
f9
4
fa
8
7
f8
a
f8
7
a
1
3
f9
4
fa
f6
fb
ff
fb
f7
0
f9
6
4
f6
f7
6
fd
f6
8
1
3
0
fb
9
1
8
b
9
f8
3
ff
3
3
fb
fb
2
2
f9
a
fd
0
8
ff
f8
fd
ff
fd
fd
fe
fd
f5
f4
9
2
fe
fe
a
f6
0
ff
0
6
fd
a
3
4
a
fb
5
fe
9
f7
fc
fe
ff
2
4
fd
fe
7
f8
fd
1
fd
f6
f7
1
fc
f6
3
2
ff
ff
b
fb
3
fe
fa
ff
ff
4
6
fa
2
f7
fe
9
ff
fb
7
f9
6
fc
3
2
6
0
f5
f7
f8
9
8
6
6
f6
3
7
ff
fd
0
3
4
fa
f7
f9
6
1
fd
2
0
4
7
f9
fe
fd
f6
b
fd
f7
6
fc
f5
3
a
2
1
5
f7
f7
f6
ff
1
f7
7
4
0
fd
fc
6
fd
fa
f7
4
fe
fa
5
5
6
0
f7
6
f9
f6
3
fd
f6
f7
0
7
ff
8
2
2
7
fc
0
a
6
c
4
0
7
1
f9
f6
6
9
b
2
fe
4
ff
fc
5
fb
f9
2
a
3
fc
fa
5
f9
1
0
6
2
9
fb
8
fa
8
f6
7
1
7
7
4
3
f9
fc
f9
a
ff
fc
5
5
8
0
fa
fb
0
6
3
2
4
f7
fd
fa
1
1
fb
4
fe
f7
8
5
f9
fb
f9
ff
1
1
fb
a
0
9
4
fd
fc
1
fb
1
4
fd
1
5
fc
f7
f6
8
fb
2
1
fd
fb
f8
4
1
0
fd
ff
fd
9
fc
f8
fd
fa
4
1
0
2
0
f8
c
8
9
7
5
fb
b
f8
3
fb
4
5
fb
a
fe
4
9
8
fb
2
fa
f7
f7
fc
1
b
1
5
6
4
fc
f7
b
a
fd
f8
b
4
f8
9
4
fd
2
fe
fd
0
5
7
8
fa
4
f7
0
fd
4
fd
7
fa
fa
fc
5
f9
a
4
3
f7
4
9
2
fe
4
f8
f7
6
2
9
f8
a
fc
f9
3
8
fe
f7
fe
fa
9
7
8
a
0
a
f9
fd
2
8
f9
8
f7
b
f7
fa
f7
0
9
fe
2
8
2
9
f9
f7
2
ff
6
6
2
7
1
fd
6
4
fa
c
f6
4
ff
f5
fb
fe
5
8
3
a
fd
9
1
6
b
0
9
fa
f6
8
f8
4
2
f8
f7
c
f7
3
1
fb
fd
ff
fb
0
3
3
fa
fc
fa
1
ff
6
f7
ff
fa
fd
3
8
5
5
6
fd
1
5
f8
c
fd
b
8
8
2
f6
4
f9
f9
ff
f9
f6
fd
ff
fd
f6
4
3
5
7
4
f6
f9
f9
9
a
4
2
7
4
2
fc
f6
2
8
8
3
f8
a
7
2
3
ff
f6
4
b
ff
b
f8
fd
f9
f6
4
1
fb
7
f8
4
fc
a
0
5
5
5
ff
2
fa
f7
8
ff
8
ff
fc
fc
9
0
6
2
a
fd
6
4
6
a
3
7
fe
2
1
2
4
f9
fc
3
fb
fb
fa
4
fc
9
8
3
6
5
f7
9
ff
f9
4
1
fc
8
f6
9
ff
f9
fa
fc
9
6
2
fb
1
3
fa
f8
f9
f7
f9
fd
f5
fd
f7
5
f6
f7
f8
fc
6
fb
8
6
fa
3
fb
6
3
3
f7
2
f6
f8
1
ff
2
fc
fb
fc
f8
0
f5
fc
7
0
f9
5
f7
fd
fe
f8
5
2
9
4
2
fa
4
7
0
ff
fe
5
f9
7
6
a
3
f7
0
f6
1
2
a
a
f9
fe
ff
fd
f9
2
2
fa
6
f9
8
f8
fc
2
4
f6
f6
fc
b
6
7
6
fc
f5
fd
4
a
7
fe
f7
f6
f9
fe
fe
fa
6
6
2
fd
fc
3
ff
fe
1
2
6
f7
f6
f8
fb
8
3
ff
fe
f9
4
2
f6
4
1
5
4
3
f8
f9
fb
fd
fb
ff
f8
0
2
fa
8
fc
fa
6
2
1
ff
fc
5
fb
4
fe
fd
fd
fe
6
4
f6
9
0
5
f7
fa
fd
8
fe
4
f7
f5
fa
a
fb
7
fd
0
fc
4
fc
2
fe
fd
fe
7
f6
2
f9
0
8
fb
f6
9
fb
fa
0
2
fb
f7
7
1
fd
1
b
5
fd
0
0
ff
3
9
4
fd
fb
f8
2
fd
3
6
3
fe
a
1
f7
1
f8
9
3
5
9
f9
7
fb
f8
fb
0
fe
4
2
fc
3
2
6
8
fc
8
f7
0
a
7
0
ff
2
4
fb
1
8
6
fb
f9
3
7
fb
f6
6
fa
f6
1
fb
a
fa
0
6
f6
1
f8
fa
fe
fa
fe
f7
f7
9
f7
0
8
f9
7
4
0
f6
fe
fb
fc
fd
6
fb
8
0
3
3
ff
f9
3
fd
f7
fe
f6
3
fb
fb
a
a
0
f7
5
f9
fe
7
0
fd
f8
7
4
6
fc
6
5
9
fd
8
fd
ff
6
fc
3
5
1
9
1
7
9
f6
1
fb
f7
fb
3
9
ff
fb
3
ff
fe
fd
7
7
ff
6
fa
0
a
1
5
fc
4
ff
fe
f5
fb
7
fb
fe
4
1
b
0
5
f7
fd
7
f6
fd
b
8
0
fc
f9
fb
f9
ff
2
1
5
0
4
fe
fb
6
ff
ff
4
f7
fd
0
3
f6
f6
f8
0
f5
fc
f8
fe
2
6
f9
8
4
f5
2
f5
0
8
f7
7
fa
b
7
4
1
f9
8
8
fc
fc
fd
f6
fc
8
f9
fd
f8
fb
5
fe
1
1
7
fa
8
5
f8
2
5
f8
5
3
f9
3
9
3
fb
4
ff
3
fd
2
5
f8
6
fe
4
1
0
f7
f5
f9
ff
f6
fd
6
4
fb
5
1
0
fb
9
f9
9
f7
7
ff
fe
ff
8
fd
1
fb
f9
a
9
fd
5
f9
3
4
fa
f9
fe
3
3
8
4
9
f8
fd
3
f9
fe
f9
f7
2
7
fd
8
a
7
0
6
1
a
fb
1
8
fc
f9
b
fd
b
4
5
f9
9
fb
ff
f9
f8
4
f8
7
2
2
1
a
f7
f9
f7
fe
6
8
9
2
a
fc
5
f7
fe
2
f6
f8
fe
1
6
fb
1
fa
3
ff
4
fa
2
ff
fb
8
6
1
f9
3
f9
ff
4
fc
fe
5
f5
8
5
8
5
5
fb
2
f8
f7
fb
8
fc
fb
2
3
f9
0
f9
5
f8
b
ff
f7
fa
8
3
f9
f8
a
a
f9
6
9
9
0
fa
fd
fa
fa
6
5
f5
fe
f9
5
8
f8
0
7
9
0
fa
fa
ff
2
9
fe
f9
f6
fc
fe
0
9
b
4
fe
6
fc
3
8
a
f5
ff
fc
2
f7
fe
7
fe
f9
f9
1
f8
9
8
f6
1
5
5
0
ff
2
9
f7
0
f8
3
9
2
fa
3
a
f6
f9
f8
3
3
3
3
1
fb
1
0
2
9
f6
fb
fe
2
fc
f7
5
fb
fb
9
9
2
fc
ff
fd
5
3
9
f6
fb
fd
a
4
fc
2
ff
ff
fe
2
4
fc
2
6
3
f8
7
fa
0
3
fc
ff
f6
fc
2
0
7
fb
5
a
1
2
5
3
fb
f8
7
fd
4
7
fc
ff
3
a
4
ff
5
7
ff
9
9
fc
f7
6
f6
a
f9
ff
ff
ff
f8
f8
2
fb
f5
f8
f7
fd
fa
f8
fb
f7
f6
3
8
4
fd
f7
f8
8
fb
ff
7
2
3
4
ff
9
2
f9
fd
fc
f6
a
4
8
1
fe
f6
9
2
1
5
0
2
a
6
f7
fe
f8
fa
fb
b
fb
3
6
fb
0
1
f8
fd
fb
2
fa
fa
a
8
fd
fa
7
2
f8
3
0
5
3
3
f5
9
2
3
fd
fc
f7
f6
f9
fb
7
a
7
fa
1
fa
7
3
8
5
ff
9
f7
f6
f9
4
f8
3
9
9
fc
a
ff
fd
6
3
fa
1
6
7
4
fd
0
fc
f8
fc
f6
6
f8
fd
f9
fd
fa
f8
2
1
ff
6
3
7
6
3
fe
a
0
f8
7
5
8
fd
7
1
5
f7
1
fd
fb
ff
5
5
1
1
fc
3
2
fe
fd
fa
fc
fa
f7
f9
f7
6
f9
fa
1
a
f8
a
2
f7
f8
ff
1
3
8
7
f7
fd
fa
fe
f9
fd
f8
0
f7
3
5
ff
9
4
ff
f9
2
4
6
4
b
f6
5
f4
f5
f5
9
fe
5
a
3
8
f6
5
fa
1
f9
ff
a
f7
4
9
4
fc
f9
8
fe
fe
fb
2
a
b
8
f9
fd
3
ff
9
7
fa
2
fe
7
fd
7
fc
8
0
f7
fe
f8
8
5
7
fd
ff
ff
8
fb
fe
4
fa
b
f8
fd
8
fa
a
8
fa
1
fd
2
7
f9
4
1
1
0
fc
f9
8
3
7
9
fc
7
1
f9
fb
ff
fd
3
5
1
a
3
1
fd
9
8
9
9
2
5
3
6
9
2
1
fe
7
f5
f9
fe
f5
6
9
fc
fc
1
6
0
f9
8
6
f5
8
5
ff
0
fd
ff
5
fd
fa
fd
3
7
5
f6
fa
ff
1
8
fd
a
fb
7
fc
fb
fe
ff
f4
f7
fd
fb
2
c
7
0
b
1
ff
8
6
fd
f7
fc
5
fd
fd
fd
0
fe
6
9
2
f6
1
fc
fe
f7
6
ff
1
f9
f6
fb
f6
fa
5
2
fa
2
7
2
ff
6
4
f8
3
ff
f8
1
7
a
1
9
7
2
f5
ff
fd
3
ff
ff
fb
ff
1
fb
fe
9
f7
fd
1
9
7
fd
fa
f9
4
ff
f8
fd
f6
fb
c
f8
fb
fd
fd
3
ff
fe
5
3
fc
c
f8
fa
f7
f9
7
0
fe
4
2
f7
4
f5
f8
f9
8
8
fc
f8
4
3
f5
f8
b
a
fc
6
a
6
f6
1
0
2
0
ff
f7
ff
3
7
6
fb
fc
2
fb
8
ff
ff
6
fc
fe
1
7
f8
8
a
f9
fb
9
fe
f8
fa
fc
9
5
2
fd
6
ff
ff
fd
fa
ff
3
fa
6
1
a
fd
fa
6
5
fd
4
3
5
8
ff
2
6
9
1
6
7
9
fc
f8
2
5
0
0
f6
ff
fe
2
f8
2
fe
0
a
8
fa
3
f9
fd
f8
8
5
8
f7
9
fb
4
8
fa
fd
f9
8
f9
5
fd
0
f6
9
0
5
fa
4
a
1
3
3
fa
8
5
ff
3
f7
0
f8
f5
4
1
b
fa
5
ff
fc
f9
6
8
ff
f7
f6
0
3
2
f7
f7
fa
2
f8
5
4
f4
0
9
fa
3
f8
9
8
9
f5
f6
9
5
fc
4
5
9
4
1
ff
6
f8
7
f8
7
6
f7
fd
f9
fd
3
fa
1
1
8
fb
f6
9
fd
f4
1
ff
1
f9
fe
b
fb
0
1
9
fb
8
0
f9
f7
3
3
f7
f8
b
f8
2
fb
1
3
f9
9
8
6
2
fd
a
8
2
f9
9
f5
9
f7
5
f9
7
8
7
8
5
a
5
5
f9
9
6
fe
fa
fb
f8
fc
6
8
fc
6
2
fd
7
9
fb
0
6
9
f8
8
8
1
fe
f5
fb
1
f9
fb
fb
2
6
5
f7
f6
f7
2
f9
5
ff
7
fb
2
f8
fa
b
f7
fc
0
6
f6
2
0
4
fd
6
f6
4
fe
4
b
fc
a
5
ff
3
8
f9
5
f7
8
f7
a
fd
9
fa
1
9
0
8
2
5
5
9
0
7
f9
f9
f8
2
6
3
9
ff
ff
fe
f9
6
7
3
fd
1
4
5
fa
7
5
f8
4
fa
7
7
1
0
f9
f7
f7
fc
3
7
9
f8
f8
f7
ff
f9
3
fe
fc
3
8
5
f8
a
f6
6
7
f7
fb
fd
ff
f7
2
fb
fd
1
fc
fb
f9
a
2
5
b
4
4
fa
f7
f8
fb
fc
fa
f5
f4
1
fa
fe
8
2
ff
8
f7
5
4
4
4
8
ff
f9
fb
fc
ff
7
fb
8
fa
fd
4
0
5
3
fe
4
5
8
fc
2
fd
fc
f8
1
f7
7
f8
6
ff
fe
fa
fd
1
ff
f8
f7
9
fb
4
fa
0
3
f9
2
7
f9
5
b
8
a
fa
f6
fe
f8
fe
f9
c
fb
2
6
fd
0
f6
f6
f9
fd
ff
fd
fe
1
f8
5
0
fa
6
4
f8
fe
a
f9
4
4
2
1
fe
ff
fb
2
6
7
4
fe
a
8
3
ff
f6
0
ff
a
f7
5
7
f7
f8
4
f9
6
f8
0
4
f7
fe
6
f9
fe
2
f8
f6
fc
4
f5
7
f7
7
9
f7
7
9
ff
5
4
fb
f6
2
5
9
fc
fd
f9
fd
f6
f9
f8
fd
fb
fd
0
f7
f9
6
b
6
fc
5
2
f7
fe
fc
9
9
1
1
f8
3
2
f9
7
fb
5
2
5
f8
2
7
1
f5
f9
ff
f6
2
f7
fe
2
9
f7
2
f7
fc
fa
9
ff
8
fe
1
fd
f7
ff
ff
fa
ff
6
f6
2
f6
3
0
7
ff
4
ff
3
6
4
fc
f9
ff
1
0
fd
a
fc
f6
7
3
f8
f7
ff
8
fc
6
f8
1
4
1
fa
f6
2
3
ff
fc
0
f9
fb
f8
f9
fe
f9
fc
f8
fe
f6
2
f7
ff
b
9
5
fb
fc
ff
f8
ff
f7
f7
f7
a
8
fc
fd
f9
5
f6
3
7
fd
6
fc
8
b
5
a
4
f8
fc
3
f9
fd
7
7
f8
f8
f5
3
0
0
6
2
0
9
b
fa
5
6
5
fa
ff
fa
5
3
fa
f7
fd
6
5
fd
1
2
fc
f6
f9
fc
2
1
6
f7
fe
ff
3
fd
3
fa
f6
0
f9
2
fb
0
fa
fa
f7
f7
f6
4
6
7
4
4
7
fc
4
4
1
fb
3
fd
fa
8
fd
fd
fc
fa
f7
f7
f9
fa
2
9
fd
9
ff
9
f8
a
1
2
f7
fd
f8
8
9
0
8
f7
f9
f9
f7
fe
f8
f7
7
5
f6
f8
8
f7
b
f6
f5
fc
fb
f6
f7
3
f5
5
f7
5
9
b
fe
fa
8
f6
ff
3
9
7
ff
1
f8
2
7
6
5
ff
6
5
b
f7
7
fe
9
a
f7
f8
3
2
fb
5
2
f8
5
fa
9
f4
4
fe
4
5
6
5
6
f6
ff
7
ff
0
6
7
5
fb
1
fa
f7
3
ff
fa
7
fc
f8
f7
5
fc
5
f6
5
fc
5
3
f6
9
5
ff
b
8
4
fc
7
0
fd
f9
f7
0
fc
ff
f6
ff
fe
8
6
1
fe
fd
f8
4
fb
fd
3
f8
fd
2
fd
2
f9
fc
7
5
fa
1
fa
fa
3
fb
5
f9
ff
1
2
a
fd
ff
fd
f8
fe
6
fb
7
0
fd
4
fa
f8
f8
6
6
f8
fb
7
fd
f6
4
fd
ff
fd
3
fc
3
6
0
9
5
5
fe
f8
ff
f9
2
1
6
f9
0
fa
f8
f6
ff
0
2
0
fa
0
a
6
a
b
7
7
a
8
f6
fa
4
ff
fb
3
f9
3
7
f8
4
f6
6
ff
0
fa
8
fe
4
fd
3
7
f9
fb
f7
fa
7
4
0
5
fb
f5
0
ff
1
7
2
fe
7
2
fb
fc
0
ff
8
fc
fb
fd
a
2
5
fd
fe
fd
fb
fd
fc
3
1
4
fe
6
9
3
ff
f6
1
fd
fd
f9
f9
fe
9
0
f6
fb
ff
3
fc
7
3
b
2
fd
f7
f8
fa
f5
6
f7
fc
3
4
2
0
fd
9
fd
f6
f6
ff
3
8
f8
3
f5
fa
a
fd
2
fd
f6
f7
fd
6
f8
fc
f7
f5
3
9
f9
3
f6
f9
9
3
3
a
3
fb
ff
fa
4
3
fb
fe
f6
f7
fb
fa
3
fb
fb
fd
fc
0
6
8
7
3
f9
f5
4
3
8
3
f8
6
7
3
2
6
b
0
3
f7
fd
0
f9
6
fd
3
ff
4
0
fc
3
7
8
fb
fe
a
f8
a
4
0
2
f6
9
1
fb
9
3
7
f8
ff
2
f7
f9
f7
fe
6
fd
fe
6
fe
6
f9
3
0
7
4
f8
2
0
4
f7
fb
5
fc
fa
9
a
4
2
7
fa
fc
a
f5
f8
2
2
9
f8
f5
f7
fc
7
f8
fb
fc
f7
fa
6
fe
f7
7
f5
0
f9
f5
a
6
fe
f8
f8
a
3
f8
a
6
6
fd
fa
4
0
0
7
fd
fe
8
8
fc
b
3
ff
ff
ff
6
0
fd
fe
ff
1
b
f8
ff
f9
1
2
f6
fc
fd
9
fc
7
fb
8
f7
1
f9
3
4
6
0
1
ff
f7
1
fd
2
fc
fd
fe
fd
0
4
a
6
6
f9
ff
fa
fd
0
ff
6
4
fe
fa
f6
5
1
3
f9
7
5
f8
4
2
4
fc
ff
fa
3
fc
fe
7
b
f9
b
0
fb
fd
ff
3
8
fe
1
f8
6
f9
4
4
9
f9
fd
f6
2
f6
8
a
f9
fb
0
0
8
1
f9
0
9
6
fa
3
fe
fb
2
f9
fe
ff
a
6
7
0
f9
9
f4
ff
6
fb
2
1
fe
f8
f8
8
fa
fb
