6
fc
f7
9
f3
fa
4
0
fa
f8
1
b
2
fd
7
6
3
fd
f7
fb
2
9
2
2
2
d
9
f8
f6
5
fb
1
2
6
6
7
f3
f8
fb
f8
fc
2
7
5
0
1
fb
ff
fa
c
fd
1
f4
8
9
6
6
3
8
fa
5
0
f7
ff
f6
f8
4
9
6
8
fc
fc
b
1
5
fe
a
fc
fd
2
0
7
fd
7
7
ff
fb
4
2
6
f6
fb
0
9
8
2
1
5
b
3
a
c
5
7
1
fe
1
fa
fd
f8
7
8
f8
8
fb
0
3
5
f4
5
2
3
5
fb
fc
c
fe
7
f7
4
7
1
fe
5
fd
fd
ff
f6
0
0
4
fd
f9
f8
ff
a
fb
1
7
6
0
fb
f8
f6
3
fe
2
7
0
f4
fe
f9
fe
fc
0
0
1
fe
f9
fb
f7
6
fb
5
f9
6
4
9
9
f7
3
5
4
9
ff
9
a
4
9
fc
8
6
9
f7
2
0
3
f7
5
2
0
6
a
9
f7
fc
f7
ff
fa
6
2
8
fa
7
f6
5
0
fe
9
6
5
f9
fc
f8
7
9
f9
fe
9
f9
fb
f9
fb
f4
fd
fa
fe
f5
9
a
4
3
4
7
f8
8
f5
fc
fd
f9
4
f6
9
9
2
4
5
8
2
ff
ff
2
a
f9
9
f9
fa
8
fe
f5
f7
fe
5
f6
8
fa
7
8
5
4
c
fe
fd
f9
4
4
7
9
fd
f7
a
8
fa
fc
a
ff
ff
fd
ff
fa
2
0
8
0
fa
0
3
fa
a
f6
b
f9
3
f9
f8
8
fd
fa
fc
1
2
1
fc
1
7
a
1
7
3
f6
fd
ff
fc
f7
2
fd
fc
7
fe
4
b
fc
4
f8
fd
4
f9
6
6
5
1
ff
0
fe
f7
4
c
f6
fd
c
f8
f9
f4
fe
fb
f5
fd
fe
fb
0
f7
8
a
b
b
3
9
f7
a
1
f5
ff
9
fb
9
fe
ff
f9
fa
5
0
ff
f8
fc
2
3
fb
5
0
5
f5
1
0
7
5
9
6
fc
1
f8
fd
ff
2
ff
ff
4
4
8
fd
a
6
5
fa
f5
fd
8
4
f9
0
fd
a
1
fb
f8
ff
7
4
0
f4
3
fe
f9
ff
f7
fe
fd
fc
fd
9
fc
7
2
a
f5
fb
8
9
fa
8
f5
f7
ff
fc
fa
fe
5
8
fe
5
9
f8
fd
fa
fe
f6
fc
fe
3
fd
ff
fc
5
a
5
fc
b
2
fb
8
f8
f5
f4
1
5
2
2
f8
f8
6
ff
5
fd
4
fc
fb
f9
b
6
f6
4
ff
6
fc
9
a
a
9
fb
7
f9
f7
3
ff
fe
5
4
f8
2
fe
fd
0
f7
4
f9
8
f9
1
fb
5
0
4
f7
3
0
f5
ff
fa
ff
fa
9
0
b
b
5
f8
fe
5
fe
1
f9
6
f5
3
b
fc
f6
9
f7
8
8
f6
a
a
fb
fe
7
8
fe
2
0
fb
9
3
fa
fe
1
5
5
f9
7
fa
ff
f6
7
fc
a
2
f6
fc
fd
7
8
8
fe
fe
1
a
fa
9
f6
b
a
8
a
4
fa
f8
5
a
ff
9
7
5
fa
fd
fe
ff
3
f5
b
ff
4
f8
f8
8
4
fd
a
6
2
ff
fc
8
fe
f8
3
f7
fb
6
f7
f8
f8
2
fd
f8
0
0
fd
fe
f6
2
ff
f5
7
f7
ff
b
f8
ff
ff
0
6
f5
fc
fd
f7
8
0
f8
fc
f4
fb
fd
1
0
f4
7
4
5
fc
1
9
fe
1
b
7
fc
6
fc
f5
fa
3
6
f7
a
f4
0
f7
1
1
8
fc
a
6
ff
fa
fb
f9
f9
8
f9
3
f7
fe
fb
f8
ff
fd
8
8
9
fd
fc
a
7
9
0
f9
8
ff
f6
f9
f9
4
6
f5
f8
f9
f7
2
0
fd
1
fb
5
f7
3
fb
ff
f5
fc
3
3
5
8
ff
4
fd
ff
fd
8
0
fe
b
fc
fc
7
fa
5
4
fb
6
fe
6
c
a
fd
f6
f5
2
f7
7
f8
fa
7
fc
9
f6
f9
fb
fd
b
f7
fc
fe
5
fb
fe
2
f6
c
0
f8
f9
2
f6
ff
ff
f6
7
7
fd
6
5
2
ff
0
f6
fa
f6
7
fe
fa
1
fb
fb
9
8
5
c
7
f9
0
7
8
f7
fd
f4
f9
f8
9
6
7
9
7
8
fe
a
b
f4
7
fe
6
4
f8
f6
3
fb
f8
3
7
fe
fc
f4
b
b
f7
3
8
f7
fb
1
6
4
ff
f6
b
1
0
f9
fa
ff
f9
9
fb
f7
9
2
f9
0
fb
fd
2
f9
6
f9
f9
1
9
ff
7
fd
6
f7
f9
f6
f5
f5
f9
a
0
ff
8
f9
f5
fc
7
fd
1
fd
6
4
6
4
3
ff
fe
f7
8
fb
f5
2
5
9
0
fe
fa
5
b
f8
a
f6
fb
fe
f7
5
9
fb
7
f9
f8
f6
8
9
f7
fa
9
b
3
4
b
3
ff
fe
fb
5
fa
1
b
0
9
b
a
fa
2
4
a
f9
ff
fd
1
5
3
2
6
fb
6
fe
0
fd
ff
ff
ff
4
fd
ff
4
ff
fa
fe
8
f6
f9
1
f6
3
3
fc
fa
f7
4
fe
fe
3
0
fe
3
2
2
6
7
0
fa
2
f5
3
6
0
f8
f7
6
f5
fd
fc
f7
5
6
fe
f9
2
a
fc
6
5
f8
fd
2
5
3
fc
f6
8
fc
6
fb
fc
fe
8
f6
6
f5
fc
f8
ff
8
ff
fa
f7
fa
f8
f9
fb
fe
f5
4
2
f9
3
7
fe
fa
fb
9
5
1
ff
fe
f9
f8
f8
6
fd
fb
2
3
fa
f5
fb
4
f5
fc
8
fc
a
8
ff
fd
fc
f6
1
6
ff
9
8
f7
6
1
a
6
f8
fc
6
f6
fe
f5
8
6
ff
f5
f6
f7
7
3
8
fd
b
f6
fc
fb
5
fe
3
fc
3
f7
4
2
f8
fb
7
f5
b
8
fd
b
fe
f8
2
3
9
b
f9
ff
ff
1
fc
2
7
fb
b
0
7
b
f5
fb
f9
fb
fe
fd
fc
f6
fc
fd
4
fd
5
6
6
fe
fb
f4
ff
1
4
3
7
fb
7
3
fd
4
f9
f6
fe
8
fb
ff
fa
fd
7
fb
fd
f7
9
7
fb
fe
fa
fc
fa
fb
fa
2
f8
f9
2
b
b
a
6
f7
f8
6
4
f6
fe
a
fd
fa
fc
f5
fc
a
ff
fc
fd
f6
5
7
f9
f6
9
f9
f5
f9
f8
fd
2
3
5
a
fb
2
f9
1
6
b
9
fe
fd
9
fd
8
9
1
fa
0
f4
6
f7
4
7
7
f8
f8
2
b
9
4
f8
fd
f9
f9
6
4
f7
b
1
7
0
7
b
7
b
a
3
ff
fc
fc
f8
fa
a
fe
2
fd
3
a
fd
b
fc
fa
fa
fc
f8
f7
5
8
f9
7
2
f8
2
fd
1
f8
fd
8
fd
a
f4
6
5
fd
fc
f9
6
f9
0
8
fc
1
f9
fe
f8
6
fc
fe
0
fd
fc
f9
fa
fb
4
fb
5
5
fe
f8
fe
f6
a
b
ff
4
f6
0
0
f9
4
fe
fd
1
1
9
5
ff
3
2
6
4
4
5
8
4
fd
b
7
6
3
5
6
fc
2
fe
f7
ff
8
fb
f6
3
f5
fe
5
fc
ff
fc
1
f6
2
fc
fb
3
8
ff
4
fd
fb
4
1
3
0
8
fc
fe
7
4
9
f5
fb
f7
f6
f8
fd
7
ff
5
fc
ff
5
9
1
fd
f6
f6
f5
f9
8
6
a
fc
f4
7
f5
f8
fe
6
8
fb
4
3
a
a
0
b
4
9
fe
fc
3
2
9
ff
7
a
9
f8
6
fa
f7
fd
5
fc
5
f9
4
fc
f6
3
f8
4
2
8
fa
b
ff
a
9
ff
fe
f7
fe
5
2
fa
0
f6
f9
f6
5
1
5
fe
a
1
fd
f5
a
f9
7
a
f5
f9
f8
1
b
fb
b
2
f9
f9
5
f8
9
f7
f8
f6
fa
1
f8
1
f7
fd
7
f8
a
fc
7
fd
f7
fa
fb
fd
5
f8
3
3
ff
3
0
6
fc
f5
8
3
6
fc
fc
7
2
6
f8
0
fe
9
fb
f5
fe
0
1
4
3
5
7
4
f7
1
6
f6
3
9
f7
2
7
f8
fb
fb
fd
f5
f4
0
fa
6
1
7
5
7
c
9
fb
0
6
9
4
6
1
4
f6
f5
3
1
3
a
5
9
fe
a
fc
f9
0
4
0
5
8
2
fc
4
9
a
fe
fc
f7
1
f8
f3
8
c
6
f9
fd
f6
fc
fe
9
3
7
5
8
f4
a
f8
fb
fd
fe
1
7
1
6
a
f2
7
2
fc
f5
fb
fc
fe
a
0
fb
f6
3
f5
fd
1
f7
f8
9
c
f8
fb
7
7
1
fe
f9
4
5
fa
4
b
5
3
f8
f7
f9
1
a
f3
f6
f5
0
fc
fe
ff
2
f8
ff
7
1
f6
fb
f7
fd
fd
2
a
fe
8
2
5
f9
5
fb
fa
f7
fe
fb
5
ff
7
7
5
fb
f7
9
3
fb
f6
b
7
4
f5
7
ff
b
fd
0
f8
5
8
b
4
fd
fd
2
fe
f4
fe
f8
fa
fe
b
fb
ff
8
4
3
4
fd
f7
1
fb
7
6
f8
f9
1
ff
9
f3
f9
f5
fb
fc
f8
ff
fa
fd
2
7
fb
fd
5
8
fb
9
f8
6
3
fb
f7
1
7
a
6
f6
5
5
f7
c
1
6
9
fd
4
b
8
fa
4
fa
6
9
fa
f8
fa
fd
f6
6
0
fe
f7
f5
f8
9
3
f8
1
fd
f6
8
fb
f6
b
7
fb
f5
f9
8
f8
ff
2
fe
f9
1
1
fe
fc
2
f7
9
8
8
f6
1
3
8
8
f5
fb
f6
fb
3
fc
0
9
3
6
a
9
3
fa
f6
f8
a
0
fc
b
f9
fe
f6
f6
0
4
f5
5
2
2
0
f8
7
f7
2
7
9
fd
6
fc
9
b
4
9
9
5
8
fb
5
0
5
5
ff
5
b
5
fa
f5
f9
fa
6
1
8
4
5
fe
c
ff
f9
fe
2
fb
ff
f8
f7
b
9
f7
7
2
f6
fa
f5
4
c
fc
0
8
fe
f8
f9
a
0
1
4
f6
fa
fa
5
1
f7
9
3
5
fc
f9
f8
1
0
8
fd
a
b
fc
0
f6
f6
8
1
f6
ff
7
fc
f9
fd
f8
1
9
9
8
9
6
7
f6
f8
f5
fa
8
fb
6
9
9
5
fc
8
8
4
f9
a
9
fc
ff
5
3
fd
fb
fd
fc
fd
fd
2
f5
f8
f5
f7
5
7
fc
6
8
f9
f8
f9
0
f8
fc
fe
2
7
f8
ff
fa
0
8
fe
9
fa
f7
4
ff
1
6
0
7
9
6
6
4
ff
1
fd
fe
fa
f8
fb
3
8
2
b
3
fc
c
fd
fe
5
5
f7
f7
fe
f7
fb
0
fc
fd
a
2
3
7
6
3
fb
fb
fb
f8
ff
2
f9
7
9
fd
f8
0
f7
f8
8
b
4
5
2
7
f9
8
f7
fb
a
ff
fc
5
6
f5
fe
5
b
6
fe
fa
f5
a
f8
ff
fb
0
f7
fb
5
f5
4
4
9
f7
fa
7
0
a
5
a
fd
0
7
fa
f6
fd
fd
5
f7
5
f9
1
f6
fd
f9
f5
f4
ff
2
8
4
ff
0
0
6
fe
ff
1
f9
fb
a
f8
7
fe
4
fd
ff
8
a
4
c
2
f8
9
5
fd
fd
1
2
5
5
fb
fa
fc
2
8
f9
5
a
8
5
fe
a
8
f9
fa
2
7
fd
fd
1
f6
fd
8
f8
f9
b
3
1
1
5
1
fa
3
4
f5
fe
ff
ff
b
f5
6
f9
fc
fd
fc
f8
f6
7
5
6
9
1
ff
b
fe
fe
f6
f5
fa
f7
fd
3
9
f8
4
f9
f5
1
1
a
4
a
f8
1
7
2
f5
fa
2
8
4
fe
8
3
f7
f8
1
f8
9
1
0
f8
a
fb
8
fe
5
fd
fe
9
fe
6
f5
f6
4
b
4
8
0
3
f8
f6
0
f6
3
8
1
f7
f8
4
0
1
fc
f7
4
1
fa
f5
f8
3
1
f9
8
4
fc
fd
2
6
3
4
f8
f9
8
7
9
f5
9
f5
f8
9
f5
3
f8
3
7
a
5
b
7
b
f4
fe
7
f7
9
f9
2
8
9
2
fe
fd
9
f6
a
f6
9
f5
fa
f6
f6
5
f9
f5
fc
fb
a
fe
fd
fd
1
fa
f6
fa
ff
7
3
0
fb
f6
f7
f6
f8
fb
0
f7
3
a
f5
4
1
9
fc
2
8
f8
1
a
1
f6
8
5
fb
f4
2
fb
0
fc
f9
8
f7
5
f4
fc
0
f8
4
a
d
7
f6
fd
fe
5
a
fc
1
fc
fc
f8
a
fb
9
1
ff
f9
f5
3
2
f8
0
7
fc
f6
ff
ff
0
f5
4
fa
ff
8
fd
fc
7
5
2
4
fb
a
3
f8
2
f4
a
fa
3
ff
fa
f7
f6
fb
fa
3
c
fb
4
f6
7
3
2
fd
c
fc
0
ff
fd
4
fb
fd
3
2
f6
9
8
f7
f3
ff
2
6
f8
8
f7
fd
f4
ff
9
6
7
fd
9
f8
2
ff
f8
fe
5
f7
fb
f5
5
8
f4
a
a
0
f6
2
3
0
f8
f5
fe
fe
3
ff
9
6
f9
f9
f9
2
5
fb
7
1
fb
7
1
1
fb
7
f8
3
f9
f8
9
3
6
b
fe
fd
fe
ff
fb
7
fd
fb
f8
1
f8
0
fc
f5
fc
5
3
1
fd
7
8
7
f7
c
0
8
4
fe
8
f7
3
0
2
f9
f9
fa
b
f8
fb
1
b
f6
3
1
fc
fe
f7
fa
ff
c
ff
6
f8
7
f9
fb
f5
b
6
f6
7
c
f6
b
4
1
9
4
fa
6
fb
ff
f7
fb
9
a
7
9
f7
a
8
4
6
b
fc
4
fd
9
2
fe
f7
f8
fe
fc
f6
f8
fe
9
8
0
f8
fa
f6
fc
8
f6
5
f4
f6
fc
f8
fe
6
4
f8
fa
0
f5
fe
4
0
fc
5
fd
ff
8
4
8
7
6
f9
5
7
f6
7
3
f8
3
fd
fa
f6
0
ff
f5
5
7
2
0
4
f9
f7
4
7
9
fa
fd
fc
3
ff
7
fe
f7
7
1
f6
fa
f7
7
3
4
fe
fa
3
a
f9
f6
8
f8
a
f8
8
8
3
f9
4
5
fa
ff
a
f5
1
fc
9
4
fe
b
3
fc
ff
fc
6
f8
fb
9
fb
fc
8
4
fb
5
b
7
fb
a
f9
f7
7
4
fa
7
fc
fd
9
fe
1
2
5
7
1
7
f9
7
a
0
f8
1
f6
4
3
0
5
0
4
2
ff
1
4
f9
f9
fc
9
f7
f8
1
8
5
fa
fc
fe
3
fa
f5
a
fc
b
fd
5
7
f6
8
0
b
8
8
3
f6
0
fe
f9
f8
1
f9
f5
fe
ff
fa
8
ff
f8
1
fd
b
5
fa
2
fb
0
2
fc
fe
fd
fe
7
8
fd
f8
fc
f7
0
fd
9
f8
fd
4
2
2
5
2
4
9
f6
1
5
fb
4
f9
f8
fe
7
5
fe
9
ff
fe
fa
8
3
ff
4
2
fe
f7
4
6
fa
fc
8
fb
fb
5
fa
0
0
4
f8
3
f8
ff
7
f9
7
f9
fa
ff
5
f7
fe
0
f4
8
b
fe
3
6
a
3
3
f9
ff
3
f4
fd
8
f5
a
4
3
5
fd
fe
5
4
3
fe
fe
fd
4
4
fe
fa
fb
f8
fd
f6
8
2
6
8
fb
fc
6
4
1
fa
5
f7
fb
b
f4
f6
f4
b
f5
f9
4
fd
0
5
b
f9
ff
b
6
f9
fc
8
f6
9
7
f6
f7
fa
c
a
f8
1
0
fd
f8
4
fa
1
fa
1
4
0
fb
f6
2
9
fd
ff
a
f8
ff
5
ff
f8
fb
3
b
3
f7
f8
6
a
f9
fa
f8
f5
f9
fd
ff
ff
fd
6
7
fb
2
0
f9
3
ff
f8
3
f7
f9
3
8
fc
ff
f8
6
3
b
fc
fe
fd
3
a
fc
ff
7
ff
b
f4
f7
ff
7
4
fe
fc
0
5
fb
f6
3
fc
2
ff
8
4
2
f5
ff
f6
1
7
f5
9
0
fb
8
f9
2
8
fe
6
f8
4
8
7
1
7
f8
f7
7
9
fb
f7
fa
9
ff
ff
f8
f5
5
a
1
fc
fc
f9
f7
b
9
fd
0
a
fd
7
fc
fa
fa
1
fc
3
2
f9
0
0
a
d
7
2
5
8
4
2
f8
0
2
f8
f6
ff
fd
a
fd
b
b
fa
fc
f7
fd
a
9
4
f9
ff
0
fc
fc
f7
6
3
3
f9
7
ff
a
fe
fa
5
4
b
fa
a
fa
f8
f8
ff
f7
7
fa
3
3
fa
a
f8
5
fd
9
a
ff
fc
fa
fb
9
1
b
8
fa
4
f9
fa
fc
6
3
6
f5
f7
6
f6
f8
9
f6
5
fb
ff
fb
fa
f9
ff
6
4
fb
4
a
ff
b
c
fb
f9
7
f7
fc
fa
2
4
5
f9
fe
f7
2
0
9
8
3
f7
a
f7
4
5
f9
7
6
fa
fd
f6
fa
c
1
2
fd
f7
a
5
1
1
4
5
9
f7
fe
6
f3
3
fa
2
fc
5
f5
fc
1
7
ff
a
f5
fa
b
2
f9
6
f8
fd
fa
5
fb
fc
4
7
ff
a
f8
a
fd
ff
fe
8
6
ff
f7
a
6
9
f9
2
fb
f8
f8
f8
a
fc
f8
f6
1
6
8
0
a
6
3
fd
fb
7
f8
b
0
f7
f6
fa
f8
fc
fc
3
f5
1
fb
fc
a
1
fa
fa
9
2
4
4
fa
3
fe
f3
6
9
2
1
9
4
9
9
fd
8
fa
9
fa
fb
ff
1
2
1
fc
4
f7
b
f5
fc
2
0
6
f9
f9
8
a
5
8
0
4
8
fc
f8
9
3
6
4
b
7
f6
fe
1
6
1
3
0
fb
5
fa
fa
f9
fa
8
0
6
7
5
3
0
8
1
f7
f7
8
fc
6
fa
fc
f8
fd
8
5
fe
f8
1
9
f7
fd
2
7
a
fa
fe
0
0
3
5
3
fd
fe
3
f7
f8
8
f9
3
a
fc
1
fa
6
3
0
4
ff
7
fb
1
1
fe
fa
f7
fe
fb
f6
fc
c
5
5
fb
f7
fc
fe
fa
6
4
7
fb
9
1
5
fa
ff
fb
8
fc
fc
f9
fa
fc
7
5
1
fe
2
6
fc
a
fd
f9
2
2
fe
fb
9
a
7
7
fe
f6
fe
6
fa
6
f6
fc
5
fe
f8
2
1
7
4
1
ff
b
fb
8
7
f9
fc
8
fc
a
fe
a
2
f7
0
fe
f8
7
fd
fe
f6
f5
f9
ff
fc
7
fe
f6
f6
2
fa
f9
8
6
f7
5
1
fa
5
f8
5
fb
3
4
b
f8
4
a
2
fb
5
7
a
4
6
0
8
4
0
fd
2
8
7
fa
f6
fe
6
6
f8
f9
0
7
4
6
f8
f6
f9
9
7
0
fb
f9
7
f6
5
ff
fe
2
7
f8
fd
fc
f8
1
f5
fb
3
5
3
f8
fc
a
a
6
a
fe
ff
1
f6
fd
5
ff
b
ff
4
fe
ff
f8
7
3
5
9
f6
a
0
2
2
f6
fb
c
3
b
f8
5
f8
9
fa
f8
f6
f8
fc
f7
f6
b
f8
0
fe
fe
f6
b
3
fd
fb
8
a
1
a
fb
2
4
f8
8
f9
f8
7
fb
2
b
fe
fd
5
fa
f6
fb
fb
0
1
f8
8
f7
3
fe
2
f6
f6
f6
fa
f8
f4
3
2
fa
fd
8
b
8
ff
3
0
fe
fa
3
5
0
f5
f7
fb
9
7
f9
f8
f6
1
6
7
a
f7
a
9
fd
8
6
b
f7
ff
fb
f6
9
f9
8
3
8
f4
2
fd
7
9
1
fa
fd
9
a
f7
3
a
0
fa
a
ff
1
fd
7
5
f5
fe
fd
7
f6
fe
7
6
f4
f7
fd
1
0
8
fe
f7
fb
f7
fd
2
6
fa
a
4
9
8
8
fc
fc
0
8
ff
fd
f8
fe
8
f7
7
9
fd
ff
7
a
4
9
ff
fd
f9
1
3
f9
fd
ff
1
fa
1
9
1
6
fd
5
9
f8
9
0
fd
f7
f8
fe
fd
4
ff
6
a
5
3
6
7
f9
f6
2
f7
2
f5
ff
7
0
ff
0
f5
f8
2
fc
fe
3
9
4
6
ff
6
3
3
a
f6
fd
4
7
a
fe
5
f8
4
fa
f9
a
f8
ff
f7
f8
b
fc
f8
0
f5
f7
5
f6
2
0
9
fe
8
b
ff
f9
f9
f7
f9
fe
f6
a
6
ff
fe
f8
f8
7
a
fe
f7
8
f6
f9
3
2
5
a
ff
f9
7
2
fc
f9
f5
ff
0
a
fb
4
fa
4
fd
4
f8
0
1
fc
8
fb
ff
fc
ff
fb
fd
4
2
f6
8
fb
3
fa
fd
1
ff
fb
f7
f5
fe
fa
6
f6
fb
4
fb
7
f8
f5
fc
1
a
5
3
fb
a
f7
f6
7
8
fb
1
f7
fc
4
f6
f9
fe
4
2
f5
